<s>	0
</s>	0
<unk>	0
<pad>	0
.	-3.08688
▁the	-3.24012
s	-3.40162
,	-3.56903
▁to	-3.92843
▁a	-4.00545
▁of	-4.03126
▁in	-4.16548
▁and	-4.30442
'	-4.49741
▁	-4.60704
▁The	-4.79028
ed	-4.86336
-	-4.90263
ing	-4.98384
▁for	-4.98964
▁is	-5.05392
▁on	-5.07792
▁that	-5.12681
▁said	-5.15192
▁was	-5.21013
t	-5.29523
▁"	-5.3349
▁with	-5.41023
d	-5.60643
▁I	-5.61119
▁at	-5.6127
▁his	-5.64499
▁it	-5.67799
▁be	-5.69049
▁He	-5.71213
▁from	-5.71456
▁has	-5.72274
▁by	-5.73963
▁have	-5.75167
▁he	-5.76888
▁as	-5.83654
▁are	-5.84138
▁an	-5.94886
▁will	-6.00377
ly	-6.01053
e	-6.03175
▁you	-6.05829
▁not	-6.06573
▁were	-6.06608
y	-6.08679
▁up	-6.15974
er	-6.18386
,"	-6.19412
▁had	-6.22464
▁out	-6.24156
n	-6.2573
▁A	-6.27863
▁been	-6.3198
▁who	-6.34672
▁this	-6.35343
S	-6.3568
▁her	-6.35864
m	-6.41854
▁about	-6.42734
▁after	-6.43246
▁their	-6.47931
re	-6.4895
▁U	-6.51466
▁they	-6.54401
▁but	-6.54487
▁people	-6.54971
)	-6.57876
▁its	-6.58736
▁more	-6.58945
al	-6.59418
▁two	-6.6081
▁(	-6.63715
▁would	-6.64315
▁over	-6.64841
"	-6.67082
▁one	-6.67378
▁which	-6.68415
o	-6.68637
▁into	-6.70466
▁we	-6.72912
▁or	-6.73477
▁Korea	-6.75486
▁She	-6.76861
▁all	-6.77004
▁can	-6.7705
▁than	-6.78636
▁him	-6.79082
▁she	-6.79859
a	-6.79918
?	-6.82656
▁government	-6.82813
▁We	-6.84409
r	-6.84998
▁It	-6.85187
in	-6.87122
▁also	-6.88067
▁new	-6.88208
▁when	-6.89527
es	-6.9034
▁me	-6.90392
▁last	-6.90826
▁your	-6.93449
▁time	-6.93721
▁In	-6.94012
▁year	-6.94365
ll	-6.94718
I	-6.95472
▁first	-6.96203
g	-6.9746
▁off	-7.01104
▁down	-7.01449
en	-7.02083
c	-7.02246
▁North	-7.02538
▁other	-7.0294
p	-7.03977
or	-7.04414
▁no	-7.05068
▁told	-7.11479
▁years	-7.11542
▁some	-7.12643
▁so	-7.1269
▁my	-7.1336
▁do	-7.14993
b	-7.15107
▁They	-7.15885
▁re	-7.16157
▁police	-7.16775
▁could	-7.17234
▁President	-7.17554
u	-7.18785
le	-7.19508
▁South	-7.20287
ers	-7.22063
▁our	-7.2241
th	-7.24668
▁C	-7.24767
▁S	-7.24878
ri	-7.25883
▁percent	-7.26286
▁them	-7.26303
▁there	-7.26492
ar	-7.28234
ve	-7.28263
i	-7.28727
▁back	-7.29323
ra	-7.29712
ic	-7.30026
▁before	-7.30242
▁what	-7.30531
▁de	-7.30666
:	-7.31017
A	-7.31063
▁country	-7.31276
k	-7.31888
l	-7.33697
▁United	-7.34158
▁three	-7.34898
▁against	-7.35669
▁Korean	-7.3575
it	-7.36561
an	-7.36677
▁But	-7.39202
▁Monday	-7.40028
on	-7.40402
▁if	-7.40474
▁like	-7.42064
▁says	-7.42325
▁made	-7.42642
▁just	-7.42952
ro	-7.43196
ion	-7.43909
▁Iraq	-7.43933
▁Tuesday	-7.44006
▁get	-7.44045
▁now	-7.44461
▁c	-7.44686
f	-7.45114
▁through	-7.45484
▁go	-7.45552
▁say	-7.45743
▁Obama	-7.45968
ation	-7.46986
▁week	-7.4714
▁work	-7.47301
▁military	-7.48877
▁under	-7.49449
▁officials	-7.49671
▁according	-7.50063
▁where	-7.50641
▁very	-7.50836
▁day	-7.51048
▁only	-7.51534
▁million	-7.51691
▁Wednesday	-7.52153
el	-7.52489
▁world	-7.5338
▁un	-7.53438
▁p	-7.53509
▁since	-7.54655
▁Sunday	-7.54932
The	-7.55407
▁f	-7.56219
▁any	-7.56739
▁because	-7.56796
▁China	-7.5685
▁us	-7.57058
ur	-7.57324
▁being	-7.57815
▁between	-7.57846
il	-7.5827
▁T	-7.5868
."	-7.58937
old	-7.59217
h	-7.59228
▁This	-7.59427
▁home	-7.5958
▁New	-7.60117
▁man	-7.60162
CNN	-7.60843
▁nuclear	-7.61624
se	-7.6271
▁state	-7.63106
▁Bush	-7.63122
during	-7.6326
▁killed	-7.63384
▁car	-7.63518
C	-7.64086
▁make	-7.64709
▁good	-7.65286
▁most	-7.65558
▁Thursday	-7.65587
year	-7.65693
▁reported	-7.65847
v	-7.66321
▁“	-7.6654
;	-7.66885
▁take	-7.67296
▁should	-7.67454
la	-7.67935
▁many	-7.68323
▁States	-7.68735
▁His	-7.69816
▁́	-7.69919
▁F	-7.7029
at	-7.71109
’	-7.71275
▁B	-7.72234
▁won	-7.72658
ent	-7.7303
▁next	-7.73047
▁may	-7.73462
▁come	-7.73605
▁You	-7.73931
▁end	-7.7402
▁official	-7.74746
ch	-7.74994
▁found	-7.75249
▁well	-7.7541
▁much	-7.76626
▁away	-7.7667
N	-7.76798
▁set	-7.76941
▁while	-7.77173
▁month	-7.77587
▁news	-7.79021
▁did	-7.79057
▁called	-7.79524
ul	-7.79758
We	-7.79949
est	-7.80195
▁help	-7.80362
▁part	-7.80393
▁former	-7.80412
man	-7.80527
▁long	-7.80538
▁way	-7.81011
▁statement	-7.81028
▁president	-7.81452
▁W	-7.81683
ir	-7.82872
li	-7.82884
▁children	-7.8329
▁including	-7.8355
▁still	-7.8388
▁days	-7.83915
▁such	-7.84256
▁b	-7.84431
▁know	-7.84576
▁E	-7.84943
▁war	-7.8501
us	-7.85157
▁There	-7.85384
▁report	-7.85771
▁going	-7.86086
▁city	-7.86166
▁see	-7.86168
able	-7.86553
!	-7.86779
z	-7.87227
ol	-7.87265
▁around	-7.87423
▁group	-7.87459
▁four	-7.87883
st	-7.87937
▁don	-7.88357
▁10	-7.88489
un	-7.88517
▁came	-7.88566
▁how	-7.88973
1	-7.89038
▁money	-7.891
▁five	-7.89382
▁put	-7.89438
is	-7.90062
▁second	-7.90587
▁must	-7.9108
and	-7.92304
▁six	-7.92429
to	-7.92734
▁those	-7.92827
▁party	-7.94245
▁think	-7.94282
▁CNN	-7.94371
ity	-7.94459
▁spokesman	-7.95023
ive	-7.95294
ment	-7.95644
▁co	-7.96602
ist	-7.96804
▁high	-7.97071
▁talks	-7.97078
T	-7.97334
▁left	-7.97359
▁Japan	-7.97391
ma	-7.97993
▁troops	-7.98842
as	-7.99073
▁National	-7.99838
▁US	-7.99923
▁That	-8.00107
▁head	-8.00152
▁life	-8.00321
2	-8.00473
E	-8.00559
▁want	-8.012
um	-8.01221
▁reports	-8.01307
▁company	-8.01408
▁got	-8.02112
▁security	-8.02381
▁house	-8.02571
▁Minister	-8.02736
lo	-8.0282
▁19	-8.03079
▁attack	-8.03125
▁K	-8.03136
▁office	-8.03537
P	-8.03571
▁night	-8.03827
▁least	-8.03991
sh	-8.04301
▁public	-8.05204
he	-8.05415
3	-8.0595
▁another	-8.05995
▁meeting	-8.0616
▁M	-8.06796
▁American	-8.06942
▁went	-8.07308
▁top	-8.07711
ne	-8.08045
▁plan	-8.08812
▁took	-8.09068
L	-8.09266
the	-8.09275
▁John	-8.0947
▁leader	-8.09612
▁used	-8.10261
▁number	-8.10582
B	-8.10622
ta	-8.10853
ate	-8.10859
ce	-8.10894
▁fire	-8.11984
te	-8.1202
▁An	-8.12121
id	-8.12177
0	-8.12647
▁water	-8.12761
▁al	-8.12764
de	-8.13029
▁Seoul	-8.13445
▁early	-8.1348
▁give	-8.13494
▁saying	-8.13899
▁right	-8.14511
▁``	-8.14542
▁died	-8.14833
▁billion	-8.14849
▁deal	-8.14976
.”	-8.15207
ha	-8.15217
▁family	-8.15246
ck	-8.15365
ia	-8.15486
D	-8.16327
▁House	-8.16672
▁expected	-8.16715
▁use	-8.16923
ad	-8.16971
▁death	-8.17061
▁Clinton	-8.17286
▁show	-8.17395
▁yesterday	-8.17492
ter	-8.18345
up	-8.18821
▁several	-8.19473
▁here	-8.19508
▁D	-8.19605
▁both	-8.19641
▁York	-8.19685
▁H	-8.19741
▁near	-8.19745
It	-8.19817
w	-8.19851
▁P	-8.20166
▁Saturday	-8.20213
▁20	-8.20551
▁countries	-8.20749
et	-8.20813
▁men	-8.20819
▁months	-8.20839
▁political	-8.20852
we	-8.20861
am	-8.20947
▁best	-8.21174
▁Friday	-8.2128
▁Chinese	-8.21308
▁British	-8.21495
▁campaign	-8.21495
▁power	-8.21539
▁support	-8.22225
▁place	-8.22285
▁team	-8.22563
ies	-8.22962
7	-8.23049
▁court	-8.23273
▁Iraqi	-8.23551
▁t	-8.23598
▁presidential	-8.23695
M	-8.2383
▁N	-8.24026
ian	-8.24058
▁school	-8.24262
▁old	-8.24564
me	-8.2466
▁even	-8.24687
▁members	-8.24965
4	-8.25053
▁without	-8.25325
▁ago	-8.25718
▁past	-8.25737
▁Ma	-8.2604
ted	-8.26235
▁hand	-8.26324
▁G	-8.26376
▁Washington	-8.26451
▁late	-8.26672
▁same	-8.26678
▁De	-8.2673
▁forces	-8.27029
but	-8.27176
mp	-8.27708
▁What	-8.27985
▁need	-8.28227
▁morning	-8.28424
ting	-8.28625
son	-8.28891
▁hit	-8.28953
▁held	-8.2928
led	-8.29395
O	-8.2973
▁Party	-8.29803
6	-8.30004
5	-8.30117
/	-8.30126
▁capital	-8.30132
▁business	-8.30141
ated	-8.30218
▁If	-8.30389
▁national	-8.30545
age	-8.30604
▁hard	-8.30852
▁few	-8.30867
▁international	-8.31074
▁g	-8.31244
na	-8.31393
,000	-8.31417
▁later	-8.31454
im	-8.31648
▁own	-8.31841
▁am	-8.31907
▁O	-8.31961
▁until	-8.32025
▁never	-8.3227
▁And	-8.32676
▁soon	-8.32713
▁No	-8.32861
▁site	-8.33125
▁among	-8.33244
G	-8.33686
ton	-8.33704
▁women	-8.3371
▁economic	-8.33732
▁then	-8.33932
▁Re	-8.33942
▁face	-8.34162
▁market	-8.34571
▁election	-8.34654
ine	-8.34861
▁too	-8.35131
▁little	-8.35178
▁1	-8.35197
▁Iran	-8.35221
▁case	-8.35295
▁these	-8.35314
▁force	-8.35489
ling	-8.355
F	-8.3557
ry	-8.35653
▁job	-8.3594
▁announced	-8.35978
▁each	-8.36053
be	-8.3622
▁st	-8.36286
▁town	-8.36307
▁visit	-8.36307
▁minister	-8.36356
com	-8.36457
▁con	-8.36822
▁great	-8.36957
▁Kim	-8.3715
▁program	-8.37911
ance	-8.37958
whether	-8.38181
▁win	-8.3822
pe	-8.3824
▁Ba	-8.38547
ge	-8.38761
▁keep	-8.38858
▁play	-8.38889
▁every	-8.39072
▁hours	-8.39081
▁2	-8.39151
▁today	-8.39922
▁3	-8.40053
▁law	-8.40113
ab	-8.40385
▁health	-8.40388
ant	-8.40424
▁book	-8.40485
▁At	-8.40622
▁move	-8.40629
▁World	-8.40753
▁area	-8.41103
co	-8.41228
▁along	-8.41278
▁again	-8.41355
▁room	-8.41442
▁recent	-8.41461
▁began	-8.41744
▁nation	-8.41999
H	-8.42139
▁find	-8.42292
▁Lee	-8.42305
▁Do	-8.42318
ous	-8.42378
▁half	-8.42462
▁across	-8.42594
ni	-8.427
op	-8.42712
▁chief	-8.43393
ru	-8.43449
▁taken	-8.43663
▁foreign	-8.43715
▁return	-8.43962
ver	-8.44033
▁15	-8.44356
▁decision	-8.44469
ary	-8.44697
ty	-8.45123
▁order	-8.45241
▁air	-8.45295
▁asked	-8.4548
▁major	-8.4607
▁become	-8.46108
ti	-8.46158
▁Democratic	-8.46255
▁media	-8.46545
▁round	-8.4669
▁L	-8.46791
▁close	-8.46801
▁food	-8.46842
▁child	-8.46863
▁better	-8.47014
▁financial	-8.47072
▁Al	-8.47373
▁r	-8.47516
▁On	-8.47889
▁already	-8.47908
▁lead	-8.47927
▁oil	-8.47946
▁local	-8.48051
▁earlier	-8.48189
▁economy	-8.48329
▁R	-8.48503
▁train	-8.48773
▁Police	-8.48893
▁authorities	-8.48896
▁plans	-8.48896
▁gave	-8.49035
▁Prime	-8.49039
▁30	-8.49102
▁pro	-8.49293
ke	-8.49357
▁Ministry	-8.4946
▁lot	-8.49582
▁Don	-8.49792
▁As	-8.49833
▁11	-8.49985
▁Ra	-8.50016
gu	-8.50035
▁7	-8.5008
▁human	-8.50317
▁Pakistan	-8.50325
▁Taliban	-8.50484
▁London	-8.50604
▁always	-8.50604
▁released	-8.50638
ors	-8.50686
▁hospital	-8.5088
▁letter	-8.51074
▁8	-8.51078
▁run	-8.51873
▁large	-8.51893
▁start	-8.52016
▁per	-8.52267
▁miles	-8.52823
▁cut	-8.53089
▁side	-8.5318
▁State	-8.53488
▁look	-8.53654
▁opposition	-8.53818
▁leaders	-8.5401
▁e	-8.54155
less	-8.54279
▁system	-8.54391
▁dead	-8.544
▁When	-8.54425
▁12	-8.54461
▁main	-8.54705
▁Co	-8.54855
▁workers	-8.55001
ut	-8.55013
▁far	-8.55058
▁seen	-8.5509
▁small	-8.55107
▁Her	-8.55244
▁name	-8.55252
▁agency	-8.55314
▁might	-8.55318
▁open	-8.55365
▁point	-8.5539
▁French	-8.55465
out	-8.55568
▁5	-8.55798
▁send	-8.55876
▁White	-8.56374
▁La	-8.56465
no	-8.56549
▁agreement	-8.5685
▁free	-8.569
▁live	-8.57243
▁Japanese	-8.57457
ness	-8.57666
▁station	-8.57671
▁film	-8.57681
▁McCain	-8.5791
▁Roh	-8.581
▁issue	-8.58115
▁allow	-8.58328
▁region	-8.58393
▁For	-8.58466
▁big	-8.58594
ci	-8.58629
▁sp	-8.58682
▁himself	-8.58686
▁mother	-8.58692
taking	-8.59052
▁stop	-8.59186
▁University	-8.59311
▁woman	-8.59311
”	-8.59828
▁So	-8.59898
▁vote	-8.60043
di	-8.60286
R	-8.60433
▁third	-8.60548
▁St	-8.60581
▁Some	-8.60732
▁record	-8.60792
▁May	-8.6084
ang	-8.60846
8	-8.60968
ig	-8.61162
va	-8.61199
▁fell	-8.61379
▁making	-8.61468
▁Beijing	-8.61532
ial	-8.61592
▁prices	-8.61612
da	-8.61803
ba	-8.61845
▁others	-8.61932
▁killing	-8.61942
▁Afghanistan	-8.62014
▁father	-8.62015
▁""	-8.62042
▁matter	-8.62183
▁Le	-8.62195
▁known	-8.62703
▁All	-8.6277
po	-8.62779
ap	-8.62784
▁didn	-8.62934
▁information	-8.62999
▁nearly	-8.63038
▁shot	-8.63151
▁attacks	-8.63153
▁bank	-8.63212
▁After	-8.63221
▁does	-8.63321
▁soldiers	-8.63575
▁release	-8.63599
▁change	-8.63731
ish	-8.63784
▁lost	-8.63832
▁Press	-8.63994
K	-8.64058
▁50	-8.64146
▁believe	-8.64246
▁space	-8.64403
▁hope	-8.64421
▁control	-8.64476
▁18	-8.64484
▁rain	-8.64642
▁final	-8.64722
▁dis	-8.64821
ful	-8.65227
▁thought	-8.65405
▁Web	-8.65413
▁heart	-8.65436
▁let	-8.65489
▁really	-8.65563
▁One	-8.66051
▁weeks	-8.66083
▁students	-8.66338
▁line	-8.66435
▁trying	-8.66478
min	-8.66541
▁tell	-8.66636
▁building	-8.66652
▁enough	-8.66974
▁ex	-8.67019
▁working	-8.67203
▁young	-8.67212
ally	-8.6729
▁price	-8.67395
▁study	-8.67644
x	-8.67818
▁bring	-8.67845
▁post	-8.67907
▁offer	-8.67967
▁6	-8.68135
▁call	-8.68228
▁together	-8.68678
▁Sen	-8.68836
▁Li	-8.69092
▁Israel	-8.69254
▁boy	-8.69417
▁European	-8.6942
▁sent	-8.69439
▁eight	-8.69502
iv	-8.69584
▁To	-8.69675
▁agreed	-8.69675
if	-8.6968
▁-	-8.69685
▁$1	-8.69734
▁following	-8.69938
▁pay	-8.70132
ence	-8.70171
rs	-8.7033
▁general	-8.7051
▁My	-8.70804
▁person	-8.70897
▁interview	-8.70944
▁trade	-8.70947
▁Department	-8.71119
▁race	-8.71127
▁arrested	-8.71252
▁Israeli	-8.71284
▁possible	-8.71296
nd	-8.7146
▁Barack	-8.71484
▁toward	-8.71747
▁outside	-8.71968
▁province	-8.72153
U	-8.72222
▁clear	-8.72235
mon	-8.7258
▁gas	-8.72729
▁game	-8.7282
fi	-8.72857
▁Britain	-8.729
ot	-8.73083
▁plane	-8.73098
▁conference	-8.7326
▁4	-8.73531
▁ground	-8.73586
▁full	-8.73759
ard	-8.73786
▁son	-8.73873
▁once	-8.73901
spite	-8.73905
▁Secretary	-8.73984
ak	-8.74149
▁investigation	-8.74168
▁key	-8.74351
▁saw	-8.7437
W	-8.74465
▁points	-8.74536
do	-8.74591
▁Sa	-8.74683
▁kind	-8.7488
▁yet	-8.74901
▁coming	-8.74969
time	-8.75033
per	-8.751
▁travel	-8.75233
▁Russia	-8.75292
▁added	-8.75777
▁Times	-8.75844
▁violence	-8.76003
▁tried	-8.76022
▁having	-8.76058
▁weapons	-8.76072
mo	-8.76109
ph	-8.76113
▁January	-8.76374
▁further	-8.76376
▁meet	-8.76516
▁video	-8.76746
▁ahead	-8.76767
day	-8.76794
▁France	-8.76934
▁front	-8.77033
end	-8.77152
▁future	-8.77308
▁body	-8.77381
one	-8.7745
▁global	-8.77496
▁minutes	-8.7778
ow	-8.77945
▁service	-8.77961
ions	-8.78433
ca	-8.78491
▁feel	-8.7852
▁behind	-8.78632
ud	-8.78654
▁able	-8.78669
▁J	-8.78682
▁California	-8.78852
▁light	-8.7893
▁seven	-8.78946
▁likely	-8.79022
▁la	-8.79081
▁strong	-8.79237
red	-8.79314
▁met	-8.79439
ure	-8.79715
▁age	-8.79745
▁administration	-8.7978
▁door	-8.79902
▁within	-8.79962
hi	-8.79975
▁list	-8.80011
▁led	-8.80012
¡	-8.8013
▁sea	-8.80534
ac	-8.8055
▁crisis	-8.80553
▁ship	-8.80674
▁16	-8.80716
ung	-8.80835
▁June	-8.80957
▁director	-8.81001
tic	-8.81068
▁bill	-8.81119
▁problem	-8.81138
▁d	-8.81159
▁showed	-8.81229
▁wife	-8.81332
ga	-8.81389
tor	-8.81444
▁Baghdad	-8.81528
▁started	-8.81612
▁crowd	-8.81724
▁done	-8.81737
ever	-8.81815
▁important	-8.81929
▁International	-8.82117
go	-8.82182
lu	-8.82306
▁militants	-8.82334
ong	-8.8245
▁something	-8.82515
▁process	-8.82521
▁less	-8.82619
▁center	-8.82715
▁hold	-8.82738
▁increase	-8.82739
0,000	-8.82822
▁bad	-8.83007
▁America	-8.83131
▁given	-8.83269
▁due	-8.83453
way	-8.83514
ex	-8.83612
▁bomb	-8.83632
▁accident	-8.83706
▁rights	-8.83728
▁getting	-8.83822
▁Ha	-8.84034
▁Internet	-8.84107
ho	-8.84108
▁road	-8.84108
▁40	-8.84152
▁pre	-8.84154
▁...	-8.84482
bo	-8.84576
▁storm	-8.84616
mi	-8.84678
▁charges	-8.84895
▁England	-8.85117
land	-8.85225
▁July	-8.85237
▁southern	-8.85326
▁English	-8.85524
▁rest	-8.85604
der	-8.85791
▁couple	-8.86007
▁girl	-8.86104
▁companies	-8.86138
▁ever	-8.86174
▁Pyongyang	-8.86343
▁March	-8.86413
▁100	-8.86435
▁Foreign	-8.86755
▁accused	-8.86763
▁latest	-8.86854
▁14	-8.86861
▁leave	-8.86956
ng	-8.86976
▁result	-8.87383
pi	-8.87433
▁often	-8.87649
▁speech	-8.88001
▁peace	-8.882
▁cause	-8.88279
▁San	-8.88405
ie	-8.88484
▁w	-8.88529
▁stay	-8.88587
▁Be	-8.8861
▁Se	-8.89068
▁real	-8.8911
▁newspaper	-8.89556
▁question	-8.89585
ner	-8.89657
▁search	-8.89687
▁anti	-8.89804
▁aid	-8.89967
▁George	-8.90113
▁en	-8.90224
▁cannot	-8.90373
▁Europe	-8.90481
▁25	-8.9057
▁”	-8.90598
▁break	-8.90641
▁looking	-8.90673
ating	-8.90858
▁border	-8.90861
▁story	-8.90866
▁9	-8.91023
▁efforts	-8.91215
▁largest	-8.91219
▁candidate	-8.91327
con	-8.91383
che	-8.91387
▁Ca	-8.91412
hu	-8.91454
▁interest	-8.91556
qu	-8.91581
▁different	-8.91622
▁special	-8.91979
▁short	-8.92
▁Palestinian	-8.92032
▁received	-8.92059
▁September	-8.9208
▁season	-8.92084
▁continue	-8.92153
▁13	-8.92194
▁Na	-8.9234
▁Congress	-8.92489
▁decided	-8.92612
▁policy	-8.92708
▁mind	-8.92713
▁Associat	-8.92865
▁action	-8.93059
▁read	-8.93161
▁star	-8.93247
▁Ho	-8.93337
▁care	-8.93523
▁turned	-8.93641
▁Ro	-8.93727
▁position	-8.93761
▁Su	-8.93865
▁doing	-8.93924
▁fall	-8.93998
▁AP	-8.94137
▁accept	-8.94188
▁central	-8.94253
▁try	-8.94312
▁weekend	-8.94325
▁sign	-8.94478
▁prison	-8.94642
▁role	-8.94933
▁thousands	-8.95094
▁history	-8.95149
wa	-8.95274
▁comes	-8.95304
▁Afghan	-8.95372
▁disease	-8.95373
▁nothing	-8.95381
▁v	-8.95422
▁things	-8.9546
fe	-8.95464
ning	-8.95469
▁forward	-8.95579
▁victory	-8.95597
▁member	-8.95636
▁urg	-8.95647
ize	-8.95928
▁h	-8.96101
▁press	-8.9612
▁wanted	-8.96228
▁problems	-8.96274
▁almost	-8.96285
▁senior	-8.96506
▁mis	-8.96511
ub	-8.9655
▁teacher	-8.96595
▁poll	-8.96683
▁judge	-8.96731
▁Russian	-8.96736
▁battle	-8.97018
▁Bank	-8.97021
▁industry	-8.97417
▁doesn	-8.97454
▁Gaza	-8.97885
▁land	-8.98089
▁groups	-8.98171
▁Please	-8.98173
▁music	-8.98204
▁reporters	-8.98471
▁cost	-8.985
▁With	-8.985
▁prime	-8.98679
▁ten	-8.98726
▁David	-8.9904
▁times	-8.99048
▁form	-8.99225
▁emergency	-8.99271
▁trip	-8.99479
▁airport	-8.99522
line	-8.99642
▁December	-8.9974
▁test	-8.9976
▁television	-8.99976
▁heavy	-9.00034
▁Ka	-9.00167
article	-9.00233
▁hotel	-9.00245
▁confirmed	-9.00355
▁Mo	-9.00607
ism	-9.00621
▁black	-9.00693
▁Bo	-9.00817
▁ruling	-9.00923
▁research	-9.0108
▁act	-9.01131
▁mo	-9.01138
▁Pa	-9.01277
▁di	-9.01352
▁turn	-9.01389
▁rate	-9.0141
ki	-9.0142
▁Ki	-9.01553
▁ran	-9.01598
▁current	-9.01632
▁April	-9.01638
▁How	-9.01652
▁Two	-9.01665
ran	-9.01676
▁o	-9.01737
▁firm	-9.01777
▁expect	-9.01824
▁inter	-9.01851
▁situation	-9.01878
ster	-9.02072
▁Mar	-9.02088
▁total	-9.02135
▁Our	-9.02221
▁TV	-9.02427
▁fight	-9.02486
▁East	-9.02514
▁address	-9.02843
▁contract	-9.02843
▁talk	-9.02922
▁provide	-9.02977
▁wants	-9.03027
gg	-9.03152
▁sun	-9.03153
▁northern	-9.03336
▁elections	-9.03342
▁17	-9.03635
▁Park	-9.03729
ized	-9.03781
This	-9.03798
▁whose	-9.03808
dy	-9.04042
▁brought	-9.04063
▁count	-9.04067
▁bar	-9.04082
▁bus	-9.04194
▁incident	-9.04308
▁Me	-9.04496
▁Security	-9.04555
▁inside	-9.04883
9	-9.04963
▁match	-9.0497
▁suicide	-9.05049
""	-9.05123
▁idea	-9.05158
lic	-9.05162
▁Court	-9.05298
men	-9.0542
▁wounded	-9.0551
became	-9.05558
▁Australia	-9.05607
▁Dr	-9.0565
▁injured	-9.05671
▁heard	-9.05783
▁Ta	-9.05866
▁arrived	-9.05914
▁November	-9.06045
ber	-9.06158
▁War	-9.06167
▁immediately	-9.06173
▁caused	-9.06232
▁V	-9.06255
▁credit	-9.06296
▁using	-9.06357
▁speak	-9.06367
▁friend	-9.06495
ka	-9.06497
by	-9.06604
▁buy	-9.06619
▁account	-9.06759
▁answer	-9.06799
▁shall	-9.068
▁view	-9.06945
▁fact	-9.06948
▁army	-9.07447
our	-9.07604
▁involved	-9.07725
han	-9.07735
▁weather	-9.07813
▁fuel	-9.07814
tra	-9.07815
▁Republican	-9.07828
▁project	-9.07836
50	-9.07858
▁th	-9.08111
▁believed	-9.08126
00	-9.08165
▁date	-9.08232
side	-9.08245
▁City	-9.08291
ny	-9.08377
▁low	-9.08558
ble	-9.08674
▁success	-9.08953
▁broke	-9.0903
▁love	-9.09097
▁sure	-9.09223
▁October	-9.09354
▁24	-9.09438
ev	-9.09568
lin	-9.09845
▁protest	-9.09856
▁dog	-9.09871
▁energy	-9.09872
▁step	-9.10025
▁pressure	-9.10154
▁Da	-9.10238
▁August	-9.10394
▁coast	-9.10395
har	-9.1089
▁evidence	-9.10918
▁private	-9.10918
▁series	-9.10919
ier	-9.10925
pl	-9.10975
long	-9.10992
▁bit	-9.11015
▁Qaeda	-9.11023
▁Asia	-9.11261
▁lives	-9.1128
▁reached	-9.11306
▁leading	-9.11413
▁flight	-9.11596
▁60	-9.11644
▁More	-9.11689
▁Defense	-9.1171
▁Pe	-9.11718
▁island	-9.11754
▁India	-9.11763
▁Ga	-9.11856
hile	-9.11928
▁begin	-9.11965
▁j	-9.12008
ec	-9.12115
▁Po	-9.12138
▁attempt	-9.12698
▁failed	-9.12704
▁fighting	-9.13
▁baby	-9.13043
▁appeared	-9.1306
ical	-9.13098
sa	-9.13135
▁term	-9.1316
▁results	-9.13303
▁gr	-9.1341
bi	-9.13513
▁scene	-9.13583
▁based	-9.13793
▁brother	-9.13852
▁daughter	-9.13852
▁damage	-9.14035
▁protect	-9.14081
▁check	-9.14119
▁enemy	-9.14123
▁anything	-9.14125
▁cold	-9.14128
▁2005	-9.14145
▁Americans	-9.14317
▁movie	-9.1434
▁event	-9.14447
▁Musharraf	-9.14667
▁wall	-9.14747
▁Paul	-9.14818
▁prevent	-9.1494
▁medical	-9.14941
aw	-9.15158
fa	-9.15174
▁parents	-9.15215
▁doctor	-9.1522
▁li	-9.15246
▁sources	-9.15294
▁sw	-9.15463
▁Center	-9.1549
▁claim	-9.15529
▁sales	-9.15552
▁red	-9.15683
▁aim	-9.15685
▁murder	-9.15764
pa	-9.15932
ger	-9.15995
▁hour	-9.16011
▁message	-9.16047
▁2004	-9.1606
cent	-9.16132
▁quickly	-9.16149
▁lower	-9.16291
▁summer	-9.16321
ron	-9.16582
▁planned	-9.1663
▁cover	-9.16704
bu	-9.16878
▁running	-9.16901
▁operation	-9.16905
▁risk	-9.17157
▁Ja	-9.17184
▁opened	-9.17187
ley	-9.17297
for	-9.173
▁condition	-9.17484
▁arrest	-9.17503
▁Di	-9.176
▁base	-9.17629
ack	-9.17689
▁imp	-9.17747
▁mission	-9.17872
▁stage	-9.17912
▁Gen	-9.17932
em	-9.17971
▁include	-9.17978
▁ready	-9.18006
▁quite	-9.18069
▁course	-9.18095
▁2006	-9.1823
▁kept	-9.18278
▁Let	-9.18424
▁level	-9.18681
▁recently	-9.18808
run	-9.18835
ah	-9.18898
ov	-9.18933
▁strike	-9.19051
so	-9.19125
▁Council	-9.19131
▁February	-9.19131
▁committee	-9.19131
▁federal	-9.19131
▁sex	-9.19171
▁friends	-9.19185
act	-9.19382
▁afternoon	-9.19417
back	-9.19421
▁crew	-9.19454
▁request	-9.19501
▁calls	-9.1951
▁phone	-9.19535
off	-9.19541
▁Can	-9.19781
ring	-9.19962
▁present	-9.20082
▁amid	-9.20082
▁passed	-9.20122
based	-9.20191
▁victims	-9.20208
▁park	-9.20233
▁According	-9.20278
▁rather	-9.20284
▁nine	-9.20302
▁wind	-9.20465
▁stand	-9.20473
▁needed	-9.20484
▁fine	-9.20545
▁production	-9.20604
▁Senate	-9.20618
ged	-9.20671
▁mountain	-9.20857
▁homes	-9.20962
▁parliament	-9.20988
▁2008	-9.21162
mm	-9.21199
ned	-9.21332
ship	-9.21358
▁husband	-9.2144
▁living	-9.2144
▁boat	-9.21464
▁charged	-9.21467
io	-9.21638
▁areas	-9.21741
gen	-9.21843
▁host	-9.21911
▁closed	-9.21931
▁serious	-9.22073
▁German	-9.22105
▁thing	-9.22169
▁fear	-9.22315
▁rival	-9.2232
▁difficult	-9.2236
▁looked	-9.22675
▁words	-9.22676
▁spent	-9.22993
▁remain	-9.23187
▁board	-9.23348
▁Hu	-9.23415
▁Germany	-9.23436
▁effort	-9.23464
▁gun	-9.23552
▁Vi	-9.23629
ious	-9.23702
▁Ri	-9.23738
▁spokeswoman	-9.23803
▁bl	-9.23821
all	-9.23848
▁seem	-9.2385
▁West	-9.23958
▁south	-9.24091
vo	-9.24104
▁However	-9.24121
▁though	-9.24207
He	-9.24247
▁goods	-9.24375
▁river	-9.24405
▁bid	-9.24469
mer	-9.2452
▁mark	-9.24959
▁village	-9.25289
row	-9.25309
ice	-9.25417
▁higher	-9.25446
▁biggest	-9.25613
▁trial	-9.25673
rd	-9.25765
▁negotiations	-9.25924
▁hundreds	-9.25992
▁?	-9.26007
ther	-9.26008
▁scheduled	-9.26035
▁Florida	-9.26224
▁continued	-9.26299
▁Car	-9.26323
▁stock	-9.26405
▁online	-9.26433
▁shut	-9.26538
▁nations	-9.26589
▁moment	-9.26597
▁growing	-9.26611
▁Moo	-9.26642
▁hands	-9.26657
▁street	-9.26837
▁felt	-9.2684
▁rule	-9.26913
▁hear	-9.27102
▁Nations	-9.27153
▁north	-9.27171
▁growth	-9.27188
▁issued	-9.27262
▁whole	-9.27311
▁demand	-9.27326
▁Bar	-9.27375
▁holiday	-9.27456
▁Brown	-9.27457
▁ban	-9.27478
▁development	-9.27496
▁Pro	-9.27681
▁population	-9.27767
▁nomination	-9.27786
▁voters	-9.27807
.5	-9.279
▁rise	-9.27927
▁claimed	-9.28017
▁goal	-9.28077
▁Tokyo	-9.28078
▁chairman	-9.28101
▁Cup	-9.28292
▁Australian	-9.28315
▁reach	-9.28337
▁poor	-9.28393
▁alleged	-9.28459
▁paper	-9.2852
▁23	-9.286
▁lo	-9.28637
▁pass	-9.28652
▁attention	-9.28704
▁Hamas	-9.28723
▁tax	-9.28779
▁feet	-9.28851
▁camp	-9.28966
pro	-9.29019
▁missing	-9.2905
▁Hong	-9.29084
wi	-9.29119
▁Africa	-9.29146
▁chance	-9.29169
ain	-9.29185
▁summit	-9.29334
▁voice	-9.29335
hyun	-9.2934
▁Many	-9.29574
port	-9.29636
▁Asian	-9.29718
▁discuss	-9.29754
▁refused	-9.29811
ach	-9.29847
▁books	-9.29867
▁Hill	-9.29875
ities	-9.29884
▁push	-9.29919
▁period	-9.29968
▁Union	-9.30014
▁blood	-9.30132
▁cross	-9.30154
▁why	-9.30287
▁markets	-9.30306
▁Mr	-9.30462
▁Tr	-9.3047
▁Paris	-9.30485
tro	-9.3051
▁21	-9.30564
▁white	-9.30606
▁debate	-9.3061
▁Islamic	-9.30629
ition	-9.30658
les	-9.30672
shi	-9.30677
den	-9.30716
carried	-9.30896
▁played	-9.30934
▁1,	-9.30942
za	-9.30983
▁reason	-9.31206
▁gone	-9.31232
▁hair	-9.31256
▁evening	-9.31307
ler	-9.3134
▁concern	-9.31349
chi	-9.31424
▁comment	-9.31482
▁supporters	-9.31487
▁rock	-9.31494
▁struck	-9.31571
▁survey	-9.31571
▁paid	-9.31572
▁above	-9.31573
ja	-9.31775
▁trouble	-9.3185
ko	-9.31859
ick	-9.31872
▁sleep	-9.31895
▁Pakistani	-9.31924
ill	-9.32071
▁means	-9.3214
▁word	-9.32152
▁themselves	-9.32219
▁2003	-9.32247
▁Rice	-9.32276
▁22	-9.32427
pped	-9.32442
▁UN	-9.32447
▁Olympic	-9.32486
let	-9.3249
▁ho	-9.32495
▁parties	-9.32668
▁table	-9.32688
▁launched	-9.32922
▁People	-9.33125
▁named	-9.33232
▁warning	-9.33263
▁amount	-9.33372
▁legal	-9.33374
▁needs	-9.33461
▁Agency	-9.33529
▁average	-9.3353
),	-9.33566
▁states	-9.33581
▁issues	-9.33653
j	-9.33724
▁returned	-9.34104
▁machine	-9.3419
▁ask	-9.34238
▁warned	-9.34242
ft	-9.34283
▁ordered	-9.34411
▁raised	-9.3444
light	-9.34482
▁secret	-9.345
▁sell	-9.34536
▁sc	-9.34661
▁challenge	-9.34855
▁crime	-9.34875
ris	-9.35156
▁Dow	-9.35188
▁resolution	-9.3519
▁title	-9.35192
▁snow	-9.35199
▁charge	-9.35356
▁everything	-9.35527
▁27	-9.35531
▁happened	-9.35619
▁watch	-9.35756
▁deep	-9.35794
▁longer	-9.35828
▁scientists	-9.35841
▁sla	-9.35855
▁relations	-9.35865
▁deaths	-9.35926
▁bear	-9.35985
▁happen	-9.36106
▁cat	-9.36127
▁field	-9.36187
ked	-9.36429
lf	-9.36453
ments	-9.36475
▁Robert	-9.3654
▁radio	-9.36541
▁worked	-9.36565
▁class	-9.36577
ists	-9.36746
There	-9.36803
▁Iranian	-9.36953
▁details	-9.37032
▁conditions	-9.37159
med	-9.37217
▁News	-9.37244
▁fast	-9.37366
▁officer	-9.37371
ative	-9.3749
ren	-9.37492
▁serve	-9.37544
▁Muslim	-9.37563
▁appeal	-9.37563
▁ministry	-9.37563
▁threat	-9.37582
▁shows	-9.37582
▁measures	-9.37586
▁¡	-9.37626
▁eyes	-9.37819
▁tomorrow	-9.37906
▁value	-9.37907
▁club	-9.37955
▁protesters	-9.38012
▁executive	-9.38031
ide	-9.3806
qui	-9.38139
▁l	-9.38154
▁popular	-9.38219
▁Hillary	-9.38275
▁playing	-9.3837
▁Koreans	-9.38435
ped	-9.38448
▁$2	-9.38668
,''	-9.38676
▁followed	-9.38747
ern	-9.38832
ey	-9.38923
▁leaving	-9.38944
▁blast	-9.38945
▁network	-9.38948
▁Army	-9.39024
mate	-9.39291
▁Chung	-9.39313
▁2007	-9.39318
▁consider	-9.39531
▁Z	-9.39567
▁moved	-9.39581
ward	-9.39616
▁estimated	-9.39754
▁m	-9.39941
▁similar	-9.39993
▁spread	-9.40003
elect	-9.4018
▁Man	-9.40222
▁track	-9.40362
▁Los	-9.40432
ven	-9.40547
▁Your	-9.40609
av	-9.41025
▁target	-9.41026
▁denied	-9.41055
▁worth	-9.4121
ite	-9.41266
▁personal	-9.41396
▁receive	-9.41399
▁dropped	-9.41418
▁box	-9.41444
▁Han	-9.41499
▁lawmakers	-9.41546
▁sold	-9.41607
▁actor	-9.41657
▁wish	-9.41689
▁cars	-9.41698
▁calling	-9.41764
▁wrong	-9.41766
▁Texas	-9.41766
▁technology	-9.41766
J	-9.41842
▁safe	-9.41868
▁quarter	-9.41946
▁Con	-9.41993
▁published	-9.42007
▁launch	-9.4207
▁Day	-9.42105
▁Wa	-9.42114
▁allowed	-9.42118
▁Sarkozy	-9.42125
▁natural	-9.42125
▁commission	-9.42125
gi	-9.4221
ants	-9.42306
ping	-9.42312
▁carrying	-9.42323
▁General	-9.42408
▁clean	-9.42485
▁sound	-9.42607
▁terms	-9.42629
os	-9.42699
▁particular	-9.42846
▁mid	-9.42886
▁defense	-9.4291
ee	-9.4293
▁secretary	-9.4293
▁Smith	-9.42972
▁Cha	-9.43023
▁Ad	-9.43073
ham	-9.43093
▁drug	-9.43151
▁Committee	-9.43208
lan	-9.43358
uc	-9.43552
▁Michael	-9.43572
▁identified	-9.43572
▁jump	-9.43572
▁exchange	-9.43573
▁ta	-9.43584
▁share	-9.43585
▁n	-9.43615
▁Mi	-9.43627
▁lack	-9.4364
▁organization	-9.43908
▁opinion	-9.43937
▁community	-9.43947
▁cell	-9.43968
▁signed	-9.44023
▁single	-9.44094
▁smoke	-9.44303
▁rose	-9.44325
▁manager	-9.44409
▁services	-9.44501
▁dress	-9.44632
▁join	-9.44721
▁respect	-9.44751
▁previous	-9.44794
king	-9.44966
▁officers	-9.45012
▁social	-9.4504
▁200	-9.45042
▁Du	-9.45051
▁hostages	-9.45142
ay	-9.45201
▁ended	-9.45254
▁Street	-9.4541
▁majority	-9.45506
▁card	-9.4552
▁mine	-9.45634
▁crash	-9.45752
▁NATO	-9.45782
▁telephone	-9.45782
▁worst	-9.45782
▁coalition	-9.45785
▁subject	-9.45787
▁staff	-9.45795
▁treatment	-9.45807
▁Cho	-9.4582
▁hearing	-9.45883
▁Air	-9.45986
▁cases	-9.46108
▁labor	-9.46152
▁appear	-9.46153
▁available	-9.46155
▁streets	-9.46156
ue	-9.46235
▁Bu	-9.46257
▁Grand	-9.46282
▁helped	-9.46468
▁contain	-9.4651
▁drop	-9.46512
▁potential	-9.46529
▁huge	-9.4653
▁computer	-9.46587
▁Abou	-9.46614
▁Angeles	-9.46905
▁avoid	-9.46906
▁access	-9.46922
▁pick	-9.46948
▁criminal	-9.46964
If	-9.46989
▁polls	-9.46991
▁included	-9.47019
▁illegal	-9.47036
▁El	-9.47125
▁tour	-9.47253
▁progress	-9.47283
▁experience	-9.47344
▁Last	-9.47415
▁sub	-9.47482
au	-9.47503
▁finished	-9.47593
▁represent	-9.47653
▁families	-9.47661
▁safety	-9.47686
art	-9.47704
▁Mu	-9.47706
▁build	-9.47735
lew	-9.47938
▁suit	-9.47948
▁protests	-9.47949
▁non	-9.47971
▁contact	-9.48042
▁commander	-9.48089
▁upon	-9.48184
ug	-9.4823
val	-9.48232
▁pain	-9.48252
▁honor	-9.48424
▁require	-9.48438
▁hot	-9.48552
▁Sha	-9.48606
ju	-9.48608
az	-9.48771
Y	-9.48795
▁pull	-9.48805
▁Turkey	-9.48806
▁Ban	-9.48823
▁walk	-9.48884
▁civilians	-9.49004
cl	-9.49007
▁questions	-9.49041
ight	-9.49149
ries	-9.4915
▁mass	-9.49164
▁activities	-9.49191
▁approach	-9.49191
▁hurt	-9.49192
▁goes	-9.49261
ze	-9.49268
▁League	-9.49577
▁floor	-9.49578
▁expressed	-9.49591
nt	-9.49697
▁joint	-9.49717
▁Commission	-9.49966
▁2002	-9.5
They	-9.50148
▁Red	-9.50276
▁response	-9.50354
ell	-9.50356
jo	-9.50372
lthough	-9.50559
▁African	-9.50587
▁suspected	-9.50609
▁fired	-9.50655
▁common	-9.50745
▁communist	-9.50757
ib	-9.5076
▁shop	-9.50767
▁reform	-9.50786
▁makes	-9.50802
▁beat	-9.50812
work	-9.50933
▁plant	-9.50964
▁farm	-9.50968
▁church	-9.51137
▁truck	-9.51137
▁primary	-9.51139
▁sentence	-9.51199
▁Go	-9.5123
▁either	-9.51341
▁ill	-9.51363
cy	-9.51395
▁traffic	-9.51522
▁Taiwan	-9.51524
▁separate	-9.5153
▁double	-9.51533
▁caught	-9.5155
ction	-9.51566
over	-9.51582
▁programs	-9.51587
oc	-9.51597
▁Har	-9.51609
▁flood	-9.51642
▁Te	-9.51705
▁opening	-9.51745
▁union	-9.52024
▁missile	-9.52177
▁award	-9.52372
▁/	-9.52541
▁Che	-9.52544
▁Now	-9.52546
▁Bhutto	-9.52721
▁Illinois	-9.52721
▁intelligence	-9.52721
▁true	-9.52723
▁Shiite	-9.52727
▁dollars	-9.5273
▁shooting	-9.52767
▁Kong	-9.52801
▁comments	-9.52833
usually	-9.52959
▁source	-9.53005
▁quoted	-9.53014
▁drive	-9.53069
▁create	-9.5312
▁annual	-9.53121
▁sexual	-9.53132
bra	-9.53171
▁however	-9.53198
▁district	-9.53522
▁professor	-9.53522
▁married	-9.53523
▁owner	-9.53549
▁hopes	-9.53551
▁investment	-9.53562
▁jail	-9.53563
▁Ex	-9.53615
▁concerns	-9.53639
▁Indian	-9.53697
▁flu	-9.53767
▁driver	-9.53819
▁residents	-9.53831
▁draw	-9.53857
▁increased	-9.53866
▁art	-9.53877
▁relationship	-9.53926
▁winner	-9.53975
▁conduct	-9.53975
▁pack	-9.53979
▁Most	-9.54019
▁drink	-9.54048
▁suffered	-9.54149
▁blow	-9.54191
▁jobs	-9.54276
▁Wall	-9.54325
▁Will	-9.54436
▁Association	-9.54446
▁Bill	-9.54505
▁someone	-9.54508
▁Dur	-9.54521
▁lay	-9.54524
unt	-9.54538
▁lawyer	-9.54672
▁Je	-9.54677
▁Jo	-9.54718
▁arm	-9.54726
▁supply	-9.54737
▁guard	-9.54737
▁announcement	-9.54762
▁data	-9.54762
▁cities	-9.54812
▁Gu	-9.54863
▁holding	-9.54926
▁spoke	-9.54954
▁rat	-9.55042
▁brain	-9.55147
▁failure	-9.55151
▁Earth	-9.55172
▁500	-9.55173
▁rally	-9.55201
▁parts	-9.55253
▁spending	-9.5526
hose	-9.55264
▁discovered	-9.55339
▁experts	-9.55359
▁measure	-9.55527
▁Service	-9.55555
▁mistake	-9.55561
▁pulled	-9.55561
▁seems	-9.55624
▁Corp	-9.5563
▁Democrats	-9.55741
▁Tom	-9.55805
▁camera	-9.55917
shed	-9.5592
▁players	-9.55931
▁picture	-9.55943
▁itself	-9.55968
▁products	-9.56022
▁passengers	-9.5604
▁Sea	-9.56065
ky	-9.56151
ched	-9.56272
▁design	-9.56366
▁delegates	-9.56398
▁sail	-9.56412
of	-9.5642
ified	-9.56437
▁By	-9.56479
▁movement	-9.56679
▁Ru	-9.56755
▁explosion	-9.56795
▁prompt	-9.56797
▁figure	-9.56801
▁wound	-9.56854
▁unit	-9.56876
ory	-9.56952
▁sanctions	-9.57131
▁horse	-9.57214
▁claims	-9.57233
▁understand	-9.57383
ade	-9.5758
In	-9.57625
▁Myanmar	-9.5763
▁attorney	-9.5763
▁doubt	-9.57631
▁rare	-9.57666
▁remains	-9.57698
AP	-9.57756
ou	-9.57899
▁fans	-9.57917
▁Ju	-9.57999
▁touch	-9.58018
▁complete	-9.58024
▁probably	-9.5805
▁loss	-9.58095
▁Chicago	-9.58137
▁Ko	-9.58262
▁bodies	-9.58472
▁eastern	-9.58478
▁resume	-9.58479
▁dispute	-9.58525
▁super	-9.58653
▁ice	-9.58662
▁Sp	-9.58691
ook	-9.58734
▁ceremony	-9.58896
▁giving	-9.58896
▁football	-9.58897
▁effect	-9.58934
▁finish	-9.58973
▁written	-9.59001
▁remarks	-9.5906
▁critical	-9.59085
▁original	-9.59101
▁funds	-9.59116
▁size	-9.59133
▁fourth	-9.59295
▁earthquake	-9.59321
▁rising	-9.59334
▁focus	-9.59399
▁wide	-9.59408
▁material	-9.59415
▁Ni	-9.59503
▁attend	-9.59554
▁feeling	-9.59608
▁defend	-9.59741
▁Saudi	-9.59749
▁performance	-9.59761
que	-9.59767
ai	-9.59772
▁animals	-9.59864
▁candidates	-9.59898
▁vi	-9.5991
▁regard	-9.60158
▁session	-9.60178
▁declared	-9.6029
▁rocket	-9.60296
coming	-9.60319
▁Jones	-9.60355
ari	-9.60434
▁senator	-9.60609
▁Health	-9.60609
▁defeat	-9.6061
▁kilometers	-9.60614
▁sight	-9.60646
▁mean	-9.60667
▁author	-9.60738
ible	-9.60938
▁character	-9.60949
party	-9.60985
▁happy	-9.61042
▁bed	-9.61066
▁Lu	-9.61135
▁delay	-9.61175
▁steps	-9.61192
▁destroyed	-9.61392
▁built	-9.61476
▁proposal	-9.61476
▁wrote	-9.61476
▁Ben	-9.61509
▁ball	-9.61523
▁partner	-9.61561
▁audience	-9.61913
uch	-9.61963
cat	-9.62031
▁banks	-9.6206
▁Office	-9.62062
▁terrorist	-9.62129
▁store	-9.62154
▁fl	-9.62191
▁talking	-9.62273
very	-9.62292
▁$3	-9.62375
▁eat	-9.62378
▁speed	-9.62564
▁kill	-9.62736
▁Mexico	-9.62792
▁nominee	-9.62792
▁Italian	-9.62793
rk	-9.62855
▁carry	-9.63168
▁fund	-9.63193
▁contest	-9.63235
head	-9.63352
▁screen	-9.63372
rew	-9.63403
▁prove	-9.63496
▁offered	-9.635
ual	-9.63667
▁Assembly	-9.63679
▁driving	-9.63679
▁Middle	-9.63682
▁raid	-9.63682
▁Italy	-9.63693
ok	-9.63871
nder	-9.63939
je	-9.64066
▁responsible	-9.64126
▁diplomatic	-9.64147
▁posted	-9.64359
▁par	-9.6437
▁seat	-9.64373
▁Gi	-9.6442
▁figures	-9.64567
▁Earlier	-9.64574
▁marriage	-9.64574
▁considered	-9.64665
she	-9.64739
▁26	-9.64801
▁window	-9.6488
▁heat	-9.65012
▁Meanwhile	-9.65024
▁magazine	-9.65024
▁knew	-9.65025
▁governor	-9.65054
▁everyone	-9.6508
▁arms	-9.65094
▁King	-9.6534
▁Si	-9.65366
▁wa	-9.65405
▁herself	-9.65477
▁Putin	-9.65516
▁Peter	-9.65527
▁bridge	-9.65613
▁gold	-9.65692
▁weight	-9.65857
▁wood	-9.65886
▁education	-9.65932
▁review	-9.65949
▁vice	-9.65985
▁costs	-9.66074
▁Mark	-9.66189
▁student	-9.6627
▁female	-9.66388
▁bought	-9.66412
▁County	-9.66448
like	-9.66463
▁Mary	-9.66542
▁29	-9.6662
▁certain	-9.66696
you	-9.66707
▁sale	-9.66746
▁operations	-9.66796
cess	-9.66819
▁counter	-9.6684
▁spot	-9.66868
▁beginning	-9.66871
wo	-9.66974
her	-9.66979
▁foot	-9.67061
▁necessary	-9.67308
▁Spain	-9.67318
▁Qu	-9.67393
TA	-9.67412
▁anyone	-9.6744
▁em	-9.6753
▁band	-9.67566
▁flow	-9.67754
▁Christmas	-9.67771
ID	-9.67821
.3	-9.6788
▁write	-9.68075
▁fish	-9.68163
▁dark	-9.68223
Maliki	-9.68236
▁fresh	-9.68236
▁moving	-9.68236
▁severe	-9.68254
▁rescue	-9.68313
ef	-9.68328
▁suspect	-9.68343
▁blame	-9.68379
▁whom	-9.68406
▁pe	-9.68653
▁NASA	-9.68703
str	-9.68712
▁actually	-9.68756
▁visitors	-9.6879
▁additional	-9.68845
▁decades	-9.68946
▁isn	-9.69028
▁35	-9.69077
▁warm	-9.691
▁Chief	-9.69176
ail	-9.69176
▁injuries	-9.69181
▁admitted	-9.69184
▁impact	-9.6919
▁combat	-9.69301
▁threatened	-9.69452
▁piece	-9.69463
▁90	-9.69552
▁vehicle	-9.69632
▁responsibility	-9.69644
ization	-9.69698
▁citizens	-9.69745
V	-9.69755
ile	-9.69758
▁dollar	-9.6979
ek	-9.69883
▁sites	-9.69948
▁couldn	-9.70103
▁helicopter	-9.70118
▁independent	-9.70118
▁content	-9.70119
▁giant	-9.7012
▁especially	-9.70122
▁cancer	-9.70125
▁climb	-9.70133
▁70	-9.70195
▁hole	-9.70223
▁catch	-9.70321
▁seek	-9.70356
▁waiting	-9.7042
10	-9.705
▁Dae	-9.70572
▁sit	-9.70578
▁ticket	-9.70594
▁trading	-9.70594
▁28	-9.70605
▁2001	-9.70643
▁agent	-9.70644
▁employees	-9.70665
mail	-9.70672
ana	-9.70794
af	-9.71025
▁broadcast	-9.71043
▁conservative	-9.71073
▁Another	-9.71073
▁profit	-9.71073
▁aircraft	-9.71076
▁type	-9.71077
▁bi	-9.71099
▁su	-9.7112
▁sick	-9.71122
▁fit	-9.71149
▁confirm	-9.7121
▁language	-9.71289
▁highest	-9.71308
▁immediate	-9.71308
ji	-9.71343
▁Ar	-9.71375
▁ring	-9.71396
▁Prince	-9.71445
tan	-9.71466
▁forecast	-9.71554
▁dangerous	-9.71575
▁agree	-9.71612
▁sides	-9.71734
▁career	-9.71794
lit	-9.7182
▁rules	-9.7192
▁satellite	-9.72037
▁instead	-9.72037
▁self	-9.72038
▁airline	-9.72098
use	-9.72138
▁affect	-9.72233
▁training	-9.72453
▁rebels	-9.72471
▁UK	-9.72475
▁James	-9.72524
▁Western	-9.72537
▁construction	-9.72539
▁hunt	-9.72541
▁stopped	-9.72551
▁sky	-9.72562
▁changes	-9.72621
dge	-9.7263
▁raise	-9.72642
▁lived	-9.72713
▁university	-9.7301
▁Group	-9.7301
▁maintain	-9.7301
upreme	-9.73015
▁clothes	-9.73059
▁adding	-9.73188
▁Harry	-9.73289
▁broken	-9.73368
▁writing	-9.735
▁currently	-9.73512
▁Virginia	-9.73523
▁Other	-9.73542
▁Com	-9.73588
tion	-9.73644
▁detained	-9.73686
▁Uri	-9.73754
pper	-9.73762
gged	-9.7382
izing	-9.7388
▁port	-9.73895
▁Bi	-9.73926
▁Fe	-9.73958
`	-9.73972
▁Carolina	-9.73993
▁Federal	-9.73993
▁rich	-9.7401
▁approved	-9.74125
▁tree	-9.74135
▁31	-9.74141
▁remained	-9.74289
▁eye	-9.74295
▁winning	-9.74427
wn	-9.74427
▁Who	-9.74448
▁choice	-9.74488
▁committed	-9.74504
▁guilty	-9.7452
▁researchers	-9.74655
iz	-9.74732
▁extra	-9.74741
▁command	-9.74923
▁Authorities	-9.74985
▁department	-9.75002
▁auto	-9.7506
ina	-9.75072
▁born	-9.75083
nation	-9.7509
▁reduce	-9.75116
▁criticized	-9.7522
▁below	-9.75298
▁Sch	-9.75329
▁80	-9.75404
▁civil	-9.75459
▁danger	-9.75463
▁stood	-9.75485
▁II	-9.75506
▁fair	-9.75526
kin	-9.75556
ology	-9.75842
car	-9.75939
my	-9.75968
▁blue	-9.76002
ration	-9.76079
▁alone	-9.76083
▁winter	-9.76104
gar	-9.7613
▁finding	-9.76136
▁row	-9.76198
▁cast	-9.76241
▁Ne	-9.76453
▁straight	-9.76493
▁Oscar	-9.76494
▁worldwide	-9.76509
▁index	-9.76509
▁regime	-9.76519
▁appearance	-9.76524
▁planning	-9.76569
▁0	-9.76651
asp	-9.76693
▁Mon	-9.76734
rank	-9.76825
hr	-9.76847
▁prisoners	-9.7689
▁college	-9.77
▁middle	-9.77001
▁Turki	-9.77003
▁sister	-9.77013
ker	-9.7704
▁bag	-9.77062
▁abuse	-9.77098
ya	-9.77149
ural	-9.77168
▁object	-9.77177
▁terror	-9.77262
.6	-9.77462
▁import	-9.77475
▁famous	-9.77511
▁barrel	-9.77511
bak	-9.7755
▁2000	-9.77607
.4	-9.77618
▁thank	-9.77648
▁suggested	-9.77724
▁games	-9.77747
▁neighbor	-9.7777
▁model	-9.77776
ral	-9.77781
▁seeking	-9.77793
▁minute	-9.77857
▁levels	-9.7788
▁prosecutors	-9.77905
▁shown	-9.77933
ax	-9.77964
▁square	-9.78023
▁device	-9.78024
▁daily	-9.78028
code	-9.78059
▁doctors	-9.78073
▁mu	-9.78139
▁Although	-9.78272
bit	-9.78314
▁suspended	-9.78339
▁God	-9.7851
▁opportunity	-9.78539
▁angry	-9.78542
▁occurred	-9.78547
▁Lo	-9.78552
▁illness	-9.78564
pre	-9.78569
▁Former	-9.78573
▁massive	-9.78586
▁nearby	-9.78597
▁cash	-9.78599
▁page	-9.78687
▁wait	-9.78719
ash	-9.78736
ular	-9.78763
You	-9.78808
▁haven	-9.7898
▁allegations	-9.79057
▁criticism	-9.79059
ese	-9.79111
▁article	-9.79184
22	-9.7919
▁jet	-9.79194
▁block	-9.79352
▁armed	-9.79529
▁behavior	-9.79578
rate	-9.79586
▁High	-9.7959
▁Christian	-9.79591
▁proposed	-9.79672
▁events	-9.79756
▁sense	-9.79797
▁seats	-9.79835
month	-9.79896
described	-9.80075
fire	-9.8008
▁Institute	-9.80101
▁Pennsylvania	-9.80101
▁peaceful	-9.80132
▁spring	-9.80139
▁tear	-9.80148
▁Under	-9.80284
▁ski	-9.80341
▁buildings	-9.80462
▁wasn	-9.80544
▁easily	-9.80628
▁practice	-9.80628
▁terrorism	-9.80641
▁anger	-9.80644
▁tough	-9.80679
hal	-9.8077
▁player	-9.8077
▁leg	-9.80819
▁direct	-9.80825
log	-9.80908
▁animal	-9.81016
▁pen	-9.81017
▁industrial	-9.81157
▁restaurant	-9.81157
▁pilot	-9.81157
▁scandal	-9.81157
▁boost	-9.81159
▁panel	-9.81179
▁da	-9.81307
▁Both	-9.81321
▁trust	-9.81353
ets	-9.81523
▁allegedly	-9.81573
▁green	-9.81686
▁Cabinet	-9.81689
▁corruption	-9.81695
▁tank	-9.817
▁justice	-9.81799
▁learn	-9.81829
ip	-9.81934
▁century	-9.81951
ik	-9.82057
▁starting	-9.82135
▁cap	-9.82151
▁str	-9.82155
▁ambassador	-9.82224
▁prize	-9.82227
▁reactor	-9.82291
.7	-9.82328
▁numbers	-9.82377
▁promise	-9.82393
▁gain	-9.82465
▁product	-9.82495
▁Tour	-9.82495
▁follow	-9.82753
▁explain	-9.82761
▁Chavez	-9.82761
▁plot	-9.82765
▁commercial	-9.82765
▁task	-9.82766
▁develop	-9.8285
▁du	-9.82963
▁slow	-9.83084
press	-9.83098
▁promised	-9.83131
ional	-9.8321
▁Star	-9.83218
.8	-9.83253
▁conducted	-9.83255
▁bomber	-9.83274
▁Georgia	-9.83302
▁beyond	-9.83302
▁modern	-9.83302
▁shock	-9.83302
▁elected	-9.83314
American	-9.83408
not	-9.8341
▁wearing	-9.83421
▁changed	-9.83435
▁ideas	-9.83503
▁grow	-9.83517
▁showing	-9.83647
▁photograph	-9.83661
law	-9.83679
,”	-9.83714
▁spend	-9.83758
citing	-9.83811
▁convicted	-9.83845
▁suggest	-9.8388
▁Are	-9.83932
▁works	-9.83942
▁apparently	-9.84014
▁fighters	-9.84027
▁equal	-9.84044
But	-9.84047
eva	-9.84053
▁trees	-9.84237
▁custody	-9.84392
▁easy	-9.84392
▁vehicles	-9.84406
▁package	-9.84425
▁remember	-9.84427
load	-9.84442
▁created	-9.84488
▁Arab	-9.84603
▁concerned	-9.84609
▁takes	-9.84765
▁documents	-9.84906
▁Richard	-9.84913
▁birth	-9.84926
▁names	-9.84931
inhua	-9.84941
▁surgery	-9.84958
▁picked	-9.84971
▁leadership	-9.84999
field	-9.85042
low	-9.85054
▁secure	-9.8519
▁previously	-9.85308
▁rejected	-9.85322
▁Ed	-9.85414
▁Officials	-9.85494
▁possibility	-9.85494
▁twice	-9.85494
▁minor	-9.85498
▁Thailand	-9.85504
▁River	-9.85552
▁prepared	-9.85557
▁Marine	-9.85578
▁save	-9.85682
▁aide	-9.85807
▁completely	-9.85818
▁trans	-9.85879
▁addition	-9.8589
▁influence	-9.86049
▁positive	-9.86049
▁yourself	-9.86049
▁pounds	-9.86052
▁western	-9.86056
▁looks	-9.86232
▁involv	-9.86378
▁lift	-9.86413
▁violent	-9.86608
▁envoy	-9.86608
▁expand	-9.86608
▁Ohio	-9.86613
▁rush	-9.86632
▁hill	-9.86639
▁Pi	-9.86666
19	-9.86749
cc	-9.86837
▁directly	-9.86869
▁lose	-9.86874
maker	-9.86874
▁attacked	-9.86959
ake	-9.87007
▁unable	-9.87007
are	-9.87016
▁includes	-9.87036
▁lines	-9.87081
▁Ye	-9.87125
▁chair	-9.87127
▁schools	-9.87132
8212;	-9.8717
▁concert	-9.8717
▁various	-9.8717
▁debt	-9.87179
▁prosecution	-9.8718
▁song	-9.87219
▁drugs	-9.87259
▁EU	-9.87294
clock	-9.87357
▁Min	-9.87366
▁singer	-9.874
▁affected	-9.8764
▁ties	-9.87654
▁militia	-9.87735
▁Open	-9.87735
▁Royal	-9.87735
▁ruled	-9.87845
▁En	-9.8786
▁range	-9.87886
▁damaged	-9.87937
new	-9.87941
30	-9.88075
▁provided	-9.88099
▁Indonesia	-9.88113
▁Fa	-9.88145
▁collect	-9.88183
▁favor	-9.88255
ough	-9.88284
▁Spanish	-9.88303
▁conflict	-9.88303
▁dinner	-9.88303
▁flag	-9.88313
▁customers	-9.8837
▁novel	-9.88389
▁insurgents	-9.8839
sho	-9.8841
▁1,000	-9.88417
▁die	-9.88417
▁deliver	-9.88443
▁traditional	-9.8847
▁hat	-9.88551
▁finally	-9.88578
▁Un	-9.88621
hand	-9.88777
▁Central	-9.88874
▁draft	-9.88874
▁succeed	-9.88874
▁walked	-9.88882
▁sought	-9.889
▁wear	-9.88915
▁reli	-9.89027
▁sat	-9.89051
▁powerful	-9.8912
▁compared	-9.89212
▁Ya	-9.89232
▁Col	-9.89241
hour	-9.8933
▁produce	-9.89363
▁signs	-9.8937
right	-9.8937
▁Moscow	-9.89449
▁assault	-9.89449
▁society	-9.89449
▁myself	-9.89449
▁truth	-9.89449
▁route	-9.89468
▁Island	-9.89484
▁joined	-9.89506
▁east	-9.89519
ability	-9.89594
▁tourists	-9.89647
▁option	-9.89659
▁Force	-9.89698
▁link	-9.89837
war	-9.89962
▁champion	-9.90017
▁Interior	-9.90027
▁competition	-9.90027
▁politics	-9.90027
▁deputy	-9.90027
▁sometimes	-9.90035
▁investors	-9.90043
ox	-9.90429
par	-9.90506
▁bin	-9.90528
▁attract	-9.90587
pr	-9.90608
▁individual	-9.90608
▁operating	-9.90613
fin	-9.90774
▁add	-9.90812
.''	-9.90948
▁Hollywood	-9.91193
▁2009	-9.91212
▁environmental	-9.91224
▁coat	-9.91228
▁Every	-9.9123
▁suspects	-9.9126
▁patients	-9.91335
▁coach	-9.91338
▁Have	-9.91366
tter	-9.91397
▁Ku	-9.91465
▁listen	-9.91478
▁increasing	-9.91653
▁payment	-9.91688
iff	-9.91728
▁Ke	-9.91755
▁Queen	-9.91782
▁allies	-9.91828
▁sorry	-9.91837
▁tests	-9.91852
▁Shi	-9.91955
▁soldier	-9.92029
▁millions	-9.92039
No	-9.92107
▁$5	-9.92181
▁Abbas	-9.92373
▁Apple	-9.9241
▁examination	-9.92411
▁please	-9.92437
▁shortly	-9.92449
▁improve	-9.92474
▁ease	-9.92481
▁wave	-9.92492
▁gathered	-9.92632
▁bombing	-9.92811
ise	-9.92915
▁Charles	-9.92968
▁regret	-9.92968
cal	-9.92974
▁path	-9.92975
▁speaking	-9.92981
▁Am	-9.93013
▁entered	-9.93091
▁artist	-9.931
▁rates	-9.93119
please	-9.93166
q	-9.93177
▁exist	-9.93209
▁Shin	-9.93252
aries	-9.93294
▁signal	-9.93359
▁related	-9.93389
▁pop	-9.9349
▁medicine	-9.93567
▁temperature	-9.93567
▁entire	-9.93567
▁Since	-9.93574
▁confidence	-9.93575
▁telling	-9.93607
▁organ	-9.93671
▁45	-9.93726
oon	-9.93766
wan	-9.93802
▁paint	-9.93804
▁consumer	-9.93856
▁flat	-9.93869
▁meters	-9.93875
▁civilian	-9.93892
down	-9.93998
▁Brazil	-9.94143
▁Hyundai	-9.9417
▁Microsoft	-9.9417
▁Three	-9.9417
▁argument	-9.9417
▁reflect	-9.9417
▁seized	-9.94171
▁stone	-9.94217
term	-9.94225
▁dozens	-9.94258
▁quality	-9.94352
▁multi	-9.94397
▁designed	-9.94726
▁environment	-9.94744
▁votes	-9.94747
▁domestic	-9.94776
▁policies	-9.94776
▁alliance	-9.94776
iya	-9.94779
▁Herald	-9.94779
▁laid	-9.94874
▁Olympics	-9.94885
▁filed	-9.95047
▁troop	-9.95117
illa	-9.9525
▁becoming	-9.95267
ins	-9.9531
▁Yu	-9.95362
▁struggle	-9.95385
▁BBC	-9.95385
▁garden	-9.95386
▁zone	-9.95387
▁Cheney	-9.95396
▁Research	-9.95442
gan	-9.95455
▁corner	-9.95485
rie	-9.95504
▁tape	-9.95541
▁losses	-9.95545
▁tonight	-9.95565
▁declined	-9.95687
▁Sever	-9.95694
ple	-9.95762
▁shoot	-9.95928
▁fill	-9.95953
▁perfect	-9.95999
▁Labor	-9.95999
▁presence	-9.96001
▁neighborhood	-9.96003
▁else	-9.96004
▁creat	-9.96108
▁Za	-9.96188
▁voted	-9.96199
▁negotiator	-9.96206
20	-9.96245
▁engine	-9.963
▁engineer	-9.96314
▁burn	-9.96397
rin	-9.96464
▁democracy	-9.96483
▁required	-9.96592
▁Yahoo	-9.96616
▁alcohol	-9.96616
▁complex	-9.96616
▁Sunni	-9.96636
▁Just	-9.96688
▁reading	-9.967
▁scar	-9.96731
▁suffering	-9.9692
▁determined	-9.96942
▁bound	-9.97028
si	-9.97208
,500	-9.97247
25	-9.97314
▁analysts	-9.97348
▁linked	-9.97448
▁taxes	-9.97455
.9	-9.97464
▁placed	-9.97483
▁score	-9.97523
▁skin	-9.97542
▁flights	-9.97613
▁quick	-9.97621
▁independence	-9.97631
▁climate	-9.97862
▁overseas	-9.97863
▁asking	-9.97916
▁grand	-9.97948
▁girls	-9.97966
can	-9.98064
▁activity	-9.98491
▁exercise	-9.98491
▁extreme	-9.98491
▁vessel	-9.98491
▁adult	-9.98492
▁supplies	-9.98492
▁vow	-9.98537
▁apartment	-9.98542
nom	-9.98576
▁Tibet	-9.98578
▁Gar	-9.98581
▁remaining	-9.98685
▁patient	-9.98971
▁establish	-9.98982
▁withdraw	-9.98987
▁Law	-9.9909
▁mostly	-9.99122
▁territory	-9.99124
▁recession	-9.99124
▁drove	-9.99124
▁headquarters	-9.99124
▁shuttle	-9.99126
▁property	-9.99133
▁display	-9.99134
▁drew	-9.99151
▁Myung	-9.99177
▁Even	-9.99199
set	-9.99349
▁shoes	-9.99352
▁throughout	-9.99369
▁standing	-9.99372
▁developed	-9.994
5,000	-9.99427
▁produced	-9.99531
▁export	-9.99661
▁Mc	-9.99709
▁afraid	-9.99761
▁FBI	-9.99761
▁abroad	-9.99762
▁detect	-9.99766
▁male	-9.99772
hor	-9.99859
▁edge	-10
▁welcome	-10.0003
▁Ali	-10.0008
▁planet	-10.001
▁referr	-10.0012
▁march	-10.0017
▁pleased	-10.0018
▁Per	-10.0022
▁enter	-10.0037
▁Zimbabwe	-10.004
▁location	-10.004
▁shift	-10.004
▁virus	-10.004
▁served	-10.0045
▁earth	-10.0047
ery	-10.0055
▁accepted	-10.0071
▁300	-10.0072
▁Medic	-10.0079
▁Dan	-10.0087
▁forest	-10.0088
▁roll	-10.0093
▁dozen	-10.0096
▁solution	-10.0105
▁surrounding	-10.0105
▁wealth	-10.0105
▁note	-10.0105
▁ongoing	-10.0106
▁sort	-10.0107
▁reaction	-10.0111
▁37	-10.0116
▁wonder	-10.0116
▁William	-10.012
▁pledged	-10.013
▁bo	-10.013
▁papers	-10.0143
▁helping	-10.0145
▁respond	-10.0157
▁militant	-10.0163
aff	-10.0167
▁purpose	-10.017
▁Justice	-10.0171
▁faces	-10.0178
▁adviser	-10.0179
▁decide	-10.0198
▁color	-10.0199
point	-10.0199
▁Abe	-10.022
pon	-10.0227
▁considering	-10.0232
▁communication	-10.0235
fu	-10.0235
▁memory	-10.0235
▁fears	-10.0236
▁split	-10.0238
▁stem	-10.0243
▁active	-10.0245
▁degree	-10.0257
hit	-10.0258
▁Ber	-10.0259
▁unless	-10.0259
▁feed	-10.0262
foot	-10.0266
government	-10.0266
▁appears	-10.0293
▁wild	-10.03
▁Canada	-10.0301
▁Black	-10.0301
duct	-10.0304
▁shares	-10.0312
▁net	-10.0313
▁depend	-10.0317
hin	-10.0322
▁lend	-10.0343
▁seed	-10.0343
nce	-10.0343
▁Colombia	-10.0348
▁32	-10.0365
▁investigating	-10.0367
▁boys	-10.0374
▁connection	-10.0376
▁kids	-10.0385
▁Syria	-10.0387
▁factory	-10.0388
▁Gold	-10.0399
aging	-10.0401
▁sharp	-10.042
▁Steve	-10.0421
▁3-	-10.0429
▁ways	-10.0429
▁laugh	-10.0431
▁transfer	-10.0433
▁Lebanon	-10.0434
▁astronaut	-10.0434
▁smoking	-10.0434
▁Gates	-10.0437
▁bird	-10.0438
▁deadline	-10.0439
▁Wal	-10.0443
▁Jong	-10.0446
▁!	-10.0447
▁tired	-10.0451
▁handle	-10.0465
▁buying	-10.0482
ctor	-10.0487
▁witness	-10.049
▁maker	-10.0501
▁anniversary	-10.0501
▁disaster	-10.0501
▁voting	-10.0501
▁surface	-10.0501
▁rank	-10.0506
▁pair	-10.0506
▁seeing	-10.0506
▁commitment	-10.0508
▁Four	-10.0513
▁Vice	-10.053
▁collapse	-10.0531
▁tea	-10.0535
▁terrorists	-10.0541
rated	-10.0543
▁initial	-10.0544
lon	-10.0545
▁limit	-10.0559
▁busy	-10.0563
▁bombs	-10.0568
▁Lebanese	-10.0568
▁facilities	-10.0568
▁species	-10.0568
▁dream	-10.0568
▁fifth	-10.0568
▁investigate	-10.0568
▁quake	-10.0569
▁management	-10.057
▁invited	-10.0578
win	-10.0586
▁rebel	-10.0586
▁Bay	-10.0593
range	-10.0593
What	-10.0604
tech	-10.0605
▁newspapers	-10.061
▁im	-10.0622
▁regional	-10.0628
▁custom	-10.0628
▁Singapore	-10.0636
▁arrival	-10.0636
▁coffee	-10.0636
▁knowledge	-10.0636
▁representative	-10.0638
▁Trade	-10.0639
ncient	-10.0639
ney	-10.0639
▁pictures	-10.064
ON	-10.0651
▁completed	-10.0652
vel	-10.0665
▁ear	-10.0665
▁surprise	-10.0668
air	-10.0669
▁parliamentar	-10.0674
▁advance	-10.0677
▁ET	-10.0691
▁provid	-10.0693
▁sentenced	-10.0701
▁electric	-10.0701
▁Yang	-10.0702
▁abandon	-10.0705
▁conversation	-10.0705
▁encourage	-10.0705
▁album	-10.0705
▁example	-10.0705
▁mobile	-10.0705
▁southeast	-10.0706
stra	-10.0708
▁gang	-10.0716
▁developing	-10.0724
▁mar	-10.0729
▁Ge	-10.0744
▁cup	-10.0745
ani	-10.0748
lar	-10.0749
▁removed	-10.077
board	-10.0773
▁actress	-10.0774
▁riot	-10.0774
meter	-10.0776
▁cheer	-10.0776
▁Pacific	-10.0803
▁places	-10.081
“	-10.0813
▁Prosecutors	-10.0813
▁laws	-10.0817
▁formal	-10.0827
▁covered	-10.0829
▁operate	-10.0829
read	-10.0837
▁School	-10.0843
▁science	-10.0843
▁cheap	-10.0843
▁Ilbo	-10.0843
▁facing	-10.0843
tomic	-10.0843
▁Martin	-10.0844
ane	-10.0844
▁halt	-10.0847
▁losing	-10.0849
▁stars	-10.0851
▁houses	-10.0851
under	-10.0858
▁victim	-10.086
▁beach	-10.0861
▁Pre	-10.0862
▁orders	-10.0864
▁From	-10.0864
▁actions	-10.0866
▁(1	-10.087
▁emb	-10.0871
▁Sh	-10.0871
▁determine	-10.0876
200	-10.0887
▁demands	-10.0893
berg	-10.0903
▁meant	-10.0905
how	-10.0906
▁bottle	-10.0913
▁distribut	-10.0913
▁software	-10.0913
▁resort	-10.0913
Total	-10.0916
▁version	-10.0919
40	-10.092
▁fully	-10.0924
▁wouldn	-10.0942
▁meaning	-10.0956
▁images	-10.0962
▁winds	-10.0965
▁resign	-10.0971
▁affairs	-10.0975
▁Olmert	-10.0984
▁advice	-10.0984
▁euro	-10.0984
▁heavily	-10.0984
▁glad	-10.0984
raising	-10.0985
▁items	-10.0987
▁motor	-10.0988
▁Green	-10.0989
avi	-10.0998
▁Palestinians	-10.1001
▁image	-10.1008
▁tri	-10.1015
▁Today	-10.1017
ute	-10.1021
istic	-10.1032
▁fly	-10.1046
▁enjoy	-10.1048
▁highly	-10.1049
fer	-10.1053
://	-10.1054
▁Christopher	-10.1055
▁District	-10.1055
▁approval	-10.1055
▁controversial	-10.1055
▁guarantee	-10.1055
▁studies	-10.1055
▁tournament	-10.1055
▁repair	-10.1055
▁Games	-10.1055
bar	-10.1055
▁Among	-10.1057
top	-10.1057
ez	-10.1061
htt	-10.1062
zi	-10.107
▁sports	-10.108
ray	-10.1085
vision	-10.1086
ino	-10.1095
▁Ham	-10.111
▁worse	-10.1111
▁headed	-10.1115
▁Egypt	-10.1123
▁specific	-10.1124
▁pin	-10.1125
▁indicated	-10.1125
▁Madrid	-10.1126
▁narrow	-10.1126
▁religious	-10.1126
▁consult	-10.1126
cnn	-10.1127
▁resignation	-10.1132
▁Sun	-10.1151
▁fallen	-10.1155
ER	-10.1162
▁west	-10.1177
▁wash	-10.1178
▁significant	-10.1187
cher	-10.1198
▁Energy	-10.1198
▁LONDON	-10.1198
▁equipment	-10.1198
▁purchase	-10.1198
▁CEO	-10.1198
▁spark	-10.1198
▁Space	-10.1198
▁calm	-10.12
▁bright	-10.1203
▁effective	-10.1214
▁fan	-10.1221
▁Mac	-10.1221
▁keeping	-10.1225
▁setting	-10.1228
▁Bur	-10.1249
▁intended	-10.1249
▁dam	-10.125
▁Williams	-10.1253
▁slipp	-10.1254
▁meetings	-10.1263
▁Roman	-10.1264
▁experiment	-10.127
▁Embassy	-10.127
▁advantage	-10.127
▁Malaysia	-10.127
▁knee	-10.1272
▁income	-10.1276
▁Fi	-10.128
▁visited	-10.1285
▁delivery	-10.1299
▁alive	-10.13
▁cool	-10.1305
fri	-10.1306
▁ministers	-10.1307
▁Arabia	-10.131
ei	-10.1312
▁inform	-10.1323
▁traveling	-10.1324
with	-10.1334
▁attempted	-10.1335
▁sb	-10.1336
▁Of	-10.1339
▁tight	-10.134
ification	-10.1342
▁Church	-10.1343
▁Organization	-10.1343
▁fraud	-10.1343
▁implement	-10.1343
▁favorite	-10.1345
▁prefer	-10.1345
▁leaves	-10.1345
Sadr	-10.135
body	-10.1371
rack	-10.1373
▁managed	-10.1376
▁disc	-10.1377
▁toll	-10.1378
▁decade	-10.1379
cho	-10.1381
yard	-10.1382
▁shipment	-10.1383
▁2,	-10.1383
▁scored	-10.1387
▁writer	-10.1391
▁Pat	-10.1392
▁Abu	-10.1394
dom	-10.1395
▁knock	-10.1413
▁Hospital	-10.1417
▁Tehran	-10.1417
▁cooperation	-10.1417
▁currency	-10.1417
▁electronic	-10.1417
▁crude	-10.1417
▁simple	-10.1417
▁Blair	-10.1417
▁Cross	-10.1417
▁roof	-10.1417
▁kidnapped	-10.1417
▁freedom	-10.1419
▁watching	-10.142
▁flee	-10.1422
▁teen	-10.1423
▁Motor	-10.1423
▁fellow	-10.1424
▁tall	-10.1428
▁insist	-10.1428
▁36	-10.1438
▁bone	-10.1439
▁($	-10.144
▁div	-10.1442
ates	-10.1445
▁activists	-10.1449
▁widely	-10.146
▁describe	-10.1466
▁walking	-10.1475
▁letters	-10.1485
▁journalists	-10.1487
▁Gordon	-10.1491
▁Pentagon	-10.1491
▁Treasury	-10.1491
▁journey	-10.1491
▁museum	-10.1491
▁simply	-10.1491
▁grave	-10.1491
▁Ten	-10.1493
▁Guard	-10.1494
▁wedding	-10.1497
▁injury	-10.1502
▁movies	-10.1506
ought	-10.1521
joins	-10.1523
▁Democrat	-10.1525
▁Sc	-10.1526
▁decline	-10.1529
▁detail	-10.1532
grad	-10.1535
▁express	-10.1539
▁Tu	-10.1542
form	-10.1545
▁speaker	-10.1565
▁convention	-10.1566
▁council	-10.1566
▁remote	-10.1566
▁intention	-10.1566
▁quiet	-10.1566
▁mosque	-10.1566
▁shout	-10.1566
▁reply	-10.1566
wing	-10.1568
▁entering	-10.1571
▁Tony	-10.1571
▁demanding	-10.1582
▁filled	-10.1585
▁hoped	-10.1586
Ang	-10.1605
▁sens	-10.1612
▁direction	-10.1615
▁normal	-10.1619
atch	-10.1621
▁crimes	-10.1636
▁birds	-10.1639
state	-10.164
▁Beckham	-10.1641
▁beautiful	-10.1641
▁possibly	-10.1641
▁Why	-10.1641
▁ensure	-10.1641
▁trail	-10.1641
▁correspondent	-10.1642
▁complaint	-10.1675
▁tons	-10.168
chan	-10.1681
▁certainly	-10.1681
▁choose	-10.1686
▁Burma	-10.1687
▁weapon	-10.1688
▁Par	-10.1691
▁wing	-10.1697
▁metal	-10.1697
▁sum	-10.1699
▁strength	-10.1707
▁estimates	-10.1708
have	-10.1709
▁treated	-10.1714
corporate	-10.1716
▁Administration	-10.1717
▁Parliament	-10.1717
▁manufacture	-10.1717
▁pleasure	-10.1717
▁burst	-10.1717
▁Sudan	-10.1717
▁Francisco	-10.1717
▁pitch	-10.1717
▁hall	-10.1721
▁Howard	-10.1725
▁aside	-10.1731
▁Kar	-10.1733
▁photos	-10.1738
▁protection	-10.1741
▁overall	-10.1749
▁resolve	-10.1764
ku	-10.1766
▁requested	-10.177
▁sport	-10.1775
▁glass	-10.1782
mar	-10.1785
most	-10.1791
▁NEW	-10.1793
▁Stock	-10.1794
▁crack	-10.1799
:30	-10.1802
▁correct	-10.1803
▁targeted	-10.1805
▁watched	-10.1816
▁learned	-10.1827
▁Gov	-10.1829
▁Award	-10.1834
cha	-10.1838
water	-10.1857
will	-10.1863
▁wine	-10.1866
▁Mugabe	-10.187
▁serving	-10.187
▁suspicion	-10.187
▁Reuters	-10.187
▁Airport	-10.1872
▁Wi	-10.1873
▁factor	-10.1881
▁replace	-10.1909
▁visiting	-10.1909
▁$4	-10.191
▁arrive	-10.1911
▁Not	-10.1929
▁hostage	-10.1932
▁Inc	-10.1937
hop	-10.1937
▁caus	-10.1942
house	-10.1946
▁coup	-10.1947
▁Communist	-10.1947
▁WASHINGTON	-10.1947
▁agencies	-10.1947
▁error	-10.1947
▁bullet	-10.1951
▁difficulties	-10.1954
▁stake	-10.1957
▁Show	-10.1957
▁finger	-10.1959
▁harm	-10.1962
▁2006.	-10.1966
▁Good	-10.197
▁weigh	-10.197
▁Did	-10.1976
▁demanded	-10.1986
▁marked	-10.1991
▁questioned	-10.1997
▁hundred	-10.2007
▁relative	-10.2008
▁delayed	-10.2009
▁computers	-10.2013
▁Republic	-10.2019
▁print	-10.2022
▁Hussein	-10.2025
▁sector	-10.2026
▁afford	-10.2026
▁whale	-10.2026
▁automaker	-10.2026
oom	-10.2027
well	-10.2029
▁crashed	-10.2032
▁alert	-10.2034
▁Human	-10.2037
▁fled	-10.2038
posed	-10.2058
hap	-10.2071
▁plants	-10.2077
found	-10.2084
ura	-10.2086
mber	-10.21
▁Google	-10.2104
▁Government	-10.2104
▁associate	-10.2104
▁fashion	-10.2104
▁breath	-10.2104
▁basic	-10.2104
▁distance	-10.2104
▁nature	-10.2105
▁1998	-10.2106
▁Jackson	-10.2106
▁estate	-10.2107
▁authority	-10.2111
▁Tibetan	-10.2112
▁pursu	-10.2114
▁waste	-10.2118
▁Pri	-10.2133
▁missiles	-10.2133
▁Speak	-10.2135
▁suggestion	-10.2138
▁announce	-10.2142
▁opposed	-10.2142
▁Yo	-10.2145
▁selling	-10.2145
▁apparent	-10.2159
15	-10.2161
▁analyst	-10.2169
▁seriously	-10.2171
▁king	-10.2172
▁Thai	-10.2182
▁delegation	-10.2184
▁favour	-10.2184
▁license	-10.2184
▁personnel	-10.2184
▁lunch	-10.2184
▁culture	-10.2184
▁torch	-10.2191
▁noise	-10.2197
▁hang	-10.2204
mat	-10.221
poli	-10.2219
▁cuts	-10.2223
ache	-10.2227
▁collapsed	-10.2227
don	-10.2235
▁treat	-10.2239
▁holds	-10.2244
▁brief	-10.225
style	-10.2251
▁earn	-10.2263
▁Condoleezza	-10.2264
▁Kennedy	-10.2264
▁technical	-10.2264
▁physical	-10.2264
▁flying	-10.2264
▁bailout	-10.2265
▁Nobel	-10.2266
▁1999	-10.2266
▁perform	-10.2266
▁burned	-10.2284
round	-10.2293
▁none	-10.2302
▁imposed	-10.2306
▁users	-10.2315
▁greater	-10.2316
called	-10.2321
▁ability	-10.2323
room	-10.2332
▁businesses	-10.2339
mitt	-10.2339
▁appreciate	-10.2344
▁principle	-10.2344
▁insurance	-10.2344
▁method	-10.2344
▁kidnapping	-10.2344
hood	-10.2345
▁leak	-10.2345
▁Ste	-10.2348
▁kick	-10.2348
▁located	-10.2351
eb	-10.2351
▁Year	-10.2354
▁dry	-10.2357
▁withdrawal	-10.2362
▁fatal	-10.2364
▁ride	-10.2368
▁33	-10.2369
▁moon	-10.237
▁producer	-10.2386
▁bombings	-10.2401
▁successful	-10.2406
▁benefit	-10.2419
▁transport	-10.2421
To	-10.2424
▁text	-10.2425
▁Academy	-10.2426
▁penalty	-10.2426
▁struggling	-10.2426
▁Daniel	-10.2426
▁root	-10.2426
▁deployment	-10.2427
▁broad	-10.2427
▁nice	-10.2429
▁electricity	-10.243
mis	-10.2433
▁wake	-10.2435
▁map	-10.2441
▁cutting	-10.2442
▁rape	-10.2454
rvez	-10.2458
ological	-10.2465
▁roads	-10.2466
▁consumers	-10.2468
ily	-10.2471
▁deadly	-10.2478
▁tend	-10.248
RA	-10.2481
late	-10.2488
▁cable	-10.2489
related	-10.249
▁materials	-10.249
▁clock	-10.2497
▁mat	-10.2503
▁difference	-10.2504
▁gets	-10.2506
▁Alaska	-10.2508
▁affiliate	-10.2508
▁bottom	-10.2508
▁budget	-10.2508
▁dialogue	-10.2508
▁DNA	-10.2508
▁Thank	-10.2508
▁brand	-10.2508
▁auction	-10.2508
▁crackdown	-10.2508
pping	-10.2508
▁relief	-10.2509
▁banned	-10.2511
▁recall	-10.2512
▁wire	-10.2512
▁stick	-10.2514
▁believes	-10.2514
▁cells	-10.2515
▁suddenly	-10.2524
▁painting	-10.2526
▁films	-10.2544
▁lights	-10.2546
▁rough	-10.2549
85	-10.2552
▁exile	-10.2555
ui	-10.2564
▁politicians	-10.2568
▁Cuba	-10.2571
▁Gra	-10.2572
▁shoulder	-10.2581
▁invest	-10.2588
▁Catholic	-10.259
▁celebrate	-10.259
▁demonstrators	-10.259
▁warrant	-10.259
▁birthday	-10.2593
▁Laden	-10.2595
▁stands	-10.26
▁fix	-10.26
yn	-10.2604
lay	-10.2605
▁rang	-10.2605
▁violation	-10.261
▁delivered	-10.262
▁smaller	-10.2621
▁thinking	-10.2623
And	-10.2626
list	-10.2632
than	-10.2645
▁Nor	-10.2646
▁regular	-10.2649
▁records	-10.2655
▁Jose	-10.2656
▁pound	-10.2659
▁samples	-10.266
▁Affairs	-10.2673
▁Chairman	-10.2673
▁exploded	-10.2673
▁Science	-10.2673
▁transition	-10.2675
▁1980	-10.2677
place	-10.268
▁toys	-10.2681
▁reasons	-10.2699
▁Miss	-10.2701
▁escaped	-10.2702
▁employ	-10.2706
▁zoo	-10.2707
▁constitution	-10.2707
put	-10.271
▁mayor	-10.271
▁interested	-10.2718
▁foreigners	-10.2724
▁drinking	-10.2732
▁investigators	-10.2733
▁dogs	-10.2744
born	-10.275
▁recommend	-10.2752
▁discussions	-10.2757
▁spirit	-10.2757
▁Michigan	-10.2758
▁boycott	-10.2758
▁divorce	-10.2758
▁length	-10.2758
▁pretty	-10.2758
▁jury	-10.2758
▁sweet	-10.2758
▁greet	-10.2758
▁pump	-10.2758
▁begun	-10.2758
▁finance	-10.2759
▁document	-10.2761
▁journalist	-10.2765
▁Mer	-10.2768
▁promote	-10.2772
▁usual	-10.2777
▁discussion	-10.2778
▁captured	-10.2778
▁notice	-10.2787
fall	-10.2788
▁windows	-10.2789
▁settle	-10.2799
night	-10.2816
Z	-10.2827
Korean	-10.2827
minute	-10.2829
▁GNP	-10.2834
iled	-10.2841
▁Kosovo	-10.2842
▁Manchester	-10.2842
▁reduction	-10.2842
▁Kyi	-10.2842
▁cited	-10.2843
▁smile	-10.2845
▁Tri	-10.2854
▁monitor	-10.2859
▁badly	-10.2862
▁orbit	-10.2863
▁waters	-10.2866
▁restore	-10.2874
▁dismissed	-10.2876
▁42	-10.2877
▁Y	-10.2895
▁goals	-10.2905
▁reduced	-10.2905
TV	-10.2908
▁closer	-10.2911
▁achieve	-10.2911
▁runs	-10.2915
▁clash	-10.2917
▁38	-10.2922
▁Massachusetts	-10.2928
▁Philippine	-10.2928
▁Vietnam	-10.2928
▁eventually	-10.2928
▁captain	-10.2928
▁desert	-10.2928
▁Sharif	-10.2929
▁Diana	-10.293
76	-10.2931
▁guests	-10.2932
lock	-10.2933
▁falling	-10.2937
▁stress	-10.2939
▁mail	-10.294
▁probe	-10.2945
▁exports	-10.2946
▁standards	-10.2947
▁attempts	-10.2962
ribal	-10.2974
▁Hall	-10.2991
ologist	-10.2993
turn	-10.2997
▁Exchange	-10.3014
▁application	-10.3014
▁declaration	-10.3014
▁festival	-10.3014
▁patrol	-10.3014
▁unemployment	-10.3014
▁suburb	-10.3014
▁shelter	-10.3014
▁1997	-10.3015
▁assistance	-10.3016
▁Republicans	-10.3016
▁Milan	-10.3016
▁knocked	-10.3018
▁historic	-10.302
▁Election	-10.3021
▁critics	-10.3022
▁lake	-10.3025
▁facts	-10.3026
▁lowest	-10.3028
nne	-10.3034
▁4-	-10.3035
▁ending	-10.3042
▁clearly	-10.3047
▁engaged	-10.3048
She	-10.3056
rg	-10.3066
▁formed	-10.3071
▁150	-10.3082
▁indicate	-10.3082
▁fun	-10.3095
▁drama	-10.3099
▁Arizona	-10.3101
▁Peninsula	-10.3101
▁Shanghai	-10.3101
▁Soviet	-10.3101
▁prospect	-10.3101
▁editor	-10.3101
▁royal	-10.3101
▁basis	-10.3101
▁innocent	-10.3101
▁reference	-10.3102
▁guy	-10.3102
▁forget	-10.3104
▁scrap	-10.3104
▁duty	-10.3105
▁differences	-10.3105
▁Real	-10.3109
▁professional	-10.311
▁systems	-10.3114
▁follows	-10.3115
▁pour	-10.312
▁dish	-10.3137
▁spy	-10.3141
had	-10.3145
▁Jim	-10.3148
ano	-10.315
▁arrange	-10.3152
▁weak	-10.3153
▁75	-10.3153
▁thanks	-10.3154
ium	-10.3158
bbed	-10.3172
rick	-10.3177
▁Shar	-10.3179
▁Premier	-10.3189
▁Before	-10.3189
▁stretch	-10.3189
▁worry	-10.3189
▁buried	-10.3189
▁atmosphere	-10.3189
▁gift	-10.3189
▁housing	-10.3189
▁iron	-10.319
level	-10.319
▁desire	-10.319
▁faced	-10.319
▁1990	-10.3191
▁offering	-10.3196
▁organizations	-10.3196
rry	-10.3197
▁suggests	-10.3197
east	-10.3204
▁prosecutor	-10.3212
▁continues	-10.3215
hold	-10.3229
$	-10.3232
▁Chi	-10.3237
45	-10.3239
▁Cor	-10.3242
▁surge	-10.3249
atic	-10.3256
▁careful	-10.326
▁stocks	-10.3262
▁van	-10.3265
▁fur	-10.3277
▁Liverpool	-10.3277
▁Nicola	-10.3277
▁channel	-10.3277
▁Samsung	-10.3277
▁Port	-10.3282
▁grew	-10.3282
▁Liber	-10.3284
erial	-10.329
▁settled	-10.3316
▁Wen	-10.3321
▁revealed	-10.3329
▁blam	-10.3348
nam	-10.335
US	-10.3353
▁turning	-10.3356
itive	-10.3356
▁forth	-10.3357
▁Sam	-10.3359
▁symbol	-10.3366
▁uranium	-10.3366
▁prince	-10.3367
▁elder	-10.3367
▁Where	-10.3367
▁restrictions	-10.3368
▁shopping	-10.3368
▁involvement	-10.3369
▁Palin	-10.3371
▁nor	-10.3373
▁highlight	-10.3376
▁highway	-10.3382
creasingly	-10.3386
▁dust	-10.339
▁examin	-10.3392
▁landed	-10.3402
▁shirt	-10.3403
▁mud	-10.3418
▁10-	-10.3428
Ma	-10.3429
▁meal	-10.3432
take	-10.3434
▁negotiat	-10.3435
▁Home	-10.3441
▁Kurdish	-10.3456
▁Saddam	-10.3456
▁vacation	-10.3456
▁Navy	-10.3458
▁$8	-10.346
▁Six	-10.3467
ipped	-10.3468
▁Rio	-10.3469
▁pushing	-10.3471
▁Lone	-10.3473
▁boss	-10.3475
▁Inter	-10.3476
▁inches	-10.3481
▁supporting	-10.3487
▁initially	-10.3489
▁string	-10.3492
ole	-10.3516
try	-10.3526
zo	-10.3528
▁Kenya	-10.3529
▁throw	-10.3532
▁temp	-10.3533
That	-10.3539
▁demonstrations	-10.3539
▁Constitution	-10.3547
▁Province	-10.3547
▁Simpson	-10.3547
▁offensive	-10.3547
▁trillion	-10.3547
▁nationwide	-10.3549
▁shortage	-10.3558
▁provinc	-10.3563
die	-10.3567
▁cook	-10.3568
teen	-10.3572
80	-10.3576
▁Rock	-10.3578
▁canceled	-10.3599
▁eating	-10.3609
▁theater	-10.3613
▁attended	-10.3622
ula	-10.3622
▁pose	-10.3629
▁acting	-10.363
dis	-10.3632
My	-10.3636
▁confident	-10.3639
▁YORK	-10.3639
▁embassy	-10.3639
▁participate	-10.3639
▁instruct	-10.3639
▁Win	-10.364
▁discount	-10.3641
▁strain	-10.3641
▁Great	-10.3642
▁thick	-10.3643
▁speculation	-10.3644
▁boom	-10.3644
▁cents	-10.3653
▁talked	-10.3656
▁recovery	-10.3661
▁cleared	-10.367
▁teams	-10.3674
▁lifted	-10.3675
gro	-10.3675
▁Far	-10.3676
▁sand	-10.3678
▁warming	-10.3683
burg	-10.369
▁aboard	-10.3699
▁quit	-10.3709
▁gate	-10.3724
When	-10.3725
▁ethnic	-10.3732
▁peninsula	-10.3732
▁strategy	-10.3732
▁Chirac	-10.3732
▁stories	-10.3732
▁Nepal	-10.3732
▁cigarette	-10.3732
▁Dutch	-10.3732
▁disrupt	-10.3732
▁joke	-10.3733
▁visa	-10.3736
▁insisted	-10.3737
▁missed	-10.3742
▁introduced	-10.3751
▁style	-10.3756
▁Santa	-10.3756
75	-10.3767
▁phones	-10.3786
▁copy	-10.3801
▁commit	-10.3812
▁sixth	-10.3816
95	-10.3824
▁Chelsea	-10.3825
▁Economic	-10.3825
▁Ukraine	-10.3825
▁chemical	-10.3825
▁presidency	-10.3825
▁milk	-10.3825
▁Senator	-10.3825
▁element	-10.3825
▁perhaps	-10.3825
▁guide	-10.3825
▁luck	-10.3825
▁counterpart	-10.3826
▁landing	-10.3826
▁projects	-10.3826
▁400	-10.3828
▁strengthen	-10.3837
ending	-10.3837
▁balance	-10.3838
▁limited	-10.3839
▁witnesses	-10.3841
▁Take	-10.3843
▁Johnson	-10.3852
▁gained	-10.3867
▁discussed	-10.3867
▁drawn	-10.3869
▁expert	-10.387
▁meat	-10.3877
wal	-10.3883
more	-10.3884
ix	-10.3884
▁prepar	-10.3885
star	-10.3892
▁effects	-10.3903
mark	-10.3907
79	-10.3908
▁Dubai	-10.392
▁evacuated	-10.392
▁facility	-10.392
▁junta	-10.392
▁occasion	-10.392
▁label	-10.3921
itz	-10.3923
▁lady	-10.3926
▁proud	-10.393
▁outbreak	-10.3932
▁reporter	-10.3933
bel	-10.3935
▁ships	-10.3937
▁2,000	-10.3938
▁repeated	-10.3942
▁relatives	-10.3943
▁seal	-10.3944
▁soft	-10.3945
▁via	-10.3946
won	-10.395
▁Ford	-10.3955
▁shape	-10.3965
▁Serbia	-10.3975
▁Vo	-10.3976
cker	-10.3978
▁pledge	-10.3978
▁officially	-10.398
▁ally	-10.3982
▁extended	-10.3995
▁scale	-10.3996
moon	-10.3999
▁clo	-10.4005
26	-10.4005
▁older	-10.4006
▁interests	-10.4008
▁44	-10.4009
▁Vegas	-10.4015
▁sponsor	-10.4015
▁stadium	-10.4015
▁casualties	-10.4015
▁status	-10.4015
▁steam	-10.4015
▁lawsuit	-10.4016
▁Joong	-10.4018
▁beer	-10.402
▁Water	-10.4025
▁till	-10.4025
▁destroy	-10.4033
▁farmers	-10.4035
▁connect	-10.4035
16	-10.404
▁manner	-10.404
▁Fire	-10.4042
▁adopt	-10.4046
▁tied	-10.4048
▁Musa	-10.4051
60	-10.4055
▁travelers	-10.4057
▁10,000	-10.4057
▁Or	-10.4058
▁mouth	-10.4068
▁debut	-10.4072
▁schedule	-10.4074
▁rent	-10.4078
▁strange	-10.4082
▁Rob	-10.4093
town	-10.4108
what	-10.4108
▁Food	-10.4111
▁Nevada	-10.4111
▁Thomas	-10.4111
▁Thousand	-10.4111
▁institution	-10.4111
▁apply	-10.4111
▁compound	-10.4111
▁Though	-10.4111
▁fruit	-10.4111
count	-10.4112
▁assistant	-10.4114
14	-10.4114
▁loud	-10.4116
▁footage	-10.4116
▁sitting	-10.4117
▁Mike	-10.4117
▁Life	-10.4118
▁gay	-10.4119
▁pace	-10.4119
▁retired	-10.4124
▁overnight	-10.4126
▁explosives	-10.4126
▁lawyers	-10.4127
▁gains	-10.413
▁Islam	-10.4134
▁grown	-10.4145
▁Men	-10.415
▁coordinat	-10.4151
▁stream	-10.4155
▁prisoner	-10.4157
▁chances	-10.4162
▁pet	-10.4165
they	-10.4165
▁hero	-10.4166
▁fate	-10.4169
▁condemned	-10.4173
▁Five	-10.4174
atory	-10.4179
▁Ac	-10.4189
▁heading	-10.4193
▁sad	-10.4196
▁$10	-10.4197
▁Governor	-10.4208
▁breakfast	-10.4208
▁economist	-10.4208
▁generation	-10.4208
▁northwest	-10.4208
▁inquiry	-10.4208
▁apology	-10.4208
▁$6	-10.421
▁hoping	-10.4212
▁recover	-10.4212
▁Tim	-10.4213
▁Iowa	-10.4213
▁2010	-10.4214
▁downtown	-10.4217
▁burning	-10.4219
▁clashes	-10.422
▁concluded	-10.4228
▁extend	-10.4229
▁divided	-10.4229
▁Dick	-10.4231
▁sole	-10.4233
▁Northern	-10.4233
▁strongly	-10.4236
▁boil	-10.4243
▁beating	-10.4245
▁acknowledged	-10.4252
▁surprised	-10.4261
▁Ger	-10.4263
▁lawmaker	-10.4272
▁remark	-10.4272
inal	-10.4273
▁Qa	-10.4277
made	-10.4279
▁file	-10.4283
▁regulations	-10.4284
▁citizen	-10.4285
▁tensions	-10.4286
▁Mahmoud	-10.4306
▁Spears	-10.4306
▁Thaksin	-10.4306
▁crucial	-10.4306
▁expense	-10.4306
▁girlfriend	-10.4306
▁volunteer	-10.4306
▁babies	-10.4306
▁Fatah	-10.4306
▁Ocean	-10.4306
▁retail	-10.4306
▁Nadal	-10.4306
▁frozen	-10.431
▁48	-10.4313
▁era	-10.4313
▁benefits	-10.4314
▁owned	-10.4314
▁settlement	-10.4314
▁relay	-10.4316
▁Also	-10.4316
▁Jack	-10.4319
▁gap	-10.4323
▁teenager	-10.4324
▁younger	-10.4328
▁habit	-10.4336
▁appointed	-10.4342
▁Wood	-10.435
▁worker	-10.436
ancy	-10.4366
▁threats	-10.4373
▁larger	-10.4378
▁34	-10.438
▁weekly	-10.4385
▁dealing	-10.439
ctic	-10.4392
▁jailed	-10.4398
▁views	-10.4398
▁Jan	-10.44
▁Austria	-10.4405
▁conspiracy	-10.4405
▁identify	-10.4405
▁Diego	-10.4405
▁Kabul	-10.4405
▁invasion	-10.4405
▁solve	-10.4405
▁flash	-10.4407
▁assets	-10.441
▁desk	-10.441
▁dance	-10.4421
▁compos	-10.4421
▁reality	-10.4422
▁exactly	-10.4423
▁Joe	-10.443
▁permit	-10.4431
▁Kang	-10.4432
uri	-10.4433
▁tested	-10.4434
▁governing	-10.4438
▁Free	-10.4445
▁freed	-10.4448
ility	-10.4449
12	-10.4456
▁waves	-10.4465
▁tradition	-10.4476
18	-10.4478
▁fewer	-10.448
▁tourist	-10.4484
▁recovered	-10.4484
▁accus	-10.4492
ace	-10.4503
▁Scorsese	-10.4505
▁Would	-10.4505
▁recruit	-10.4505
▁compete	-10.4505
▁section	-10.4505
▁stamp	-10.4505
▁cease	-10.4505
▁Libya	-10.4506
▁shore	-10.4506
▁organized	-10.4507
▁household	-10.4509
▁carbon	-10.4509
▁pieces	-10.4512
▁virtual	-10.4512
ature	-10.4513
▁hospitalized	-10.4513
▁discovery	-10.4519
▁accounts	-10.4521
▁Come	-10.4526
▁fence	-10.4535
▁accord	-10.4537
▁exit	-10.4543
Our	-10.455
▁driven	-10.4553
▁55	-10.4565
▁Mayor	-10.4568
▁photo	-10.4577
100	-10.4577
▁Pen	-10.4577
▁Venezuela	-10.4587
▁lit	-10.4587
▁height	-10.4588
▁testing	-10.4598
▁occur	-10.4604
▁Karzai	-10.4606
▁congress	-10.4606
▁swept	-10.4606
▁veteran	-10.4606
▁agenda	-10.4606
▁chain	-10.4606
▁kiss	-10.4607
▁internal	-10.4607
▁appointment	-10.4609
▁Rome	-10.461
▁runway	-10.4616
▁slightly	-10.462
▁resigned	-10.4622
▁Over	-10.4625
▁carefully	-10.4635
▁51	-10.4641
Re	-10.4645
▁Super	-10.466
▁lying	-10.4665
pat	-10.4669
▁lock	-10.4673
▁healthy	-10.4682
stand	-10.4683
dent	-10.4687
▁tens	-10.4693
▁fields	-10.4693
▁Watch	-10.4696
▁Public	-10.4708
▁anonymity	-10.4708
▁assassination	-10.4708
▁humanitarian	-10.4708
▁negative	-10.4708
▁NBC	-10.4708
▁impossible	-10.4708
▁cleric	-10.4708
▁First	-10.4708
▁CIA	-10.4708
▁attitude	-10.4708
▁strict	-10.4708
▁Deput	-10.4711
▁Bob	-10.4712
▁$7	-10.4712
ville	-10.4715
▁featur	-10.4715
▁reaching	-10.4729
▁collection	-10.473
▁apart	-10.4734
▁unveiled	-10.4734
▁20,000	-10.4744
▁fame	-10.4753
▁continuing	-10.476
▁executives	-10.4774
ford	-10.4775
▁failing	-10.4775
▁Bor	-10.4776
▁presented	-10.4779
▁Christ	-10.4789
▁standard	-10.4794
▁Jerusalem	-10.4811
▁airstrike	-10.4811
▁destruction	-10.4811
▁detention	-10.4811
▁permanent	-10.4811
▁beauty	-10.4811
▁smell	-10.4811
▁Boston	-10.4812
▁trapped	-10.4812
▁plea	-10.4812
▁division	-10.4813
hn	-10.4813
▁Rose	-10.4814
▁closing	-10.4814
▁slid	-10.4814
▁chip	-10.4818
▁Frank	-10.482
nna	-10.4823
▁Colombian	-10.4841
▁wheel	-10.4841
▁pill	-10.4853
▁matches	-10.4857
putting	-10.4858
▁blocked	-10.4862
▁tip	-10.4864
▁stores	-10.4872
▁percentage	-10.4874
▁strikes	-10.4878
▁Big	-10.488
▁youth	-10.4895
▁passenger	-10.4897
▁Champions	-10.4915
▁lecture	-10.4915
▁resources	-10.4915
▁Prize	-10.4916
▁Abdul	-10.4917
▁Daily	-10.4917
▁everybody	-10.4919
free	-10.4923
lia	-10.4924
▁swim	-10.4925
▁assist	-10.4931
EC	-10.4933
▁questioning	-10.494
▁treaty	-10.4945
gon	-10.4954
▁Arm	-10.4957
utter	-10.4958
▁Reg	-10.4963
▁predict	-10.4965
print	-10.497
▁diet	-10.4981
NE	-10.4987
▁fail	-10.499
▁lie	-10.4993
▁kn	-10.4998
cut	-10.5005
▁remove	-10.5006
▁refugees	-10.5011
▁43	-10.5014
▁punish	-10.5016
▁earned	-10.5019
▁Hundred	-10.5021
▁Zealand	-10.5021
▁drunk	-10.5021
▁mortgage	-10.5021
▁procedure	-10.5021
▁widespread	-10.5021
▁switch	-10.5021
▁CBS	-10.5021
▁Coast	-10.5021
▁neck	-10.5021
▁changing	-10.5021
▁Potter	-10.5023
profile	-10.5026
▁flames	-10.5026
▁$100	-10.5026
▁supposed	-10.5029
▁democratic	-10.5033
▁supported	-10.5036
▁3,000	-10.5041
▁legs	-10.5053
▁Steven	-10.5054
▁faster	-10.5085
▁drawing	-10.5095
▁Matt	-10.5098
▁Forces	-10.5102
▁Give	-10.5104
▁52	-10.5107
▁focused	-10.5107
▁strip	-10.5112
▁branch	-10.5116
▁install	-10.5122
▁alternative	-10.5127
▁Canadian	-10.5127
▁Chrysler	-10.5127
▁confess	-10.5127
▁controversy	-10.5127
▁pocket	-10.5127
▁receiving	-10.5127
▁worried	-10.5127
▁studio	-10.5127
▁Airlines	-10.5127
▁swimming	-10.5127
▁steel	-10.5127
▁contend	-10.5127
▁violat	-10.5132
▁returning	-10.5139
ock	-10.5146
▁Because	-10.5151
▁staying	-10.5156
▁unusual	-10.5161
▁shared	-10.5169
70	-10.5174
cious	-10.5177
▁Oil	-10.5187
bur	-10.5189
there	-10.5193
At	-10.5201
▁exam	-10.5214
▁bow	-10.522
▁mess	-10.5222
▁fixed	-10.5227
▁Reserve	-10.5235
▁diamond	-10.5235
▁graduate	-10.5235
▁surrounded	-10.5235
▁yellow	-10.5235
▁Hilton	-10.5235
▁false	-10.5235
▁midnight	-10.5236
▁blaze	-10.5236
him	-10.5237
▁`	-10.5238
▁tourism	-10.5239
▁unclear	-10.5239
▁Brazilian	-10.5239
▁except	-10.524
stein	-10.5244
▁freeze	-10.5249
▁rapidly	-10.5251
▁fee	-10.528
▁models	-10.5287
▁threatening	-10.5292
▁Mag	-10.5295
ami	-10.53
▁understanding	-10.5305
▁escape	-10.5306
▁Van	-10.5311
tress	-10.5314
▁observ	-10.5329
▁cloud	-10.5339
▁Attorney	-10.5343
▁Scotland	-10.5343
▁circumstances	-10.5343
▁familiar	-10.5343
▁structure	-10.5343
▁monks	-10.5343
▁funeral	-10.5343
▁ABC	-10.5343
▁Film	-10.5343
▁firing	-10.5344
▁Peace	-10.5345
▁punishment	-10.5348
▁lung	-10.5348
▁Ronaldo	-10.5349
omrade	-10.5352
▁policeman	-10.5353
▁taste	-10.5354
▁dressed	-10.5355
▁chosen	-10.5357
▁fat	-10.5361
▁Time	-10.5366
▁fever	-10.5373
mple	-10.5377
▁Act	-10.5379
▁intend	-10.5383
▁cloth	-10.5396
▁neighbors	-10.5397
▁triggered	-10.5397
▁Ver	-10.5416
▁Kha	-10.5416
▁loans	-10.5421
▁Only	-10.5427
▁Mohammed	-10.5453
▁bilateral	-10.5453
▁expensive	-10.5453
▁sustain	-10.5453
▁palace	-10.5453
▁Scott	-10.5453
▁Sarah	-10.5453
▁inflation	-10.5453
▁defect	-10.5454
▁clinic	-10.5454
▁railway	-10.5455
▁stepped	-10.5457
▁Qala	-10.5458
▁dump	-10.5459
▁plate	-10.5464
▁Near	-10.5468
runner	-10.547
▁skill	-10.5473
▁deployed	-10.548
▁Young	-10.548
▁learning	-10.5485
▁describ	-10.5496
ette	-10.5505
▁musical	-10.5519
▁Lt	-10.553
▁features	-10.5555
chang	-10.5563
▁Colorado	-10.5564
▁Journal	-10.5564
▁Scientists	-10.5564
▁bicycle	-10.5564
▁venue	-10.5564
▁client	-10.5564
▁margin	-10.5564
▁honest	-10.5564
▁rumor	-10.5564
▁master	-10.5564
▁Sean	-10.5565
▁Fayed	-10.5565
▁Henry	-10.5565
▁convert	-10.5565
▁odd	-10.5565
▁Berlin	-10.5566
▁5-	-10.5567
▁rice	-10.5573
▁stronger	-10.5573
GNP	-10.5576
▁solar	-10.5578
hud	-10.5582
week	-10.5583
▁flowers	-10.5584
▁responded	-10.5586
▁rolled	-10.5587
▁Post	-10.56
▁gathering	-10.5608
▁Va	-10.5618
▁rig	-10.5625
▁obtained	-10.5634
door	-10.5645
▁closely	-10.5651
▁complain	-10.5662
▁paying	-10.5669
urricane	-10.5675
▁Argentina	-10.5677
▁dictionary	-10.5677
▁easier	-10.5677
▁execution	-10.5677
▁plenty	-10.5677
▁Children	-10.5677
▁Jesus	-10.5677
▁1994	-10.5678
fully	-10.5681
▁scientist	-10.5684
▁bigger	-10.5684
Mar	-10.5685
▁weaken	-10.5689
▁properly	-10.5695
▁breaking	-10.57
▁established	-10.5702
play	-10.5706
▁survived	-10.5712
▁greatest	-10.5714
▁sharply	-10.5718
▁PC	-10.5729
bin	-10.5732
wood	-10.5734
▁mile	-10.5739
some	-10.5742
stone	-10.5749
99	-10.5756
▁nav	-10.5781
▁targeting	-10.5781
▁restrict	-10.5789
▁Blagojevich	-10.579
▁Instead	-10.579
▁Yongbyon	-10.579
▁legislation	-10.579
▁McCann	-10.579
▁disagree	-10.579
▁scheme	-10.579
▁vast	-10.5791
▁Macau	-10.5792
▁pirate	-10.5792
unk	-10.5793
▁Maryland	-10.5794
▁Play	-10.5794
▁ballot	-10.5795
▁rail	-10.5797
▁bail	-10.5799
▁Sony	-10.5799
▁trick	-10.58
▁demonstration	-10.5801
▁Oh	-10.5802
▁Long	-10.5806
▁Ear	-10.5821
volutionary	-10.5823
▁sing	-10.5826
▁thin	-10.5828
▁publish	-10.5828
▁mention	-10.5836
▁Art	-10.5836
De	-10.5846
▁welcomed	-10.5856
▁constitutional	-10.5859
Mo	-10.587
90	-10.5878
▁difficulty	-10.5879
▁recognize	-10.5879
▁estimate	-10.5882
▁Lama	-10.5892
▁friendly	-10.5903
▁Elizabeth	-10.5905
▁Hezbollah	-10.5905
▁capacity	-10.5905
▁complicat	-10.5905
▁fault	-10.5905
▁HIV	-10.5905
▁empty	-10.5905
▁courage	-10.5905
▁premier	-10.5905
▁piano	-10.5905
script	-10.5905
▁crush	-10.5905
▁tiny	-10.5906
▁grass	-10.5906
▁departure	-10.5906
▁pipe	-10.5909
▁standoff	-10.5909
▁mob	-10.5912
▁hail	-10.5912
▁Stan	-10.5922
▁diplomats	-10.5923
▁refugee	-10.5929
▁Mor	-10.5933
▁appropriate	-10.5941
even	-10.5942
yong	-10.5943
▁reject	-10.5945
▁Dala	-10.5949
▁mere	-10.5951
iness	-10.5952
▁loved	-10.5956
▁lies	-10.5982
▁saved	-10.5982
▁controlled	-10.5987
azir	-10.6001
▁Q	-10.6004
wise	-10.6019
▁radical	-10.6021
▁Hotel	-10.6022
▁queen	-10.6022
▁northeast	-10.6022
▁scientific	-10.6022
▁aware	-10.6022
▁inspectors	-10.6023
▁hide	-10.6026
▁Gulf	-10.6028
▁spill	-10.6029
▁roadside	-10.603
PA	-10.6035
rous	-10.6037
▁divers	-10.6038
which	-10.6039
▁campus	-10.6042
now	-10.6049
▁useful	-10.6054
▁Jane	-10.6055
▁100,000	-10.6058
cover	-10.6064
▁46	-10.6068
▁crossed	-10.607
▁undergo	-10.6079
▁disappointed	-10.608
▁dispos	-10.6083
atter	-10.6094
▁striker	-10.6096
▁survive	-10.6102
27	-10.6107
▁predicted	-10.6108
▁beef	-10.611
lov	-10.6116
▁recorded	-10.6122
aught	-10.6131
▁Atlanta	-10.6139
▁Darfur	-10.6139
▁Sydney	-10.6139
▁lobby	-10.6139
▁monkey	-10.6139
▁pregnant	-10.6139
▁revenue	-10.6139
▁Federer	-10.6139
▁Reagan	-10.6139
▁excuse	-10.6139
▁cultural	-10.6139
▁neither	-10.614
▁solid	-10.614
▁expectations	-10.614
▁function	-10.614
▁alarm	-10.6141
▁feature	-10.6141
▁km	-10.6144
▁Ze	-10.6144
▁melt	-10.6145
▁clouds	-10.6145
power	-10.6159
▁Edwards	-10.6166
itude	-10.617
▁lesson	-10.6176
▁whatever	-10.618
▁slowly	-10.6193
▁54	-10.6194
▁directed	-10.6195
▁successor	-10.6195
▁Pra	-10.6196
▁Dong	-10.6197
▁Khan	-10.6198
▁coal	-10.6215
▁complained	-10.6221
▁faith	-10.6234
▁””	-10.6239
▁journal	-10.6254
▁Authority	-10.6258
▁Bangkok	-10.6258
▁Barcelona	-10.6258
▁Square	-10.6258
▁obvious	-10.6258
▁substance	-10.6258
▁Women	-10.6258
▁torture	-10.6258
▁Abdullah	-10.6258
▁assembly	-10.6258
▁digital	-10.6258
▁pool	-10.6259
▁joy	-10.6259
▁carrier	-10.6259
▁hopeful	-10.6261
▁studying	-10.6262
▁gunmen	-10.6263
▁Still	-10.6265
▁troubled	-10.6275
third	-10.6279
▁resident	-10.6284
▁thousand	-10.6286
▁argued	-10.6293
mount	-10.6297
▁Indonesian	-10.6298
▁Put	-10.6313
▁replaced	-10.6315
▁founder	-10.6322
▁refer	-10.6325
ddle	-10.6341
▁deeply	-10.6346
▁Ask	-10.6349
▁crops	-10.6351
▁Pan	-10.6375
page	-10.6378
▁Jordan	-10.6379
▁verdict	-10.6379
▁Hwang	-10.6379
▁plastic	-10.6379
▁smash	-10.6379
▁chest	-10.638
▁colleagues	-10.6385
▁react	-10.6387
▁bath	-10.6387
▁capable	-10.6387
member	-10.6396
ption	-10.6398
Watch	-10.6402
▁magnitude	-10.6405
▁beaten	-10.6408
▁banking	-10.6408
▁comfort	-10.6409
▁politician	-10.6411
▁mental	-10.6413
pound	-10.6416
▁opponents	-10.6418
▁spare	-10.6419
▁condemn	-10.6423
pur	-10.6438
▁dig	-10.6451
▁$25	-10.6455
▁soil	-10.646
etic	-10.6461
▁sudden	-10.6476
vid	-10.6477
▁Foundation	-10.6501
▁YouTube	-10.6501
▁conclusion	-10.6501
▁descend	-10.6501
▁surrender	-10.6501
▁Which	-10.6501
▁robot	-10.6501
▁convoy	-10.6501
▁concept	-10.6501
▁eggs	-10.6501
▁stability	-10.6506
▁moral	-10.6507
▁observers	-10.651
▁admit	-10.651
▁cake	-10.6519
▁rope	-10.6522
▁passing	-10.6523
gotten	-10.6531
▁64	-10.6532
just	-10.655
case	-10.655
▁loan	-10.6563
▁rid	-10.6564
▁Rights	-10.6571
ripped	-10.6581
igh	-10.6581
pan	-10.6599
▁adopted	-10.66
bon	-10.6602
▁performed	-10.662
▁Atlantic	-10.6624
▁Development	-10.6624
▁Yonhap	-10.6624
▁anticipat	-10.6624
▁manipulat	-10.6624
▁depression	-10.6624
▁silence	-10.6624
▁athlete	-10.6624
▁snake	-10.6624
▁generate	-10.6624
▁moderate	-10.6624
▁saving	-10.6624
▁drown	-10.6624
▁Flo	-10.6624
▁frame	-10.6625
▁baseball	-10.6625
▁outcome	-10.6625
▁remind	-10.6625
▁entertainment	-10.6626
▁motion	-10.6627
▁native	-10.6628
▁marry	-10.6628
▁blog	-10.6635
▁enjoyed	-10.6635
▁cow	-10.6643
jung	-10.6645
53	-10.6646
▁comedy	-10.6648
▁prepare	-10.6651
▁Jon	-10.6664
Do	-10.6671
▁obtain	-10.6671
13	-10.6673
▁bull	-10.6674
▁registered	-10.6676
▁cave	-10.6696
▁improved	-10.6701
▁illegally	-10.6705
face	-10.671
▁argue	-10.6712
▁locked	-10.672
efficient	-10.6749
▁Director	-10.6749
▁Stephen	-10.6749
▁institute	-10.6749
▁preliminar	-10.6749
▁charity	-10.6749
▁constant	-10.6749
▁squad	-10.6749
▁deserve	-10.6749
▁gallon	-10.6749
▁liquid	-10.6749
▁unlikely	-10.6749
▁emissions	-10.6749
▁trend	-10.6749
▁steal	-10.6749
▁belief	-10.675
▁passport	-10.6753
▁1970	-10.6753
▁65	-10.6753
dded	-10.6755
▁Major	-10.6757
surge	-10.6762
▁gunman	-10.6766
▁Camp	-10.6768
▁upper	-10.6769
▁Venezuelan	-10.6773
▁$20	-10.6777
▁Stop	-10.6781
▁repeatedly	-10.6782
lip	-10.6786
▁chat	-10.6793
35	-10.6796
▁suspend	-10.6798
▁granted	-10.6816
▁Well	-10.6834
▁safely	-10.6836
▁pot	-10.6836
avy	-10.6847
For	-10.6865
▁commun	-10.6867
▁Investigator	-10.6876
▁Vladimir	-10.6876
▁erupted	-10.6876
▁platform	-10.6876
▁testimony	-10.6876
▁volume	-10.6876
▁yuan	-10.6876
▁Alexander	-10.6876
▁intense	-10.6876
▁pattern	-10.6876
▁Delta	-10.6876
▁nurse	-10.6876
▁interpret	-10.6876
▁Nigeria	-10.6876
▁Blue	-10.6876
▁Fund	-10.6876
▁vital	-10.6876
▁float	-10.6878
▁peak	-10.688
▁Lyn	-10.688
▁Stone	-10.6889
position	-10.6893
▁Chad	-10.6893
▁infected	-10.6898
▁nose	-10.6901
democracy	-10.6903
General	-10.6903
Q	-10.6903
largest	-10.6903
(	-10.6903
▁wishes	-10.6915
▁maybe	-10.6921
▁clip	-10.6937
AL	-10.6948
election	-10.6953
▁flooding	-10.6967
▁survivors	-10.6988
▁qua	-10.6998
▁Intelligence	-10.7004
▁disarmament	-10.7004
▁organizers	-10.7004
▁transaction	-10.7004
▁Jersey	-10.7004
▁genetic	-10.7004
▁Disney	-10.7004
▁Philip	-10.7004
▁tennis	-10.7004
▁preserv	-10.7004
▁wore	-10.7004
▁denounc	-10.7005
▁Brad	-10.7005
▁plus	-10.7006
▁dramatic	-10.7006
▁mph	-10.7012
▁arch	-10.7012
▁Report	-10.7014
signed	-10.7019
▁BA	-10.7024
▁remov	-10.703
People	-10.7033
▁Week	-10.7034
ground	-10.7036
▁hire	-10.7043
▁tie	-10.7047
▁$50	-10.7048
▁Gal	-10.7049
▁Song	-10.7064
▁fishing	-10.7066
pass	-10.7071
gate	-10.7075
▁funding	-10.7076
▁62	-10.7084
▁800	-10.709
▁bloody	-10.7097
▁Rep	-10.7112
▁promot	-10.7116
▁exhibit	-10.7127
▁prior	-10.713
▁pray	-10.7132
▁Hawaii	-10.7134
▁landslide	-10.7134
▁receipt	-10.7134
▁tsunami	-10.7134
▁typical	-10.7134
▁loyal	-10.7134
▁blind	-10.7134
▁mini	-10.7136
▁edition	-10.7137
▁unknown	-10.7139
▁lean	-10.714
▁$9	-10.714
▁App	-10.7152
▁indication	-10.7152
ntil	-10.7152
▁threaten	-10.7152
mile	-10.7167
winning	-10.7167
awa	-10.7172
▁compar	-10.7189
400	-10.7195
▁mixed	-10.7204
▁41	-10.7208
▁Speaker	-10.7214
▁Thi	-10.7216
24	-10.7221
▁advanced	-10.7221
▁prop	-10.725
▁hate	-10.7257
▁routine	-10.7265
▁BAGHDAD	-10.7265
▁Financial	-10.7265
▁Madeleine	-10.7265
▁Manhattan	-10.7265
▁airplane	-10.7265
▁consequence	-10.7265
▁fierce	-10.7265
▁liberal	-10.7265
▁sensitive	-10.7266
▁Patrick	-10.7266
▁unexpected	-10.7267
▁Judge	-10.7267
▁entry	-10.7268
▁shark	-10.7271
▁medal	-10.7273
▁bread	-10.7273
▁plain	-10.7279
▁inspection	-10.7283
▁Chris	-10.7288
quo	-10.7291
Once	-10.7299
▁nominated	-10.7303
young	-10.7305
▁Wang	-10.7305
▁rap	-10.731
▁reveal	-10.7321
▁Representatives	-10.7332
ubbed	-10.7353
””	-10.7358
▁Radio	-10.7387
▁mad	-10.7391
▁pan	-10.7398
▁disturb	-10.7399
▁agricultur	-10.7399
▁essential	-10.7399
▁ourselves	-10.7399
▁persuade	-10.7399
▁technique	-10.7399
▁uniform	-10.7399
▁Osama	-10.7399
▁dispatch	-10.7399
▁teeth	-10.7399
▁twenty	-10.7399
▁soccer	-10.7399
▁thrill	-10.7399
▁copies	-10.7399
▁shook	-10.7399
▁tackle	-10.7399
▁Assistan	-10.7399
▁rude	-10.7399
▁pile	-10.74
▁insult	-10.74
▁breed	-10.7401
▁Spring	-10.7402
▁nail	-10.7403
▁Luc	-10.7405
ullah	-10.7406
▁preparation	-10.7407
ux	-10.7408
▁2.5	-10.741
▁branches	-10.7412
illionaire	-10.7425
▁deny	-10.7437
soo	-10.7439
▁briefly	-10.744
▁stable	-10.744
▁photographer	-10.7444
▁waited	-10.7466
▁53	-10.7467
▁involve	-10.7497
▁rescued	-10.7505
▁foundation	-10.7513
▁opt	-10.7513
▁Cambodia	-10.7534
▁scholar	-10.7534
▁Buddhist	-10.7534
▁contrast	-10.7534
▁poverty	-10.7534
▁televised	-10.7534
▁bargain	-10.7534
▁Kevin	-10.7534
▁sweep	-10.7534
▁fortune	-10.7534
▁shake	-10.7534
▁knife	-10.7534
▁evil	-10.7534
▁apple	-10.7534
▁gear	-10.7535
▁transform	-10.7535
▁Latin	-10.7536
▁runner	-10.7537
▁outrage	-10.7539
▁dirt	-10.7539
▁Price	-10.754
▁Islamist	-10.7541
▁accuse	-10.7542
▁Board	-10.7543
▁McC	-10.7543
▁transportation	-10.7543
▁del	-10.7544
▁indicat	-10.7546
▁emerged	-10.7556
world	-10.757
▁slump	-10.7572
▁directing	-10.7575
lev	-10.7608
▁Indiana	-10.7615
▁attending	-10.7617
▁58	-10.7618
▁continu	-10.7628
▁61	-10.7632
▁approve	-10.7634
▁Peru	-10.7642
▁exact	-10.7655
OR	-10.7662
▁Gre	-10.7669
▁Lake	-10.7669
▁Phoenix	-10.7671
▁concrete	-10.7671
▁numerous	-10.7671
▁worries	-10.7671
▁Second	-10.7671
▁crown	-10.7671
▁operator	-10.7671
▁Boeing	-10.7672
▁veto	-10.7672
▁enforcement	-10.7673
▁championship	-10.7673
▁interfere	-10.7674
▁2012	-10.7675
▁Maj	-10.7676
▁contained	-10.7678
▁twin	-10.7678
▁wonderful	-10.7681
▁passage	-10.7682
▁prayer	-10.7683
▁Senna	-10.7693
▁improvement	-10.77
▁button	-10.77
▁reward	-10.7702
known	-10.7704
▁cargo	-10.7705
▁contribute	-10.7715
▁Sur	-10.7717
weight	-10.7719
▁teaching	-10.7722
Eastern	-10.7723
▁Bel	-10.7725
▁cancel	-10.7735
ugg	-10.7737
▁Ph	-10.7748
▁riding	-10.7749
▁dragg	-10.7759
ique	-10.7765
▁spoken	-10.777
gram	-10.7771
▁pursue	-10.7793
▁stressed	-10.7796
▁kicked	-10.7804
hir	-10.7808
▁Hampshire	-10.781
▁Vatican	-10.781
▁excited	-10.781
▁guerrilla	-10.781
▁guild	-10.781
▁initiative	-10.781
▁ordinary	-10.781
▁shrine	-10.781
▁sovereignty	-10.781
▁stimulus	-10.781
▁stomach	-10.781
▁substantial	-10.781
▁ignore	-10.781
▁watchdog	-10.781
▁absence	-10.781
▁Finance	-10.781
▁micro	-10.781
▁brush	-10.781
▁harsh	-10.781
▁reverse	-10.7812
▁Nancy	-10.7813
▁Egyptian	-10.7815
▁yen	-10.7819
▁ranking	-10.782
▁stolen	-10.7821
▁Alex	-10.7823
▁bio	-10.7823
▁confirmation	-10.7826
▁bitter	-10.7827
▁rag	-10.7829
▁coin	-10.783
▁manage	-10.7837
▁suffer	-10.7839
▁56	-10.7839
▁Southern	-10.7841
▁disappeared	-10.7849
▁selected	-10.7859
▁57	-10.7863
47	-10.7865
▁Pu	-10.7882
▁Congo	-10.7892
▁declare	-10.7914
▁briefing	-10.793
▁promotion	-10.7946
▁Val	-10.7946
▁submit	-10.7948
17	-10.795
▁Mohammad	-10.795
▁Pelosi	-10.795
▁Petraeus	-10.795
▁Portugal	-10.795
▁breakthrough	-10.795
▁cabinet	-10.795
▁fulfill	-10.795
▁immigration	-10.795
▁manufacturing	-10.795
▁GOP	-10.795
▁Transport	-10.795
▁gasoline	-10.795
▁Control	-10.795
▁relax	-10.7951
▁stalled	-10.7951
▁drum	-10.7951
▁loose	-10.7951
▁Kerry	-10.7951
▁Miami	-10.7952
▁dawn	-10.7952
▁shame	-10.7953
conscious	-10.7953
▁wrap	-10.7954
▁transferred	-10.7954
▁Winter	-10.7955
▁1995	-10.7955
▁1960	-10.7956
▁importance	-10.7957
▁47	-10.7959
▁Bond	-10.7962
sten	-10.7965
▁Tech	-10.7966
71	-10.7966
▁consideration	-10.7974
▁Kenyan	-10.798
▁classic	-10.7981
▁praised	-10.7986
▁GMT	-10.7997
▁Chile	-10.8001
▁Poll	-10.801
▁78	-10.8016
ball	-10.8044
▁opponent	-10.8046
▁Get	-10.8049
▁reserve	-10.8056
▁pla	-10.8061
▁comb	-10.8062
high	-10.8077
▁vers	-10.8084
▁attribut	-10.8093
▁dictator	-10.8093
▁Ahmadinejad	-10.8093
▁Islamabad	-10.8093
▁eliminat	-10.8093
▁entrance	-10.8093
▁identity	-10.8093
▁occupation	-10.8093
▁variety	-10.8093
electoral	-10.8093
▁sentiment	-10.8093
▁opposite	-10.8094
▁Old	-10.8094
▁sink	-10.8094
▁communities	-10.8094
▁portray	-10.8095
▁legend	-10.8098
▁Doctor	-10.8098
▁Mother	-10.8099
▁otherwise	-10.8104
▁informed	-10.8105
▁Fox	-10.8105
▁Pope	-10.8106
▁stag	-10.8114
▁handling	-10.8124
▁fog	-10.8126
▁apologized	-10.8128
▁advised	-10.8129
48	-10.8137
▁(2	-10.8139
▁normally	-10.8141
▁ought	-10.8145
keep	-10.8149
▁mix	-10.8162
dominated	-10.817
▁tire	-10.8204
▁Part	-10.8206
▁revolution	-10.8209
▁hanging	-10.8218
too	-10.8228
▁ruin	-10.8231
▁Almeida	-10.8238
▁Columbia	-10.8238
▁Mississippi	-10.8238
▁UEFA	-10.8238
▁abducted	-10.8238
▁imagine	-10.8238
▁qualify	-10.8238
▁rallies	-10.8238
▁rebuild	-10.8238
▁urban	-10.8238
▁Greece	-10.8238
▁Information	-10.8238
▁venture	-10.8238
▁cruise	-10.8238
▁muscle	-10.8238
▁Swiss	-10.8238
▁duties	-10.8238
▁jewel	-10.8238
▁stroke	-10.8238
▁IOC	-10.8238
▁Hicks	-10.8239
▁Morgan	-10.8239
▁spacecraft	-10.8239
▁trace	-10.8239
▁slaves	-10.8239
▁Kingdom	-10.824
▁uncertain	-10.824
▁Basra	-10.8241
▁1996	-10.8241
▁volcano	-10.8242
▁proof	-10.8246
▁Light	-10.8246
▁hint	-10.8247
▁absolutely	-10.8247
▁anybody	-10.8249
▁Plan	-10.8254
▁carries	-10.8258
▁Mir	-10.8259
▁stance	-10.8265
92	-10.8276
▁Ken	-10.8279
▁successfully	-10.8284
piece	-10.8285
class	-10.8285
▁classes	-10.8286
▁producing	-10.8287
▁stranger	-10.8288
▁Gore	-10.8296
▁resist	-10.83
▁upset	-10.8303
amba	-10.8307
86	-10.8308
cop	-10.8313
▁advise	-10.8327
assi	-10.8332
▁grant	-10.8336
▁praise	-10.8348
▁Marc	-10.8375
▁proceed	-10.8383
▁Antarctic	-10.8385
▁aggressive	-10.8385
▁smooth	-10.8385
▁Education	-10.8385
▁Festival	-10.8385
▁Global	-10.8385
▁Jewish	-10.8385
▁Switzerland	-10.8385
▁advertising	-10.8385
▁battling	-10.8385
▁blanket	-10.8385
▁compensation	-10.8385
▁conservation	-10.8385
▁elephant	-10.8385
▁firefighters	-10.8385
▁furniture	-10.8385
▁league	-10.8385
▁maximum	-10.8385
▁reputation	-10.8385
▁tobacco	-10.8385
▁Corporation	-10.8385
▁hammer	-10.8385
▁counsel	-10.8385
▁Airbus	-10.8385
▁twist	-10.8385
▁primaries	-10.8386
▁reiterat	-10.8386
▁Greek	-10.8386
▁southwestern	-10.8386
▁Valley	-10.8386
▁toxic	-10.8386
▁multiple	-10.8387
▁exclusive	-10.8387
▁enrichment	-10.8387
▁Father	-10.8388
▁Joseph	-10.8388
▁Lohan	-10.8389
▁authorized	-10.8389
▁slamm	-10.8391
▁Mel	-10.8391
▁friendship	-10.8391
▁recalled	-10.8391
▁Yong	-10.8392
▁Staff	-10.8392
▁abus	-10.8393
▁spell	-10.8393
▁marine	-10.8395
▁recommendation	-10.8395
▁mainland	-10.84
▁popularity	-10.8401
▁plunged	-10.8401
▁Seven	-10.8401
▁66	-10.8403
▁Out	-10.8411
▁oppose	-10.8411
held	-10.8412
▁golf	-10.8412
break	-10.8414
▁Maria	-10.8428
▁30,000	-10.8429
▁crying	-10.8446
VI	-10.8463
▁Somali	-10.8484
▁mentioned	-10.8486
▁violated	-10.8493
▁capture	-10.8498
▁Lev	-10.8502
▁resolved	-10.8502
▁Researcher	-10.8521
AM	-10.8525
▁fool	-10.8533
▁overwhelming	-10.8535
▁Ambassador	-10.8535
▁BEIJING	-10.8535
▁Benedict	-10.8535
▁College	-10.8535
▁Mumbai	-10.8535
▁brutal	-10.8535
▁conviction	-10.8535
▁curtain	-10.8535
▁improving	-10.8535
▁participants	-10.8535
▁1991	-10.8535
▁Czech	-10.8535
▁borrow	-10.8535
▁detonated	-10.8535
▁striking	-10.8535
▁debris	-10.8535
▁AIDS	-10.8535
▁Power	-10.8535
Little	-10.8535
▁withdrew	-10.8535
▁barrier	-10.8535
▁instant	-10.8536
▁hurricane	-10.8536
▁everywhere	-10.8537
▁chose	-10.8537
▁infant	-10.8538
▁creature	-10.8539
▁Poland	-10.8543
cast	-10.8544
▁nobody	-10.8553
▁experienced	-10.8556
▁scan	-10.8559
▁Chen	-10.8565
bound	-10.8577
▁pig	-10.8592
▁pope	-10.8595
that	-10.8604
▁39	-10.8604
▁73	-10.8615
▁quot	-10.8661
▁disable	-10.8678
clusive	-10.8684
etropolitan	-10.8686
▁IAEA	-10.8686
▁Kibaki	-10.8686
▁Mexican	-10.8686
▁Society	-10.8686
▁scratch	-10.8686
▁tunnel	-10.8686
▁shareholder	-10.8686
▁ocean	-10.8686
▁civic	-10.8686
▁religion	-10.8686
▁rifle	-10.8686
▁Hawk	-10.8686
▁Tiger	-10.8687
▁mourn	-10.8687
▁adjust	-10.8687
▁petition	-10.8688
▁Mount	-10.869
▁caucuses	-10.869
▁filmmaker	-10.8691
▁brick	-10.8693
▁Roger	-10.8694
▁alongside	-10.87
▁Rod	-10.8708
rmal	-10.8709
ister	-10.871
trip	-10.8718
named	-10.8733
▁alter	-10.8745
dding	-10.8761
▁origin	-10.8765
obs	-10.8787
where	-10.88
▁apologize	-10.8803
▁spin	-10.8806
▁diplomat	-10.8808
▁monitoring	-10.881
▁explosive	-10.8816
▁employee	-10.8819
▁injur	-10.8819
▁negotiate	-10.8821
96	-10.8826
▁Lau	-10.8828
▁Yan	-10.8829
Larry	-10.8833
▁Ghazni	-10.884
▁exposure	-10.884
▁obligation	-10.884
▁plutonium	-10.884
▁privacy	-10.884
▁surveillance	-10.884
▁Museum	-10.884
▁globe	-10.884
▁attached	-10.884
▁disclose	-10.884
▁fetch	-10.884
▁cafe	-10.884
▁Nothing	-10.8841
▁phase	-10.8841
▁unrest	-10.8841
300	-10.8841
▁1992	-10.8843
▁documentary	-10.8844
▁possession	-10.8847
▁Turn	-10.8847
▁infection	-10.8847
llied	-10.8848
▁Andrew	-10.8849
▁spotted	-10.885
▁proper	-10.8855
▁convinced	-10.8867
▁audit	-10.8876
South	-10.8896
▁oldest	-10.8899
▁Yi	-10.8905
▁Kate	-10.8913
▁disappoint	-10.8918
▁repeat	-10.8919
▁Bell	-10.8931
▁publication	-10.8937
▁clothing	-10.8938
▁singing	-10.8943
▁Gul	-10.896
▁realize	-10.8969
woo	-10.8971
▁59	-10.899
▁Euro	-10.8994
▁territori	-10.8996
▁Championship	-10.8996
▁DVD	-10.8996
▁FARC	-10.8996
▁Kuwait	-10.8996
▁robbery	-10.8996
▁umbrella	-10.8996
▁1993	-10.8996
▁grateful	-10.8996
▁Delhi	-10.8996
▁Mohamed	-10.8996
▁colour	-10.8996
▁steep	-10.8996
▁Hudson	-10.8996
▁bankruptcy	-10.8996
▁buck	-10.8996
▁cotton	-10.8996
▁Castro	-10.8996
▁Command	-10.8997
▁retain	-10.8997
▁tiger	-10.8997
▁Clark	-10.8997
▁classroom	-10.8998
▁sugar	-10.8998
▁screw	-10.8999
▁underground	-10.9003
▁Beach	-10.9005
▁villagers	-10.9007
▁refuse	-10.9009
▁Eric	-10.9011
▁undermine	-10.9019
▁historical	-10.9025
▁craft	-10.9037
▁slip	-10.9037
▁expression	-10.9053
▁topic	-10.9054
space	-10.9056
▁seventh	-10.9056
▁tale	-10.9065
▁trigger	-10.9077
about	-10.9078
hou	-10.9096
▁Hav	-10.9099
▁continent	-10.9119
▁600	-10.9147
▁southwest	-10.9154
▁Environment	-10.9155
extraordinary	-10.9155
▁centuries	-10.9155
▁definite	-10.9155
▁explanation	-10.9155
▁happiness	-10.9155
▁immigrant	-10.9155
▁prohibit	-10.9155
▁temporary	-10.9155
▁Detroit	-10.9155
▁Lanka	-10.9155
▁breach	-10.9155
▁Club	-10.9155
▁absent	-10.9155
▁benchmark	-10.9155
▁Keep	-10.9155
▁Wolf	-10.9156
▁talent	-10.9156
▁circulat	-10.9156
▁salt	-10.9159
▁priority	-10.9159
▁Workers	-10.9162
▁miners	-10.9165
▁brave	-10.918
▁Jean	-10.918
▁Eight	-10.9183
away	-10.9187
▁thrown	-10.9188
▁tower	-10.919
▁reserved	-10.9196
▁sca	-10.9206
▁tail	-10.9206
▁Somalia	-10.9209
▁($1	-10.921
terror	-10.9216
ffer	-10.9221
▁arranged	-10.9223
▁250	-10.9251
▁120	-10.9262
▁rip	-10.929
▁49	-10.9294
▁rapid	-10.9295
▁disputed	-10.9296
▁Chun	-10.9307
▁speculat	-10.9308
▁guest	-10.9309
▁delegate	-10.9309
▁uncle	-10.931
▁flame	-10.9313
▁bang	-10.9315
▁hijack	-10.9316
▁arriving	-10.9316
▁celebration	-10.9316
▁compromise	-10.9316
▁secular	-10.9316
▁steady	-10.9316
▁studied	-10.9316
▁pollution	-10.9316
▁stuck	-10.9316
▁eager	-10.9316
▁valley	-10.9316
▁acquir	-10.9316
▁Ryan	-10.9316
▁exceed	-10.9316
▁offense	-10.9317
▁pleaded	-10.9317
▁circ	-10.9317
▁Pitt	-10.9317
▁consent	-10.9318
▁checkpoint	-10.9319
▁Jobs	-10.9319
▁submitted	-10.932
▁dying	-10.9322
▁shipping	-10.9324
▁Richardson	-10.9324
▁hike	-10.9326
▁hunger	-10.9335
person	-10.9343
▁assured	-10.9343
▁Later	-10.9347
▁urgent	-10.9348
NC	-10.9354
▁Join	-10.9359
▁realized	-10.9364
▁significantly	-10.9372
▁portion	-10.9376
gie	-10.9381
▁discover	-10.9384
▁quote	-10.9392
▁recognized	-10.9392
part	-10.9401
▁Moore	-10.943
▁relat	-10.9447
▁killer	-10.9452
went	-10.9464
▁exhaust	-10.948
sufficient	-10.948
▁Antonio	-10.948
▁Bangladesh	-10.948
▁Nasdaq	-10.948
▁Radcliffe	-10.948
▁accomplish	-10.948
▁behaviour	-10.948
▁invitation	-10.948
▁kitchen	-10.948
▁luxury	-10.948
▁shield	-10.948
▁shrink	-10.948
▁stuff	-10.948
▁encounter	-10.948
▁burden	-10.948
▁cheque	-10.948
▁sank	-10.948
▁tongue	-10.948
▁priest	-10.948
▁Leader	-10.948
▁Ireland	-10.9481
▁nerve	-10.9481
▁instance	-10.9481
▁centre	-10.9482
▁distress	-10.9483
▁Yemen	-10.9484
▁surg	-10.9486
▁parade	-10.9486
▁drill	-10.9489
▁broadcaster	-10.9491
▁kindness	-10.9497
▁belt	-10.9498
▁replacement	-10.9499
▁pond	-10.9502
who	-10.9506
▁200,000	-10.9515
▁unity	-10.9515
rubb	-10.9533
▁Land	-10.9536
▁criticiz	-10.9536
scale	-10.955
OK	-10.9552
▁68	-10.9557
making	-10.9564
boo	-10.9579
▁Officer	-10.959
BO	-10.9608
▁pav	-10.9609
▁Elect	-10.9614
▁await	-10.9618
MA	-10.9629
hom	-10.9634
owned	-10.9642
▁confront	-10.9643
▁impose	-10.9645
▁Football	-10.9647
▁Philadelphia	-10.9647
▁Tennessee	-10.9647
▁announcing	-10.9647
▁boyfriend	-10.9647
▁chicken	-10.9647
▁competitive	-10.9647
▁cooperate	-10.9647
▁deciding	-10.9647
▁fundamental	-10.9647
▁sectarian	-10.9647
▁separatist	-10.9647
▁widow	-10.9647
▁Rescue	-10.9647
▁Athens	-10.9647
▁restrain	-10.9647
▁behalf	-10.9647
▁naked	-10.9647
▁isolated	-10.9647
▁Davis	-10.9647
▁acres	-10.9647
▁Donald	-10.9647
▁admission	-10.9647
▁anthem	-10.9648
▁pardon	-10.9648
▁resistance	-10.9649
▁taught	-10.9651
▁Everyone	-10.9651
▁intervene	-10.9652
▁1,500	-10.9653
▁membership	-10.9654
▁background	-10.9656
▁duck	-10.9656
▁acknowledge	-10.966
▁1.5	-10.9662
▁63	-10.9671
▁temple	-10.9676
RE	-10.9677
▁Cuban	-10.9685
▁passion	-10.9687
▁eighth	-10.9696
▁Fred	-10.9697
▁homeless	-10.9705
▁rider	-10.9708
▁drag	-10.971
Some	-10.9716
▁noticed	-10.9729
▁taxi	-10.9735
▁deliberate	-10.9765
▁divide	-10.9783
agh	-10.9784
▁Work	-10.9809
▁Capitol	-10.9816
▁McCormack	-10.9816
▁Television	-10.9816
▁celebrity	-10.9816
▁emotional	-10.9816
▁endangered	-10.9816
▁laptop	-10.9816
▁practical	-10.9816
▁vaccine	-10.9816
▁Globe	-10.9816
▁PKK	-10.9816
▁semifinal	-10.9816
▁Palace	-10.9816
▁guess	-10.9816
▁cinema	-10.9816
▁curb	-10.9816
▁cartoon	-10.9816
▁leap	-10.9817
▁Unification	-10.9818
▁permission	-10.9818
▁uh	-10.9819
▁somewhere	-10.9825
▁cry	-10.9829
▁Adam	-10.9831
▁Carter	-10.9833
▁Northeast	-10.9834
▁executed	-10.9834
ounce	-10.984
▁bore	-10.9858
▁youngest	-10.9858
With	-10.9888
child	-10.9889
▁buses	-10.9894
▁blown	-10.9897
wide	-10.991
▁revive	-10.9947
firm	-10.9971
▁Count	-10.9978
▁Gazprom	-10.9989
▁Winehouse	-10.9989
▁destination	-10.9989
▁enemies	-10.9989
▁library	-10.9989
▁referendum	-10.9989
▁residence	-10.9989
▁Murray	-10.9989
▁WHO	-10.9989
▁minimum	-10.9989
▁vegetable	-10.9989
▁tropic	-10.9989
▁silent	-10.9989
▁captive	-10.9989
▁ambush	-10.9989
▁therefore	-10.9989
▁boast	-10.9989
▁Airways	-10.9989
▁overcome	-10.9989
▁Auto	-10.9989
▁slowdown	-10.999
▁Powell	-10.9991
▁icon	-10.9992
▁classified	-10.9992
▁engagement	-10.9994
▁employment	-10.9996
▁Snow	-11
▁chase	-11.0002
▁Shu	-11.0008
▁indeed	-11.0011
▁4,000	-11.0013
▁Wales	-11.0024
▁peer	-11.005
▁embryo	-11.0066
direct	-11.0067
▁designat	-11.0071
▁contribut	-11.0086
▁risen	-11.0096
▁specialist	-11.0103
▁shoe	-11.0104
One	-11.0113
29	-11.0129
▁deposit	-11.0136
▁inspect	-11.0139
▁hung	-11.0153
▁slight	-11.0157
▁construct	-11.0158
road	-11.0161
▁Caribbean	-11.0164
▁Erdogan	-11.0164
▁Gambari	-11.0164
▁Netherlands	-11.0164
▁Odinga	-11.0164
▁Sichuan	-11.0164
▁Taylor	-11.0164
▁Wolfowitz	-11.0164
▁decrease	-11.0164
▁excellent	-11.0164
▁inauguration	-11.0164
▁legislative	-11.0164
▁medication	-11.0164
▁pregnancy	-11.0164
▁quantity	-11.0164
▁quarterfinal	-11.0164
▁terrible	-11.0164
▁voluntar	-11.0164
▁indicted	-11.0164
▁wheat	-11.0164
▁Romney	-11.0164
▁orchestra	-11.0164
▁drain	-11.0164
▁combined	-11.0164
▁adapt	-11.0164
▁expire	-11.0164
▁jungle	-11.0164
▁mood	-11.0165
▁Jerry	-11.0166
▁preced	-11.0166
▁earnings	-11.0169
▁poet	-11.017
▁bond	-11.017
▁Phil	-11.017
▁quotation	-11.0171
▁Chong	-11.0171
▁Palm	-11.0173
▁toilet	-11.0174
▁Like	-11.0185
▁affair	-11.0186
▁gather	-11.0196
▁castle	-11.0196
▁wip	-11.0197
▁countryside	-11.0212
yeon	-11.0214
▁dare	-11.0225
shaped	-11.0265
fight	-11.0269
slated	-11.0276
▁130	-11.0284
▁Top	-11.0325
▁GM	-11.0327
05	-11.0336
▁Emergency	-11.0343
▁Gonzales	-11.0343
▁Industrial	-11.0343
▁adventure	-11.0343
▁caution	-11.0343
▁consecutive	-11.0343
▁expansion	-11.0343
▁instrument	-11.0343
▁reconciliation	-11.0343
▁suspicious	-11.0343
▁turmoil	-11.0343
▁Barbara	-11.0343
▁Darwin	-11.0343
▁advertise	-11.0343
▁battery	-11.0343
▁chaos	-11.0343
▁statue	-11.0343
▁swift	-11.0343
▁convey	-11.0343
▁thorough	-11.0343
▁timetable	-11.0344
▁Program	-11.0344
▁balloon	-11.0345
▁poison	-11.0347
▁spray	-11.0348
▁provision	-11.0348
▁clue	-11.0348
▁dri	-11.035
▁refusal	-11.0351
▁shipped	-11.0351
▁define	-11.0362
▁contribution	-11.0365
▁sew	-11.0369
▁sample	-11.0371
▁enclosed	-11.0372
▁pure	-11.0395
▁regularly	-11.0396
▁Nine	-11.0397
▁Serb	-11.0422
mouth	-11.0424
▁conclude	-11.0488
▁introduce	-11.0488
▁broker	-11.0491
89	-11.0508
▁exception	-11.0515
▁circle	-11.0522
▁Engineer	-11.0525
▁Arsenal	-11.0525
▁Portuguese	-11.0525
▁Sharapova	-11.0525
▁aspect	-11.0525
▁bureau	-11.0525
▁judgment	-11.0525
▁surprising	-11.0525
▁yield	-11.0525
▁Mehdi	-11.0525
▁Sweden	-11.0525
▁scream	-11.0525
▁clinch	-11.0525
▁communicate	-11.0525
▁clever	-11.0525
▁Stalin	-11.0525
▁accusations	-11.0525
▁elsewhere	-11.0525
▁gross	-11.0525
dominant	-11.0525
viation	-11.0526
▁greenhouse	-11.0526
▁Local	-11.0526
▁bump	-11.0526
▁Morning	-11.0527
▁Albert	-11.0528
,800	-11.0529
▁alien	-11.0529
▁confrontation	-11.0531
▁factories	-11.0531
▁Nowak	-11.0532
▁Hamid	-11.0532
▁owe	-11.0534
▁sympathy	-11.0536
▁Look	-11.0536
▁Timor	-11.0541
▁Woo	-11.0547
ritage	-11.0558
▁enable	-11.0561
▁worsen	-11.0564
▁700	-11.0565
▁Princess	-11.0567
▁homeland	-11.0571
mission	-11.0607
general	-11.061
controlled	-11.061
98	-11.0611
▁teach	-11.062
▁register	-11.0632
▁Anti	-11.0668
8,000	-11.0681
▁Change	-11.0696
unidentified	-11.071
▁Electronic	-11.071
▁Ethiopia	-11.071
▁Guantanamo	-11.071
▁Jakarta	-11.071
▁Memorial	-11.071
▁Orleans	-11.071
▁Wimbledon	-11.071
▁beneath	-11.071
▁episode	-11.071
▁mirror	-11.071
▁republic	-11.071
▁superdelegates	-11.071
▁transplant	-11.071
▁Federation	-11.071
▁Merkel	-11.071
▁gesture	-11.071
▁explore	-11.071
▁silver	-11.071
▁testify	-11.071
▁unfair	-11.071
▁promising	-11.071
▁reducing	-11.071
▁hiding	-11.071
▁6-4	-11.071
▁ousted	-11.071
▁disappearance	-11.0711
▁Graham	-11.0712
▁bedroom	-11.0712
▁1989	-11.0713
▁consistent	-11.0714
▁wireless	-11.0714
▁relocation	-11.0715
▁remarkable	-11.0717
▁Hugo	-11.0719
▁acid	-11.0721
▁runoff	-11.0723
▁selection	-11.0723
▁ultimately	-11.0724
▁Villa	-11.0725
▁yes	-11.0727
▁inspired	-11.0727
▁output	-11.0754
▁Gun	-11.0763
▁tension	-11.0765
▁crop	-11.0789
mode	-11.0798
front	-11.0801
lude	-11.0811
occupied	-11.0823
▁engage	-11.0868
▁teenage	-11.0871
▁Amazon	-11.0898
▁Harvard	-11.0898
▁Hindu	-11.0898
▁Louisiana	-11.0898
▁Tsvangirai	-11.0898
▁collaborat	-11.0898
▁colonial	-11.0898
▁column	-11.0898
▁elevator	-11.0898
▁evacuation	-11.0898
▁gradually	-11.0898
▁hidden	-11.0898
▁mortar	-11.0898
▁precaution	-11.0898
▁prominent	-11.0898
▁reinforce	-11.0898
▁satisfied	-11.0898
▁Management	-11.0898
▁thief	-11.0898
▁amendment	-11.0898
▁pleasant	-11.0899
▁Louis	-11.0899
▁depart	-11.0899
▁extremists	-11.09
▁Revolution	-11.09
▁northeastern	-11.09
▁anchor	-11.09
▁sheep	-11.09
▁chill	-11.09
▁depict	-11.09
▁consist	-11.0902
▁assessment	-11.0903
▁candle	-11.0903
metric	-11.0904
LOS	-11.0904
▁exciting	-11.0905
▁Simon	-11.0906
▁rescuers	-11.0907
▁Warner	-11.0909
▁hub	-11.091
▁creation	-11.093
▁wartime	-11.0939
▁dug	-11.0942
97	-11.0943
▁Brig	-11.0948
limb	-11.0952
▁Nazi	-11.0959
storm	-11.0997
either	-11.1017
▁Gran	-11.1026
ogue	-11.1051
reasonable	-11.1056
▁Base	-11.1066
▁frequent	-11.1066
book	-11.1081
▁ANGELES	-11.1091
▁Seattle	-11.1091
▁category	-11.1091
▁iPhone	-11.1091
▁legitimate	-11.1091
▁nervous	-11.1091
▁tissue	-11.1091
▁unfortunate	-11.1091
▁disorder	-11.1091
▁mutual	-11.1091
▁anxious	-11.1091
▁Alliance	-11.1091
▁sheriff	-11.1091
▁Victoria	-11.1091
▁outlook	-11.1091
▁motive	-11.1091
▁valid	-11.1091
▁Small	-11.1091
▁Jews	-11.1091
▁Masters	-11.1092
▁Bowl	-11.1092
▁wrapped	-11.1092
nasty	-11.1093
▁Panama	-11.1093
placing	-11.1094
▁snap	-11.1094
▁flour	-11.1096
▁anywhere	-11.1097
▁Walter	-11.1101
▁69	-11.1103
▁Wright	-11.1105
▁turnout	-11.1107
▁personality	-11.111
▁refine	-11.111
life	-11.1112
▁frequently	-11.1116
▁investigator	-11.1148
▁Feb	-11.1162
▁Line	-11.1162
strong	-11.1193
formally	-11.1195
▁therap	-11.1202
▁dismiss	-11.1209
Nuri	-11.1218
▁Rodriguez	-11.1287
▁squeez	-11.1287
▁Bulgaria	-11.1287
▁Commerce	-11.1287
▁Fortune	-11.1287
▁Giuliani	-11.1287
▁Gyeong	-11.1287
▁Huckabee	-11.1287
▁Missouri	-11.1287
▁Oklahoma	-11.1287
▁abortion	-11.1287
▁association	-11.1287
▁earliest	-11.1287
▁extensive	-11.1287
▁hybrid	-11.1287
▁landscape	-11.1287
▁memorial	-11.1287
▁oblige	-11.1287
▁technologies	-11.1287
▁1987	-11.1287
▁Project	-11.1287
▁distinct	-11.1287
▁truce	-11.1287
▁Rooney	-11.1287
▁retaliat	-11.1287
▁Summer	-11.1287
▁stranded	-11.1287
▁Annan	-11.1287
▁denies	-11.1287
▁Media	-11.1287
▁pipeline	-11.1289
▁Chance	-11.1289
▁soaring	-11.1289
▁Ivan	-11.129
▁panda	-11.1291
▁exposed	-11.1291
▁specifically	-11.1292
▁testified	-11.1293
▁echo	-11.1293
▁stepping	-11.1293
▁extinction	-11.1294
▁exhibition	-11.1297
▁pending	-11.13
▁gray	-11.13
▁momentum	-11.1308
▁Arabic	-11.1311
▁ideal	-11.1328
▁cord	-11.1329
view	-11.1376
quarter	-11.1386
▁Roma	-11.1387
▁semi	-11.14
angled	-11.1408
▁oversee	-11.1421
▁habitat	-11.1425
▁bounc	-11.1432
▁Virgin	-11.1477
▁Current	-11.1487
▁escort	-11.1487
▁Consumer	-11.1487
▁Critics	-11.1487
▁Medvedev	-11.1487
▁Rumsfeld	-11.1487
▁Technology	-11.1487
▁abduction	-11.1487
▁applied	-11.1487
▁automatic	-11.1487
▁automobile	-11.1487
▁calculate	-11.1487
▁deficit	-11.1487
▁economies	-11.1487
▁impression	-11.1487
▁mammoth	-11.1487
▁opportunities	-11.1487
▁principal	-11.1487
▁quarrel	-11.1487
▁releasing	-11.1487
▁tabloid	-11.1487
▁Cruise	-11.1487
▁radar	-11.1487
▁Craig	-11.1487
▁salary	-11.1487
▁visible	-11.1487
▁Collins	-11.1487
▁audio	-11.1487
▁cattle	-11.1487
▁outstanding	-11.1487
▁6-3	-11.1487
▁pride	-11.1487
▁smart	-11.1487
▁sweat	-11.1487
▁wildlife	-11.1487
▁Carlos	-11.1488
▁inquest	-11.1488
▁Wild	-11.1488
▁concede	-11.1489
▁landmark	-11.149
▁addict	-11.149
▁terminal	-11.149
▁dropping	-11.1491
▁mill	-11.1492
▁Socialist	-11.1493
▁mice	-11.1494
▁tune	-11.1498
▁coverage	-11.1505
▁tighten	-11.1512
▁fake	-11.153
▁boot	-11.1541
▁shar	-11.1585
Harry	-11.159
century	-11.159
border	-11.159
▁$40	-11.1591
charge	-11.1593
▁objection	-11.1605
▁detain	-11.1614
▁Bear	-11.1614
94	-11.163
stair	-11.1667
▁77	-11.1679
exploit	-11.1691
▁accompani	-11.1691
▁Broadcasting	-11.1691
▁Channel	-11.1691
▁Jintao	-11.1691
▁Kansas	-11.1691
▁OPEC	-11.1691
▁Safety	-11.1691
▁Toyota	-11.1691
▁Windows	-11.1691
▁cyclone	-11.1691
▁declaring	-11.1691
▁devastating	-11.1691
▁enterprise	-11.1691
▁extension	-11.1691
▁glacier	-11.1691
▁patience	-11.1691
▁qualified	-11.1691
▁temporarily	-11.1691
▁Movement	-11.1691
▁deadliest	-11.1691
▁Survey	-11.1691
▁aftershock	-11.1691
▁warehouse	-11.1691
▁crunch	-11.1691
▁uncovered	-11.1691
▁rallied	-11.1691
▁interrupt	-11.1691
▁worn	-11.1691
▁cyber	-11.1691
▁charm	-11.1691
▁zero	-11.1691
▁respondents	-11.1691
▁Rudd	-11.1692
KEB	-11.1692
▁wildfire	-11.1693
▁consumption	-11.1693
▁Division	-11.1694
▁defendants	-11.1695
▁Lord	-11.1695
▁weakness	-11.1695
▁interrogation	-11.1696
onetary	-11.1696
▁childhood	-11.1696
▁comfortable	-11.1697
▁grain	-11.1698
▁unique	-11.1699
▁Zone	-11.17
▁banner	-11.1701
▁grabb	-11.1701
▁decor	-11.1705
▁cheat	-11.1709
▁somebody	-11.1714
▁88	-11.1717
▁glasses	-11.1721
▁Market	-11.1734
▁hostil	-11.1811
▁govern	-11.1813
▁supervis	-11.1852
▁convince	-11.1862
▁hip	-11.1874
▁lone	-11.1883
▁Experts	-11.1899
▁Travolta	-11.1899
▁analysis	-11.1899
▁buzz	-11.1899
▁mammal	-11.1899
▁motorcycle	-11.1899
▁predecessor	-11.1899
▁sacrifice	-11.1899
▁telescope	-11.1899
▁tragedy	-11.1899
▁triumph	-11.1899
▁unhappy	-11.1899
▁vulnerable	-11.1899
▁Cleveland	-11.1899
▁dismantle	-11.1899
▁repatriat	-11.1899
denuclearization	-11.1899
▁displaced	-11.1899
▁embrace	-11.1899
▁Video	-11.1899
▁postponed	-11.1899
▁Sheriff	-11.1899
▁whaling	-11.1899
▁cruel	-11.1899
▁detainees	-11.1899
▁parcel	-11.1899
▁intercept	-11.1899
▁polar	-11.1899
▁poem	-11.1899
▁comrades	-11.19
▁Utah	-11.19
▁keen	-11.1901
▁ballistic	-11.1901
▁Oct	-11.1901
▁cloning	-11.1903
▁1986	-11.1904
▁grab	-11.1907
▁glow	-11.1909
▁lips	-11.191
▁charter	-11.1919
▁sack	-11.1925
▁followers	-11.1931
▁Nick	-11.1932
▁bowl	-11.1986
▁Right	-11.2002
President	-11.2011
Iraq	-11.2011
North	-11.2012
deep	-11.2012
▁appoint	-11.2028
▁starr	-11.2037
speed	-11.2055
▁actual	-11.2093
▁Love	-11.2097
▁extinct	-11.2104
▁wreck	-11.211
▁Bahamas	-11.2112
▁Company	-11.2112
▁Ecuador	-11.2112
▁Follow	-11.2112
▁Katrina	-11.2112
▁MySpace	-11.2112
▁Winfrey	-11.2112
▁Wisconsin	-11.2112
▁consensus	-11.2112
▁corporation	-11.2112
▁dancing	-11.2112
▁goalkeeper	-11.2112
▁literature	-11.2112
▁migrant	-11.2112
▁statistics	-11.2112
▁tornado	-11.2112
▁unprecedented	-11.2112
▁vitamin	-11.2112
▁commemorat	-11.2112
▁Albania	-11.2112
▁chamber	-11.2112
▁enhance	-11.2112
▁humor	-11.2112
▁MBC	-11.2112
▁Business	-11.2112
▁magic	-11.2112
▁retreat	-11.2112
▁Madoff	-11.2112
▁Nichol	-11.2112
▁brown	-11.2112
▁rubble	-11.2112
▁visual	-11.2112
▁integrat	-11.2112
▁bacteria	-11.2112
Nixon	-11.2113
▁Torre	-11.2113
▁snapped	-11.2113
▁spiritual	-11.2114
▁Sgt	-11.2114
▁funny	-11.2115
▁Michelle	-11.2117
▁lodge	-11.212
▁Yoon	-11.213
▁pole	-11.213
▁cough	-11.2134
▁Flight	-11.2142
▁Ahmadi	-11.2147
▁presumpti	-11.2201
▁complet	-11.2222
bank	-11.2248
▁possess	-11.232
▁entertain	-11.2326
▁Executive	-11.2329
▁Kentucky	-11.2329
▁Mitchell	-11.2329
▁advisor	-11.2329
▁cautious	-11.2329
▁component	-11.2329
▁diplomacy	-11.2329
▁expedition	-11.2329
▁impoverished	-11.2329
▁romantic	-11.2329
▁suspension	-11.2329
▁universities	-11.2329
▁Ibrahim	-11.2329
▁Koizumi	-11.2329
▁Rafael	-11.2329
▁oxygen	-11.2329
▁whisk	-11.2329
▁bolster	-11.2329
▁midfielder	-11.2329
▁Vienna	-11.2329
▁Uganda	-11.2329
▁mandatory	-11.2329
▁vigil	-11.2329
▁regain	-11.233
▁proportion	-11.233
▁Kelly	-11.233
▁Mosul	-11.2331
▁mounting	-11.2331
▁laboratory	-11.2331
▁stairs	-11.2333
▁Omar	-11.2337
▁Warren	-11.2337
▁regardless	-11.234
▁tube	-11.2343
▁favorable	-11.2344
▁objective	-11.2345
nnie	-11.236
▁dating	-11.2362
▁Jeff	-11.2363
story	-11.2368
Meet	-11.2385
▁tomb	-11.2397
aritime	-11.2397
roughly	-11.2447
stream	-11.2451
language	-11.2451
because	-11.2451
color	-11.246
selling	-11.247
▁grade	-11.2475
flat	-11.2478
▁select	-11.2485
Syrian	-11.2485
▁emerge	-11.2516
▁rulers	-11.2527
▁assure	-11.2529
▁Ronald	-11.2539
▁stole	-11.2546
▁approximate	-11.2552
▁Conference	-11.2552
▁Discovery	-11.2552
▁Securities	-11.2552
▁Stadium	-11.2552
▁ambulance	-11.2552
▁competing	-11.2552
▁elaborate	-11.2552
▁emphasized	-11.2552
▁fabric	-11.2552
▁impeachment	-11.2552
▁legislature	-11.2552
▁meanwhile	-11.2552
▁monarch	-11.2552
▁stabilize	-11.2552
▁understood	-11.2552
▁chapter	-11.2552
▁combination	-11.2552
▁devoted	-11.2552
▁Houston	-11.2552
specified	-11.2552
▁massacre	-11.2552
▁respectively	-11.2552
▁Nicole	-11.2552
▁closure	-11.2552
▁comply	-11.2552
▁aftermath	-11.2552
▁Arctic	-11.2553
▁hydr	-11.2553
▁Susan	-11.2554
▁wreckage	-11.2554
▁shutdown	-11.2555
▁existence	-11.2558
▁forgive	-11.2558
▁Drug	-11.2559
▁laughter	-11.2561
▁rebound	-11.2563
▁Music	-11.2564
▁Stern	-11.2564
380	-11.2566
▁tide	-11.2572
▁congratulate	-11.2577
anuel	-11.2616
Japan	-11.2678
worth	-11.2678
After	-11.2678
▁update	-11.2709
▁enclose	-11.2742
▁presum	-11.2766
▁Military	-11.2779
▁Political	-11.2779
▁Yeltsin	-11.2779
▁academic	-11.2779
▁bodyguard	-11.2779
▁constitute	-11.2779
▁desperate	-11.2779
▁enormous	-11.2779
▁grandfather	-11.2779
▁indefinite	-11.2779
▁rabbit	-11.2779
▁strategic	-11.2779
▁unanimous	-11.2779
▁unpopular	-11.2779
Opinion	-11.2779
▁Karachi	-11.2779
▁Rowling	-11.2779
▁consolidat	-11.2779
▁contradict	-11.2779
▁discriminat	-11.2779
▁grenade	-11.2779
▁infiltrat	-11.2779
▁Travel	-11.2779
▁Twenty	-11.2779
▁summoned	-11.2779
▁conceive	-11.2779
▁glance	-11.2779
▁tribute	-11.2779
▁burial	-11.2779
▁wrongdoing	-11.2779
▁guidelines	-11.2779
▁Miller	-11.2779
▁depth	-11.2779
▁Lewis	-11.2779
▁incentive	-11.2779
▁mask	-11.2779
▁mild	-11.278
▁reunit	-11.278
▁haul	-11.278
▁stirr	-11.278
▁roar	-11.2782
▁flick	-11.2784
▁electro	-11.2788
▁confine	-11.279
▁observation	-11.2791
feld	-11.2792
▁attractive	-11.2793
▁barred	-11.2795
▁surgeon	-11.2795
▁assertion	-11.2806
▁Fair	-11.2812
▁panic	-11.2831
▁lure	-11.2853
▁secur	-11.2901
author	-11.2911
▁activist	-11.2911
▁Democracy	-11.3011
▁Emirates	-11.3011
▁PARIS	-11.3011
▁Professor	-11.3011
▁accurate	-11.3011
▁architect	-11.3011
▁asleep	-11.3011
▁celebrities	-11.3011
▁dissident	-11.3011
▁endorsement	-11.3011
▁equivalent	-11.3011
▁excitement	-11.3011
▁harbor	-11.3011
▁insurgency	-11.3011
▁penalties	-11.3011
▁reconstruction	-11.3011
▁servant	-11.3011
▁taxpayer	-11.3011
▁Bureau	-11.3011
▁Brook	-11.3011
▁corps	-11.3011
▁expell	-11.3011
▁hurry	-11.3011
▁prestig	-11.3011
▁Animal	-11.3011
▁reckon	-11.3012
▁Denver	-11.3012
▁reopen	-11.3012
▁sworn	-11.3012
▁mystery	-11.3012
▁Fisher	-11.3012
▁punch	-11.3012
▁bathroom	-11.3012
▁ankle	-11.3013
▁proceedings	-11.3015
▁choke	-11.3018
▁linger	-11.3019
▁subway	-11.3021
▁installation	-11.3024
▁swell	-11.3029
▁inquire	-11.3036
▁Chang	-11.3042
▁achievement	-11.3058
hye	-11.3139
umbling	-11.314
Pacific	-11.3149
enior	-11.3153
sumption	-11.3163
▁trap	-11.3186
▁propose	-11.3213
▁assert	-11.3227
▁Alabama	-11.325
▁Blitzer	-11.325
▁Kyodo	-11.325
▁Kyoto	-11.325
▁Opposition	-11.325
▁Record	-11.325
▁Should	-11.325
▁Spaniard	-11.325
▁Special	-11.325
▁abolish	-11.325
▁cholesterol	-11.325
▁emerging	-11.325
▁infrastructure	-11.325
▁optimistic	-11.325
▁prostitute	-11.325
▁shadow	-11.325
▁sketch	-11.325
▁universe	-11.325
▁Franco	-11.325
▁Mideast	-11.325
▁casual	-11.325
▁cocaine	-11.325
▁memories	-11.325
▁pornograph	-11.325
▁grief	-11.325
▁peacekeeping	-11.325
▁Wilson	-11.325
▁cliff	-11.325
▁eligib	-11.325
▁cheek	-11.325
▁Jolie	-11.325
▁bride	-11.325
educated	-11.325
▁Things	-11.325
▁Anderson	-11.325
▁analyz	-11.325
▁slope	-11.325
▁Class	-11.325
▁invoice	-11.325
▁videotape	-11.325
▁freezing	-11.325
▁epic	-11.325
▁woke	-11.325
▁Short	-11.3251
▁pretend	-11.3251
▁Terry	-11.3252
▁$700	-11.3252
▁residential	-11.3253
▁partnership	-11.3255
▁hook	-11.3263
▁Serg	-11.3282
▁reviv	-11.3307
three	-11.3395
shirt	-11.3397
fund	-11.3401
▁2-1	-11.3462
▁correspond	-11.3489
▁enforce	-11.349
▁enrich	-11.349
judicial	-11.3493
▁Argentine	-11.3493
▁Madonna	-11.3493
▁SEOUL	-11.3493
▁Schwarzenegger	-11.3493
▁asylum	-11.3493
▁convenience	-11.3493
▁curfew	-11.3493
▁dioxide	-11.3493
▁encouraging	-11.3493
▁excessive	-11.3493
▁industries	-11.3493
▁intervention	-11.3493
▁introduction	-11.3493
▁pilgrims	-11.3493
▁pyramid	-11.3493
▁slaughter	-11.3493
▁Oregon	-11.3493
▁Roddick	-11.3493
▁equity	-11.3493
▁implication	-11.3493
▁liberation	-11.3493
▁smuggle	-11.3493
▁Vermont	-11.3493
▁gunshot	-11.3493
▁Witness	-11.3493
▁Weather	-11.3494
▁prolonged	-11.3494
▁tumor	-11.3494
▁splash	-11.3494
▁skirt	-11.3494
▁scoring	-11.3494
▁retract	-11.3494
▁Index	-11.3494
▁carpet	-11.3494
▁disperse	-11.3494
▁Mountain	-11.3495
▁hungry	-11.3497
▁thunder	-11.3498
▁trademark	-11.3498
▁harmful	-11.3499
▁orange	-11.35
▁darkness	-11.3504
▁Puert	-11.3504
dependence	-11.3525
▁curl	-11.3532
stock	-11.354
▁flare	-11.3551
binding	-11.3559
acute	-11.3567
Qaeda	-11.3643
court	-11.3645
ographic	-11.3703
▁Alzheimer	-11.3743
▁Benjamin	-11.3743
▁Cooperation	-11.3743
▁Facebook	-11.3743
▁Helmand	-11.3743
▁Kandahar	-11.3743
▁antibiotic	-11.3743
▁commuter	-11.3743
▁neighbour	-11.3743
▁participating	-11.3743
▁participation	-11.3743
▁primarily	-11.3743
▁registration	-11.3743
▁supplier	-11.3743
▁surplus	-11.3743
▁swallow	-11.3743
▁treasure	-11.3743
▁tribunal	-11.3743
▁breeze	-11.3743
▁powder	-11.3743
▁reception	-11.3743
▁thirty	-11.3743
▁1982	-11.3743
▁ceiling	-11.3743
▁Sheikh	-11.3743
▁kidnappers	-11.3743
▁Family	-11.3743
▁Tampa	-11.3743
▁Ahmed	-11.3743
▁CDC	-11.3743
▁superior	-11.3744
▁admire	-11.3744
Girls	-11.3744
▁distant	-11.3744
▁gentle	-11.3744
▁6-2	-11.3744
▁denial	-11.3744
▁foul	-11.3744
▁fingerprint	-11.3744
▁kingdom	-11.3745
▁biologist	-11.3745
▁Singh	-11.3746
▁fond	-11.3746
▁Christie	-11.3747
▁awareness	-11.3748
rchaeologists	-11.3748
▁trafficking	-11.3749
▁mouse	-11.375
▁Henin	-11.3751
▁rust	-11.3752
▁plug	-11.3755
▁laser	-11.3771
productive	-11.3811
▁($2	-11.3868
▁impos	-11.3882
▁resolv	-11.3895
John	-11.3899
China	-11.3899
when	-11.3902
suit	-11.395
▁assess	-11.3999
Tianjin	-11.4
▁Amnesty	-11.4
▁Belgium	-11.4
▁Bernanke	-11.4
▁Campbell	-11.4
▁Pittsburgh	-11.4
▁Zardari	-11.4
▁accommodat	-11.4
▁accompany	-11.4
▁adequate	-11.4
▁ambitious	-11.4
▁brilliant	-11.4
▁chocolate	-11.4
▁comprehensive	-11.4
▁concentration	-11.4
▁grandmother	-11.4
▁incumbent	-11.4
▁populated	-11.4
▁proliferation	-11.4
▁shattered	-11.4
▁subsequent	-11.4
▁verify	-11.4
▁Hubble	-11.4
▁Interpol	-11.4
▁breast	-11.4
▁drought	-11.4
▁slogan	-11.4
▁welfare	-11.4
▁Bernard	-11.4
▁racial	-11.4
▁Everest	-11.4
▁arguing	-11.4
▁Dallas	-11.4
▁coincide	-11.4
▁Lahore	-11.4
▁Wayne	-11.4
▁carriage	-11.4
▁clerk	-11.4
▁overhaul	-11.4
▁Brian	-11.4
▁pronounced	-11.4
▁Sept	-11.4
▁Glen	-11.4001
▁compil	-11.4001
▁Nikk	-11.4001
▁Ramos	-11.4001
▁forgot	-11.4001
▁steer	-11.4002
▁typhoon	-11.4002
▁signature	-11.4003
▁Haiti	-11.4003
▁wander	-11.4004
▁retirement	-11.4004
▁deadlock	-11.4006
▁grace	-11.4006
▁ownership	-11.4006
▁Julia	-11.401
assembl	-11.4012
▁Members	-11.4051
▁kid	-11.4075
▁forbid	-11.4079
▁grip	-11.4087
cluding	-11.4106
omposite	-11.4116
Today	-11.4167
▁invite	-11.4227
▁chart	-11.4238
Maybe	-11.4252
▁surf	-11.4263
▁feather	-11.4263
responsibilities	-11.4263
▁Broadway	-11.4263
▁FIFA	-11.4263
▁Ferguson	-11.4263
▁Kremlin	-11.4263
▁Mercury	-11.4263
▁Oprah	-11.4263
▁advocate	-11.4263
▁anxiety	-11.4263
▁diabetes	-11.4263
▁entitled	-11.4263
▁obstacle	-11.4263
▁physician	-11.4263
▁pioneer	-11.4263
▁prostitution	-11.4263
▁psychiatr	-11.4263
▁rampage	-11.4263
▁rhetoric	-11.4263
▁surpass	-11.4263
▁unsuccessful	-11.4263
▁wrestl	-11.4263
▁1988	-11.4263
▁Beirut	-11.4263
▁Relations	-11.4263
▁Hitler	-11.4263
▁labour	-11.4263
▁interfering	-11.4263
▁laundering	-11.4263
▁retriev	-11.4263
▁freight	-11.4263
▁ignit	-11.4263
▁FDA	-11.4263
▁probation	-11.4263
▁garage	-11.4263
▁Wildlife	-11.4263
gravity	-11.4263
▁overturned	-11.4263
▁wool	-11.4263
▁Casey	-11.4263
▁blessing	-11.4263
▁faint	-11.4264
▁griev	-11.4264
▁Algeria	-11.4264
▁outfit	-11.4265
▁pension	-11.4266
▁Taiwanese	-11.4267
▁Order	-11.4268
▁Idol	-11.4268
▁shove	-11.4269
▁spike	-11.427
▁bench	-11.4271
ozens	-11.4272
▁mall	-11.4278
▁mandate	-11.4283
▁slot	-11.4286
▁faithful	-11.4316
▁dominate	-11.4392
trust	-11.4436
▁nominat	-11.4446
▁6-1	-11.4448
rammed	-11.4451
▁slum	-11.4459
Star	-11.4465
▁Edward	-11.4476
▁Ahmad	-11.4489
▁presid	-11.449
▁petrol	-11.4524
▁differ	-11.4529
▁Statistic	-11.4533
Zawahiri	-11.4533
ransparency	-11.4533
▁Atlantis	-11.4533
▁Citigroup	-11.4533
▁Connecticut	-11.4533
▁Dakota	-11.4533
▁DiCaprio	-11.4533
▁Enclose	-11.4533
▁Grammy	-11.4533
▁Heathrow	-11.4533
▁ISLAMABAD	-11.4533
▁Swedish	-11.4533
▁artillery	-11.4533
▁companion	-11.4533
▁dinosaur	-11.4533
▁dismantling	-11.4533
▁enthusiasm	-11.4533
▁envelope	-11.4533
▁frightened	-11.4533
▁gambling	-11.4533
▁graphic	-11.4533
▁impressive	-11.4533
▁junior	-11.4533
▁psychology	-11.4533
▁smuggling	-11.4533
▁spectacular	-11.4533
▁substitute	-11.4533
▁unacceptable	-11.4533
▁valuable	-11.4533
▁veterinar	-11.4533
▁volatile	-11.4533
▁Beatles	-11.4533
▁Burmese	-11.4533
▁skull	-11.4533
▁throat	-11.4533
▁NBA	-11.4533
▁Kyung	-11.4533
▁ivory	-11.4533
▁amazing	-11.4533
▁animated	-11.4533
▁truly	-11.4533
▁Next	-11.4533
▁Death	-11.4533
▁cream	-11.4534
▁modest	-11.4534
▁kidney	-11.4534
▁elite	-11.4534
▁textbook	-11.4534
▁meteor	-11.4534
▁Capt	-11.4535
▁drift	-11.4535
▁rattled	-11.4535
▁willingness	-11.4536
▁foolish	-11.4536
▁soared	-11.4538
▁random	-11.4538
AND	-11.4538
▁shade	-11.4539
▁shy	-11.4541
▁donations	-11.4542
▁tract	-11.4577
1-1	-11.4588
▁Abd	-11.459
▁characteriz	-11.4592
propell	-11.4609
▁adj	-11.4612
▁disabl	-11.4614
employed	-11.4688
creat	-11.4702
Islam	-11.471
million	-11.471
specially	-11.4721
▁disappear	-11.4731
digit	-11.4752
▁retire	-11.4769
accessible	-11.48
▁pois	-11.4809
▁cult	-11.481
▁paralyz	-11.4811
▁harvest	-11.4811
▁Conservative	-11.4811
▁Cristian	-11.4811
▁Fossett	-11.4811
▁Grenada	-11.4811
▁Lincoln	-11.4811
▁Maradona	-11.4811
▁Margaret	-11.4811
▁Norwegian	-11.4811
▁Osaka	-11.4811
▁Taipei	-11.4811
▁Thompson	-11.4811
▁applause	-11.4811
▁asteroid	-11.4811
▁celebrating	-11.4811
▁ceremonies	-11.4811
▁challenging	-11.4811
▁confusion	-11.4811
▁conglomerate	-11.4811
▁crocodile	-11.4811
▁dolphin	-11.4811
▁epidemic	-11.4811
▁eruption	-11.4811
▁genocide	-11.4811
▁phenomenon	-11.4811
▁scramble	-11.4811
▁strategist	-11.4811
▁subprime	-11.4811
▁suppress	-11.4811
▁1949	-11.4811
▁assurance	-11.4811
▁epicenter	-11.4811
▁stunning	-11.4811
▁Bridge	-11.4811
▁Kaesong	-11.4811
▁description	-11.4811
▁ransom	-11.4811
▁2011	-11.4811
▁prevail	-11.4811
▁throne	-11.4811
▁Cultur	-11.4811
▁revenge	-11.4811
▁Iceland	-11.4811
▁orphan	-11.4811
▁Mosque	-11.4811
▁IBM	-11.4811
▁gender	-11.4811
▁spoil	-11.4811
▁ultra	-11.4811
▁financing	-11.4812
▁Henley	-11.4812
▁Geological	-11.4813
▁Brand	-11.4813
▁dense	-11.4821
Frost	-11.4826
opyright	-11.4886
▁refus	-11.4915
Smith	-11.4996
connect	-11.4997
course	-11.4997
New	-11.4999
▁insurgent	-11.5053
ennifer	-11.5097
necessarily	-11.5097
satisfactory	-11.5097
▁Greenpeace	-11.5097
▁Jacques	-11.5097
▁Minnesota	-11.5097
▁Oxford	-11.5097
▁Prevention	-11.5097
▁determination	-11.5097
▁generous	-11.5097
▁imminent	-11.5097
▁outskirts	-11.5097
▁refrain	-11.5097
▁sculpt	-11.5097
▁steadily	-11.5097
▁survival	-11.5097
▁victories	-11.5097
▁Diyala	-11.5097
▁prescription	-11.5097
▁Nawaz	-11.5097
▁Operation	-11.5097
▁consumed	-11.5097
▁shelves	-11.5097
▁slush	-11.5097
▁Standard	-11.5097
▁Support	-11.5097
▁Bruni	-11.5097
▁Bolton	-11.5097
▁Briton	-11.5097
▁compass	-11.5097
▁pistol	-11.5097
▁Holland	-11.5097
▁streak	-11.5097
▁foster	-11.5097
▁invention	-11.5097
▁protein	-11.5097
▁oath	-11.5097
▁dissolv	-11.5097
▁notorious	-11.5097
▁swear	-11.5097
▁justify	-11.5097
▁Could	-11.5097
▁tragic	-11.5097
▁extent	-11.5097
▁railroad	-11.5097
▁ferry	-11.5097
▁Electric	-11.5097
▁Field	-11.5097
▁toddler	-11.5098
▁Julie	-11.5101
balanc	-11.5108
olonel	-11.5122
▁tolerate	-11.5192
food	-11.529
slav	-11.5337
▁refuge	-11.5357
▁Michel	-11.5384
▁archaeologi	-11.5385
kilometer	-11.5388
▁Child	-11.539
▁plummet	-11.5391
▁Murphy	-11.5391
▁compell	-11.5391
▁neglect	-11.5391
▁Istanbul	-11.5391
▁Johndroe	-11.5391
▁LPGA	-11.5391
▁Shinawatra	-11.5391
▁TOKYO	-11.5391
▁acquaint	-11.5391
▁acquitted	-11.5391
▁batteries	-11.5391
▁certificate	-11.5391
▁collision	-11.5391
▁declining	-11.5391
▁hormone	-11.5391
▁incursion	-11.5391
▁luggage	-11.5391
▁marathon	-11.5391
▁mathematic	-11.5391
▁monument	-11.5391
▁recognition	-11.5391
▁whisper	-11.5391
▁Crocker	-11.5391
▁Russell	-11.5391
▁Sevilla	-11.5391
▁eBay	-11.5391
▁stunned	-11.5391
▁Denmark	-11.5391
▁Bruce	-11.5391
▁Policy	-11.5391
▁legacy	-11.5391
▁portrait	-11.5391
▁properties	-11.5391
▁conspir	-11.5391
▁battered	-11.5391
▁ninth	-11.5391
▁Guild	-11.5391
▁hamper	-11.5391
▁Estonia	-11.5391
▁dentist	-11.5391
▁racing	-11.5391
▁provoke	-11.5391
▁captors	-11.5391
▁cousin	-11.5391
▁merger	-11.5391
▁AIG	-11.5391
▁beloved	-11.5392
▁Matsu	-11.5392
▁transmission	-11.5392
▁Cannes	-11.5392
▁chess	-11.5393
▁comic	-11.5393
▁hurl	-11.5393
▁Smok	-11.5395
▁critic	-11.5587
degree	-11.5592
producing	-11.5593
dollar	-11.5593
school	-11.5594
▁unveil	-11.5616
virtually	-11.5671
▁relocat	-11.5685
isease	-11.5692
▁Construction	-11.5694
▁FTSE	-11.5694
▁Fernando	-11.5694
▁Gonzalez	-11.5694
▁Industry	-11.5694
▁Jamaica	-11.5694
▁Polaroid	-11.5694
▁Protection	-11.5694
▁ammunition	-11.5694
▁autopsy	-11.5694
▁candidacy	-11.5694
▁competitor	-11.5694
▁influential	-11.5694
▁jacket	-11.5694
▁perception	-11.5694
▁relevant	-11.5694
▁reluctant	-11.5694
▁scenario	-11.5694
▁sequence	-11.5694
▁thieves	-11.5694
▁website	-11.5694
catastroph	-11.5694
▁Belgian	-11.5694
▁Phillies	-11.5694
▁contrary	-11.5694
▁cricket	-11.5694
▁sibling	-11.5694
▁trousers	-11.5694
▁Montana	-11.5694
▁fishermen	-11.5694
▁premium	-11.5694
▁considerably	-11.5694
Horta	-11.5694
▁enroll	-11.5694
▁inquiries	-11.5694
▁conceal	-11.5694
▁bruis	-11.5694
▁depriv	-11.5694
▁inventor	-11.5694
▁Armstrong	-11.5694
▁shoppers	-11.5694
▁distract	-11.5695
circuit	-11.5695
▁CAN	-11.5696
▁Perino	-11.5696
yacht	-11.5696
▁Oliv	-11.5703
▁Hyun	-11.5722
bbie	-11.5724
▁insect	-11.5732
ography	-11.5822
official	-11.5906
Jones	-11.5906
▁corn	-11.5962
▁ultimate	-11.5982
▁colleague	-11.599
Unfortunately	-11.6006
▁9/11	-11.6006
▁Betancourt	-11.6006
▁Bloomberg	-11.6006
▁Chaudhry	-11.6006
▁Convention	-11.6006
▁Falluja	-11.6006
▁Galaxy	-11.6006
▁Investment	-11.6006
▁Jankovic	-11.6006
▁Mediterranean	-11.6006
▁Mogadishu	-11.6006
▁Pavarotti	-11.6006
▁Pichushkin	-11.6006
▁administrator	-11.6006
▁aggravate	-11.6006
▁anonymous	-11.6006
▁astronomers	-11.6006
▁diagnosed	-11.6006
▁glimpse	-11.6006
▁guitar	-11.6006
▁innocence	-11.6006
▁lieutenant	-11.6006
▁optimism	-11.6006
▁restructuring	-11.6006
▁transparent	-11.6006
▁Computer	-11.6006
▁enthusiast	-11.6006
▁Future	-11.6006
▁scattered	-11.6006
IRO	-11.6006
▁Fashion	-11.6006
▁gossip	-11.6006
▁keynote	-11.6006
▁1981	-11.6006
▁Keith	-11.6006
▁overlook	-11.6006
▁crater	-11.6007
▁donkey	-11.6007
▁lottery	-11.6007
▁disguis	-11.6007
▁physics	-11.6007
reconcil	-11.6007
▁decree	-11.6007
▁Jiang	-11.6007
▁rubber	-11.6007
▁Pusan	-11.6007
Charts	-11.6007
▁bulk	-11.6007
▁underscor	-11.6007
▁reign	-11.6008
▁securities	-11.6008
hairwoman	-11.6008
▁advers	-11.6008
▁uprising	-11.6008
honour	-11.601
etroleum	-11.6017
▁foe	-11.6017
Natal	-11.6024
▁Mitt	-11.6066
▁prim	-11.621
appropriate	-11.6228
screen	-11.6228
think	-11.6232
▁deploy	-11.6246
waiting	-11.6289
▁physi	-11.6328
▁Lennon	-11.6329
▁horror	-11.6329
▁municipal	-11.6329
ontemporary	-11.6329
▁Endeavour	-11.6329
▁Jiabao	-11.6329
▁McCartney	-11.6329
▁Passenger	-11.6329
▁Rawalpindi	-11.6329
▁Twelve	-11.6329
▁Ukrainian	-11.6329
▁condolences	-11.6329
▁devastated	-11.6329
▁disgrace	-11.6329
▁excavat	-11.6329
▁gadget	-11.6329
▁legislators	-11.6329
▁nightclub	-11.6329
▁romance	-11.6329
▁tremendous	-11.6329
▁twelve	-11.6329
▁Thirty	-11.6329
▁Toronto	-11.6329
▁congratulations	-11.6329
▁shaking	-11.6329
▁bundle	-11.6329
▁Ankara	-11.6329
▁Hawass	-11.6329
▁Network	-11.6329
▁saddened	-11.6329
▁peasant	-11.6329
▁Nelson	-11.6329
ruff	-11.6329
▁sorrow	-11.6329
▁medics	-11.6329
▁sauce	-11.6329
▁disarm	-11.633
▁Bosnia	-11.633
▁Something	-11.633
ING	-11.633
▁Word	-11.633
▁Bryan	-11.6332
Tayyi	-11.6333
▁normaliz	-11.6334
▁horn	-11.6334
quality	-11.6439
▁oppos	-11.6441
▁stumbl	-11.6479
▁acknowledg	-11.6483
bridge	-11.6562
From	-11.6562
would	-11.6562
morning	-11.6562
having	-11.6564
broke	-11.6564
attled	-11.6574
write	-11.6594
jected	-11.6614
▁evolution	-11.663
▁maneuver	-11.6662
Fahrenheit	-11.6662
▁Bennett	-11.6662
▁Clooney	-11.6662
▁Douglas	-11.6662
▁Eagle	-11.6662
▁Gibbons	-11.6662
▁Glasgow	-11.6662
▁Irbil	-11.6662
▁Muqtada	-11.6662
▁Okinawa	-11.6662
▁Residents	-11.6662
▁Students	-11.6662
▁UNICEF	-11.6662
▁assassinated	-11.6662
▁awkward	-11.6662
▁blockbuster	-11.6662
▁clutch	-11.6662
▁decisive	-11.6662
▁facilitat	-11.6662
▁imagination	-11.6662
▁ingredient	-11.6662
▁intensified	-11.6662
▁nutrition	-11.6662
▁propaganda	-11.6662
▁replied	-11.6662
▁significance	-11.6662
▁sleeve	-11.6662
▁undecided	-11.6662
▁Abraham	-11.6662
▁Globo	-11.6662
▁Lopez	-11.6662
▁Mercedes	-11.6662
▁Stewart	-11.6662
▁gloom	-11.6662
▁mechanism	-11.6662
▁tattoo	-11.6662
▁Superior	-11.6662
▁Zhang	-11.6662
▁clause	-11.6662
▁farewell	-11.6662
▁mixture	-11.6662
▁operative	-11.6662
▁stupid	-11.6662
▁Coalition	-11.6662
▁dignity	-11.6662
▁snatch	-11.6662
▁Kwang	-11.6662
▁Viacom	-11.6662
▁curious	-11.6662
▁precise	-11.6662
oriented	-11.6662
▁Rogge	-11.6662
▁Sierra	-11.6662
▁chanted	-11.6662
▁fiction	-11.6663
▁layoffs	-11.6663
▁implant	-11.6663
▁History	-11.6663
▁7-5	-11.6663
▁intrude	-11.6663
▁quell	-11.6663
▁awake	-11.6663
▁slim	-11.6663
▁minus	-11.6663
▁notify	-11.6663
▁array	-11.6664
▁bubbl	-11.6664
▁Talk	-11.6664
▁erect	-11.6666
▁convene	-11.6684
▁upgrade	-11.6711
▁opera	-11.6729
▁deliberat	-11.6765
wheel	-11.6906
Good	-11.6906
speaking	-11.6906
from	-11.6907
▁suff	-11.6922
▁execute	-11.697
▁plunge	-11.697
▁guilt	-11.6984
▁Social	-11.6996
yphoon	-11.7004
▁kidnap	-11.7005
▁Britney	-11.7007
▁Holocaust	-11.7007
▁Karbala	-11.7007
▁Kurdistan	-11.7007
▁Saakashvili	-11.7007
▁Thanksgiving	-11.7007
▁autumn	-11.7007
▁basketball	-11.7007
▁captivity	-11.7007
▁catalogue	-11.7007
▁collided	-11.7007
▁default	-11.7007
▁despair	-11.7007
▁fossil	-11.7007
▁genuine	-11.7007
▁homosexual	-11.7007
▁horizon	-11.7007
▁illustrat	-11.7007
▁imprisonment	-11.7007
▁intelligent	-11.7007
▁intensive	-11.7007
▁leather	-11.7007
▁motivated	-11.7007
▁psychologist	-11.7007
▁purported	-11.7007
▁radiation	-11.7007
▁resemble	-11.7007
▁satisfaction	-11.7007
▁tomatoes	-11.7007
▁transcript	-11.7007
▁unpleasant	-11.7007
▁Croatia	-11.7007
▁Details	-11.7007
▁Orlando	-11.7007
▁Solomon	-11.7007
▁Yousuf	-11.7007
▁comparison	-11.7007
▁discharged	-11.7007
augural	-11.7007
▁Samarra	-11.7007
▁Shipman	-11.7007
▁fifty	-11.7007
▁inflict	-11.7007
▁translation	-11.7007
▁Further	-11.7007
▁Harrison	-11.7007
▁harass	-11.7007
▁worship	-11.7007
▁Arthur	-11.7007
▁contingent	-11.7007
▁spokesperson	-11.7007
▁reckless	-11.7007
▁Perhaps	-11.7007
▁utility	-11.7007
▁obey	-11.7007
▁vocal	-11.7007
▁Honda	-11.7007
▁Manila	-11.7007
▁Hassan	-11.7007
▁historian	-11.7007
▁GPS	-11.7007
▁mercy	-11.7007
▁Cairo	-11.7007
▁crystal	-11.7007
▁IMF	-11.7007
▁waving	-11.7007
▁crumbl	-11.7008
▁heaven	-11.7008
Fuji	-11.7009
elief	-11.7031
ervic	-11.7057
▁Rahm	-11.7062
▁choos	-11.7151
1/2	-11.7172
▁extract	-11.7206
comfort	-11.7263
Please	-11.7264
great	-11.7265
financ	-11.7273
▁sympath	-11.7341
▁prosecut	-11.7347
▁telecom	-11.7364
▁Correspondent	-11.7364
▁Gusmao	-11.7364
▁McDonald	-11.7364
▁Nebraska	-11.7364
▁System	-11.7364
▁Waziristan	-11.7364
▁albatross	-11.7364
▁authentic	-11.7364
▁brigade	-11.7364
▁consortium	-11.7364
▁diminish	-11.7364
▁homicide	-11.7364
▁imprisoned	-11.7364
▁incredible	-11.7364
▁indictment	-11.7364
▁peacekeepers	-11.7364
▁piracy	-11.7364
▁potatoes	-11.7364
▁psychological	-11.7364
▁reaffirm	-11.7364
▁rhythm	-11.7364
▁seizure	-11.7364
▁slept	-11.7364
▁supplement	-11.7364
▁vacuum	-11.7364
▁voyage	-11.7364
▁whistle	-11.7364
▁Baquba	-11.7364
▁Conservation	-11.7364
▁efficiency	-11.7364
▁embezzlement	-11.7364
▁inspiration	-11.7364
▁mysterious	-11.7364
▁segment	-11.7364
▁siege	-11.7364
▁smiling	-11.7364
▁laureate	-11.7364
▁pluck	-11.7364
▁MDC	-11.7364
▁essay	-11.7364
▁Arnold	-11.7364
▁Silva	-11.7364
▁thwart	-11.7364
▁spiral	-11.7364
▁foment	-11.7365
▁medium	-11.7365
▁depressed	-11.7365
▁7-6	-11.7365
▁cultivat	-11.7365
▁migrat	-11.7365
▁trash	-11.7365
▁indulg	-11.7365
Phillips	-11.7365
▁ascend	-11.7367
▁polite	-11.7369
▁renounc	-11.7374
▁gaze	-11.7421
Israel	-11.7634
▁skipp	-11.7729
etween	-11.7731
▁embezzl	-11.7735
▁Arkansas	-11.7735
▁Brussels	-11.7735
▁ElBaradei	-11.7735
▁Enterprise	-11.7735
▁Fernandez	-11.7735
▁Fitzgerald	-11.7735
▁Fujimori	-11.7735
▁Guatemala	-11.7735
▁Interfax	-11.7735
▁KCNA	-11.7735
▁Kazakhstan	-11.7735
▁Kerviel	-11.7735
▁Melbourne	-11.7735
▁Midwest	-11.7735
▁Talabani	-11.7735
▁applaud	-11.7735
▁categories	-11.7735
▁crawl	-11.7735
▁fantastic	-11.7735
▁iPod	-11.7735
▁nephew	-11.7735
▁spectators	-11.7735
▁staunch	-11.7735
▁supplied	-11.7735
▁surviving	-11.7735
▁undisclosed	-11.7735
▁Spitzer	-11.7735
▁broadband	-11.7735
▁fascinat	-11.7735
▁franchise	-11.7735
▁mastermind	-11.7735
▁Gerrard	-11.7735
▁premises	-11.7735
ravaged	-11.7735
▁Libby	-11.7735
▁baggage	-11.7735
▁1983	-11.7735
▁Janeiro	-11.7735
▁impressed	-11.7735
▁Fifty	-11.7735
studded	-11.7735
▁Petersburg	-11.7735
▁sprang	-11.7735
▁Ashley	-11.7735
▁exploitation	-11.7735
▁UFO	-11.7735
▁verification	-11.7735
▁sniff	-11.7735
▁wrist	-11.7735
▁saga	-11.7735
▁embark	-11.7735
▁digging	-11.7735
▁domain	-11.7735
▁distort	-11.7736
▁Glor	-11.7737
▁huddl	-11.7739
Bobby	-11.7751
▁survivor	-11.778
complete	-11.8018
Chinese	-11.8019
▁engag	-11.8019
Bush	-11.8019
craft	-11.802
first	-11.8021
▁inspire	-11.8082
▁absolute	-11.8095
▁caucus	-11.8108
▁Previous	-11.8119
lecommunications	-11.8119
▁Anthony	-11.8119
▁Arafat	-11.8119
▁Building	-11.8119
▁Campaign	-11.8119
▁Diamond	-11.8119
▁Economist	-11.8119
▁Geithner	-11.8119
▁Ghraib	-11.8119
▁Organizers	-11.8119
▁Starbucks	-11.8119
▁Stearns	-11.8119
▁Vershbow	-11.8119
▁abnormal	-11.8119
▁absorb	-11.8119
▁acquisition	-11.8119
▁appetite	-11.8119
▁calculation	-11.8119
▁consignment	-11.8119
▁contaminated	-11.8119
▁elbow	-11.8119
▁evaluation	-11.8119
▁frustration	-11.8119
▁iTunes	-11.8119
▁immense	-11.8119
▁inconvenience	-11.8119
▁irregularities	-11.8119
▁kangaroo	-11.8119
▁negligence	-11.8119
▁paparazzi	-11.8119
▁parallel	-11.8119
▁patriot	-11.8119
▁scrutiny	-11.8119
▁skyscraper	-11.8119
▁sluggish	-11.8119
▁solving	-11.8119
▁Emanuel	-11.8119
▁Kuznetsov	-11.8119
▁Terror	-11.8119
▁Through	-11.8119
▁cancellation	-11.8119
▁gloves	-11.8119
▁peanut	-11.8119
▁pricing	-11.8119
▁reassure	-11.8119
▁robust	-11.8119
▁1978	-11.8119
▁1984	-11.8119
▁Newcastle	-11.8119
▁USFK	-11.8119
▁angrily	-11.8119
▁annoyed	-11.8119
▁literally	-11.8119
▁1964	-11.8119
▁Avenue	-11.8119
▁BMW	-11.8119
▁Cardinal	-11.8119
▁mummy	-11.8119
▁workforce	-11.8119
▁retiring	-11.8119
▁whirl	-11.8119
▁Rouge	-11.8119
▁KAB	-11.8119
▁Aziz	-11.8119
▁Deutsch	-11.8119
▁Incheon	-11.8119
▁overthrow	-11.8119
▁miserable	-11.8119
▁Multi	-11.8119
Secret	-11.8119
▁Harvey	-11.8119
▁chunk	-11.8119
▁AFP	-11.8119
▁rugged	-11.8119
▁Owen	-11.812
▁repay	-11.812
Zulu	-11.812
▁silk	-11.812
makeshift	-11.812
▁fiber	-11.812
▁scorch	-11.812
▁Mikh	-11.812
▁polish	-11.8121
▁spann	-11.8123
BMI	-11.8133
▁Electora	-11.8164
▁Devi	-11.8196
spoken	-11.8418
historic	-11.8418
written	-11.8419
billion	-11.8419
control	-11.8419
pplies	-11.8519
▁Nintendo	-11.8519
▁evident	-11.8519
naissance	-11.8519
telegraph	-11.8519
uperintendent	-11.8519
▁Birmingham	-11.8519
▁CITY	-11.8519
▁Nairobi	-11.8519
▁SARS	-11.8519
▁academy	-11.8519
▁adjourned	-11.8519
▁artifacts	-11.8519
▁automotive	-11.8519
▁brothels	-11.8519
▁commodity	-11.8519
▁corridor	-11.8519
▁fatigue	-11.8519
▁flexible	-11.8519
▁grandchildren	-11.8519
▁innovation	-11.8519
▁irresponsible	-11.8519
▁kimchi	-11.8519
▁liberty	-11.8519
▁misdemeanor	-11.8519
▁privilege	-11.8519
▁reconsider	-11.8519
▁sentencing	-11.8519
▁subscribe	-11.8519
▁subsidiary	-11.8519
SBURG	-11.8519
▁Caracas	-11.8519
▁compris	-11.8519
▁ethics	-11.8519
▁gamble	-11.8519
▁grammar	-11.8519
▁helmet	-11.8519
▁premature	-11.8519
▁simulat	-11.8519
▁Prophet	-11.8519
▁Rhode	-11.8519
▁cluster	-11.8519
▁reminisc	-11.8519
▁sneak	-11.8519
▁Madison	-11.8519
▁extradition	-11.8519
▁lavish	-11.8519
▁trauma	-11.8519
▁Evans	-11.8519
▁torrent	-11.8519
▁trunk	-11.8519
▁Greenspan	-11.8519
▁cigar	-11.8519
▁glory	-11.8519
▁consciousness	-11.8519
▁escalate	-11.8519
▁Jeffrey	-11.8519
▁Movie	-11.8519
▁Monica	-11.8519
▁martyr	-11.8519
▁unaware	-11.8519
▁Alfred	-11.8519
▁ladder	-11.8519
▁scope	-11.8519
▁Teacher	-11.8519
▁Hariri	-11.8519
lamour	-11.8519
▁Brewer	-11.8519
▁enlarg	-11.852
▁Trust	-11.852
▁whipp	-11.852
▁Knut	-11.852
Qassam	-11.852
Mobile	-11.8521
▁minimiz	-11.8522
▁Tropica	-11.8523
Psych	-11.853
▁costume	-11.8536
althcare	-11.8552
▁sanction	-11.8598
▁solicit	-11.8666
▁manag	-11.8753
Jimmy	-11.8769
Tibet	-11.8835
affected	-11.8835
Obama	-11.8835
▁froze	-11.8917
▁Francis	-11.8934
ridiculous	-11.8936
spectacle	-11.8936
▁Apollo	-11.8936
▁Cameroon	-11.8936
▁Frankfurt	-11.8936
▁Orchestra	-11.8936
▁Orthodox	-11.8936
▁Rattray	-11.8936
▁Schneider	-11.8936
▁Shakespeare	-11.8936
▁Spratt	-11.8936
▁Woolmer	-11.8936
▁accelerate	-11.8936
▁altogether	-11.8936
▁apologies	-11.8936
▁atrocities	-11.8936
▁blossom	-11.8936
▁bonuses	-11.8936
▁burglary	-11.8936
▁espionage	-11.8936
▁external	-11.8936
▁fertility	-11.8936
▁immune	-11.8936
▁influenza	-11.8936
▁intellectual	-11.8936
▁leniency	-11.8936
▁mortal	-11.8936
▁perspective	-11.8936
▁prototype	-11.8936
́	-13.035
