<s>	0
</s>	0
<unk>	0
<pad>	0
.	-3.17016
▁	-3.31995
을	-3.83776
의	-3.91691
를	-4.25697
에	-4.25966
이	-4.31881
는	-4.33799
가	-4.38422
은	-4.57416
,	-4.68212
고	-4.78195
에서	-5.07505
한	-5.11238
로	-5.12828
▁이	-5.27898
▁그	-5.30815
인	-5.46328
▁그는	-5.49803
”	-5.52109
▁“	-5.53488
일	-5.53766
▁수	-5.54903
▁있다	-5.55562
지	-5.56467
과	-5.57625
으로	-5.57782
(	-5.63603
)	-5.66656
했다	-5.67022
와	-5.69181
할	-5.7318
도	-5.73728
다	-5.77681
하고	-6.01066
하는	-6.05376
▁밝혔다	-6.07643
기	-6.1064
▁말했다	-6.15151
년	-6.15804
리	-6.17011
▁나는	-6.19005
▁있는	-6.20055
해	-6.22142
▁전	-6.27251
자	-6.28976
스	-6.36678
▁한	-6.37244
며	-6.40631
어	-6.42509
만	-6.43899
라	-6.4472
▁1	-6.45559
게	-6.47745
▁2	-6.48839
된	-6.5107
월	-6.54606
▁것을	-6.55775
시	-6.5832
서	-6.58735
▁대한	-6.59537
▁위해	-6.60699
▁것이다	-6.62298
▁나	-6.62958
히	-6.64025
나	-6.66807
▁미	-6.68875
▁미국	-6.69064
사	-6.69711
▁중	-6.70643
에게	-6.71274
하게	-6.71916
▁3	-6.72193
대	-6.72845
▁이번	-6.73509
하지	-6.73894
이다	-6.75414
▁전했다	-6.80234
▁대해	-6.8028
?	-6.80823
▁지난	-6.81834
아	-6.82031
주	-6.85433
▁그녀는	-6.86657
▁것	-6.86695
"	-6.87116
▁주	-6.87178
들이	-6.87437
▁한다	-6.87916
현지시간	-6.8834
드	-6.89608
하기	-6.90751
▁우리는	-6.91119
트	-6.92332
르	-6.92935
▁더	-6.93114
s	-6.93866
▁‘	-6.94693
들은	-6.95248
▁것이라고	-6.95996
한다	-6.98655
수	-7.00041
▁"	-7.00765
▁4	-7.01174
이라고	-7.01881
▁것으로	-7.0193
면	-7.02308
▁다른	-7.02928
운	-7.04027
▁5	-7.04732
▁때	-7.06466
치	-7.07865
적인	-7.07895
었다	-7.07975
▁없다	-7.08195
부	-7.08977
▁6	-7.09708
▁있다고	-7.09912
명이	-7.11176
라고	-7.11612
하다	-7.11872
세	-7.12013
니	-7.13232
▁내	-7.1332
▁두	-7.14007
진	-7.1496
▁많은	-7.1624
비	-7.16344
정	-7.1654
상	-7.16715
적	-7.19277
소	-7.19988
명	-7.20334
전	-7.20497
▁이라크	-7.2066
성	-7.20906
보	-7.21529
▁우리	-7.21559
e	-7.21942
’	-7.22263
▁지	-7.23146
야	-7.23575
프	-7.23945
▁그러나	-7.24199
▁비	-7.25038
▁부	-7.25494
장	-7.25854
▁했다	-7.2599
▁대통령	-7.26098
▁10	-7.2618
▁그녀	-7.262
▁것은	-7.26282
▁후	-7.26409
▁바	-7.26861
▁이미	-7.27905
선	-7.2808
▁아	-7.29443
▁중국	-7.29539
▁일	-7.29824
▁다	-7.30075
▁그들은	-7.30134
▁제	-7.30323
미	-7.31215
▁너	-7.32041
▁것이	-7.32459
▁할	-7.32465
▁대	-7.34157
원	-7.3427
▁사	-7.34974
하	-7.35269
화	-7.35405
던	-7.35738
▁가장	-7.36766
마	-7.37202
크	-7.37777
-	-7.38412
됐다	-7.39009
까지	-7.39878
▁정	-7.42041
들을	-7.42091
▁유	-7.4315
▁모든	-7.43521
될	-7.43852
▁7	-7.44144
▁동안	-7.44678
▁않았다	-7.44708
▁기	-7.4487
▁영국	-7.45017
했다고	-7.4534
▁알	-7.46135
▁문제	-7.47085
▁모두	-7.47334
위	-7.47611
▁북한	-7.4767
오	-7.47704
분	-7.47758
▁한편	-7.485
▁말	-7.49012
조	-7.49046
▁또	-7.49509
▁오	-7.49687
당	-7.49982
▁정부	-7.50357
구	-7.50394
개	-7.50603
▁안	-7.50674
러	-7.50757
명의	-7.50819
적으로	-7.51312
▁위한	-7.52108
▁한국	-7.52514
▁8	-7.52563
해야	-7.52611
▁같은	-7.5326
제	-7.53726
▁등	-7.54626
▁영화	-7.5561
에는	-7.55895
파	-7.56422
▁이후	-7.56549
▁통해	-7.56958
▁마	-7.57029
여	-7.57275
▁시	-7.5738
디	-7.58055
▁매우	-7.58067
하며	-7.58085
국	-7.58467
▁세계	-7.58652
▁해	-7.58658
내	-7.5889
▁될	-7.59511
▁거	-7.60273
바	-7.60545
▁몇	-7.60784
▁있었다	-7.60816
▁자신의	-7.61006
차	-7.61168
▁자	-7.61393
▁대통령은	-7.61498
려	-7.6162
▁약	-7.61737
계	-7.63051
▁때문에	-7.64039
들	-7.64323
▁부시	-7.64521
타	-7.64701
하여	-7.65284
▁공	-7.65729
신	-7.65745
▁보	-7.66009
질	-7.67689
▁차	-7.6811
▁아주	-7.685
▁줄	-7.68706
▁오바마	-7.68758
▁하	-7.68983
우	-7.69084
호	-7.69368
▁무	-7.69387
▁계속	-7.69862
용	-7.70051
▁대변인은	-7.70156
▁반	-7.70237
▁구	-7.70424
▁불	-7.71043
▁조	-7.71282
▁네	-7.71354
▁뒤	-7.7184
▁내가	-7.71991
체	-7.72056
▁현재	-7.72263
A	-7.72277
▁이상	-7.72299
▁신	-7.72316
▁조사	-7.72361
▁경제	-7.72527
모	-7.7268
실	-7.7293
했으며	-7.73358
보다	-7.73528
코	-7.74267
약	-7.74375
레	-7.74427
식	-7.74452
▁함께	-7.74546
'	-7.74558
▁잘	-7.75008
▁배	-7.75141
▁19	-7.75215
▁9	-7.75525
▁최근	-7.75598
▁일을	-7.75755
즈	-7.76316
회	-7.76376
▁세	-7.76609
되었다	-7.76634
▁공격	-7.76753
▁또한	-7.77014
▁하는	-7.77446
▁국가	-7.77793
▁사람	-7.77868
관	-7.77936
▁일본	-7.78169
▁상	-7.78532
유	-7.78692
단	-7.78809
문	-7.7922
▁새	-7.79663
해서	-7.79785
▁12	-7.80167
티	-7.80784
권	-7.81281
▁20	-7.81729
간	-7.81827
그	-7.81856
▁새로	-7.81951
▁않는다	-7.82133
▁재	-7.82454
▁아이	-7.82701
했던	-7.82957
▁큰	-7.83517
▁주장했다	-7.83664
▁관련	-7.83935
▁모	-7.84411
물	-7.84765
방	-7.84842
직	-7.84958
▁'	-7.84974
▁있을	-7.85911
S	-7.87421
▁강	-7.87539
안	-7.8768
산	-7.87785
▁일부	-7.87949
▁발	-7.87962
2	-7.88548
카	-7.88974
▁피	-7.89138
▁다시	-7.8916
▁소	-7.89513
▁보도했다	-7.8973
▁경우	-7.90455
▁개	-7.90756
중	-7.913
▁파	-7.91301
▁된다	-7.91385
▁덧붙였다	-7.91446
브	-7.91468
군	-7.91622
▁성	-7.91783
o	-7.91892
3	-7.92309
▁카	-7.92631
및	-7.92637
▁연구	-7.92979
t	-7.94064
▁11	-7.94268
하였다	-7.94327
린	-7.94364
에서는	-7.94586
감	-7.94649
▁어떤	-7.94724
점	-7.94869
▁않을	-7.95394
았다	-7.95605
1	-7.9564
▁시간	-7.96284
▁도	-7.96859
노	-7.9731
동	-7.97388
a	-7.97718
▁당시	-7.97945
무	-7.98012
y	-7.98117
▁총	-7.98551
력	-7.98589
▁방	-7.98913
m	-7.99087
u	-7.99597
되는	-7.99828
워	-8.00018
▁계획	-8.00046
i	-8.0009
▁결정	-8.00092
▁집	-8.00118
▁시작	-8.00451
▁노	-8.00539
▁있습니다	-8.00625
▁생각	-8.01755
경	-8.02035
억	-8.02035
더	-8.02279
교	-8.02345
▁프랑스	-8.02369
▁양	-8.02812
▁지금	-8.02906
▁달	-8.03353
!	-8.03436
연	-8.03669
▁지원	-8.03852
d	-8.04112
▁타	-8.04324
▁사고	-8.04344
▁산	-8.04979
g	-8.05173
터	-8.05175
▁원	-8.05186
토	-8.053
▁장	-8.05333
법	-8.05367
▁돈	-8.05376
▁연	-8.05446
▁지역	-8.05743
학	-8.05898
루	-8.05915
거	-8.05927
▁수도	-8.0595
▁그리고	-8.06093
▁당신	-8.06263
▁경찰은	-8.06721
▁경찰	-8.06745
들의	-8.07089
▁매	-8.07164
지만	-8.07836
재	-8.07854
금	-8.07893
n	-8.07926
▁후보	-8.0799
되어	-8.08309
▁입	-8.08367
▁테러	-8.08486
▁예정이다	-8.08631
라는	-8.08716
▁존	-8.08993
▁경기	-8.09753
▁있으며	-8.0978
▁하고	-8.09794
▁30	-8.09882
으며	-8.10001
▁데	-8.10106
▁선	-8.10531
▁발표	-8.10674
▁실	-8.10758
l	-8.11092
공	-8.11246
C	-8.11347
▁동	-8.11422
▁S	-8.11664
길	-8.1175
난	-8.11904
였다	-8.12047
살	-8.12092
▁이스라엘	-8.12105
r	-8.12205
▁당	-8.1222
▁적	-8.12225
▁설명했다	-8.12303
▁어	-8.12313
▁외	-8.1236
포	-8.1247
▁결과	-8.12593
발	-8.12882
▁A	-8.12984
피	-8.13214
기를	-8.13229
심	-8.13651
행	-8.13821
p	-8.13832
)’	-8.13952
▁초	-8.14532
▁서	-8.14574
란	-8.1459
데	-8.14978
시간	-8.15067
▁문	-8.15338
▁미군	-8.15573
▁선거	-8.15967
▁러시아	-8.16054
▁채	-8.16384
▁정부는	-8.16398
▁아직	-8.16469
▁방문	-8.16562
▁보고	-8.16733
건	-8.16804
요	-8.16924
병	-8.16945
M	-8.17222
▁하나	-8.17486
▁단	-8.177
▁스	-8.17766
▁파키스탄	-8.17978
▁군	-8.18042
버	-8.18044
▁여	-8.18193
▁사람들이	-8.18541
임	-8.18726
▁달러	-8.18863
▁오늘	-8.18879
부터	-8.18973
▁많	-8.19205
▁좋은	-8.1923
▁핵	-8.19486
▁우	-8.19573
▁여성	-8.19674
작	-8.19779
통	-8.20258
졌다	-8.20562
▁민주당	-8.20659
배	-8.20716
▁자동차	-8.20961
▁올해	-8.21097
▁않은	-8.21339
명을	-8.21419
▁위	-8.21609
▁받았다	-8.21611
형	-8.21846
▁호	-8.21897
했습니다	-8.21933
▁15	-8.22449
▁클린턴	-8.22675
▁간	-8.2268
▁유엔	-8.22976
▁관계	-8.23081
▁포	-8.23246
▁이들	-8.23508
P	-8.23515
▁이야기	-8.23835
석	-8.24057
두	-8.2409
▁저	-8.2435
▁지난해	-8.24425
▁이날	-8.24773
▁못했다	-8.25098
들에게	-8.25122
이나	-8.25126
류	-8.25304
▁리	-8.25332
설	-8.25463
하면서	-8.25832
에따르면	-8.26068
▁(	-8.26165
▁책	-8.26354
▁이란	-8.26376
래	-8.26433
양	-8.26505
되고	-8.26694
D	-8.27277
▁받고	-8.2732
▁좀	-8.27417
면서	-8.27468
▁열린	-8.27494
▁의해	-8.27579
속	-8.27753
c	-8.28255
▁없는	-8.28341
달러	-8.28605
▁물	-8.28992
▁the	-8.29106
에도	-8.29239
▁하지	-8.29498
▁대통령이	-8.29802
▁코	-8.2991
▁발생한	-8.30066
▁승리	-8.30077
저	-8.30131
▁유럽	-8.3016
색	-8.3035
번	-8.30639
▁총리는	-8.30702
▁올	-8.31
▁경	-8.31078
▁않고	-8.31184
▁결	-8.31301
▁회담	-8.31422
▁본	-8.31422
▁기록	-8.31756
▁이런	-8.31801
▁주요	-8.32135
되지	-8.32156
키	-8.32388
반	-8.3244
▁인해	-8.32753
▁살	-8.32759
▁감	-8.33801
함	-8.33996
▁만	-8.34159
▁의사	-8.34185
▁너의	-8.34438
된다	-8.34451
T	-8.34521
▁우리가	-8.34759
입니다	-8.34804
▁너무	-8.34867
▁인도	-8.34908
▁후에	-8.34979
▁첫	-8.35061
▁도시	-8.35077
▁보내	-8.3509
▁주장	-8.3515
▁볼	-8.35231
판	-8.35265
▁뉴욕	-8.35519
렸다	-8.35529
스트	-8.35558
▁가격	-8.35754
▁국제	-8.35822
▁발표했다	-8.3601
▁조치	-8.3604
민	-8.36685
f	-8.36724
▁손	-8.36804
▁대학	-8.3688
7	-8.36996
장은	-8.37035
▁못	-8.37099
▁있다는	-8.37189
▁전쟁	-8.37312
▁사람이	-8.37357
종	-8.3739
▁반대	-8.37421
▁바로	-8.37578
하는데	-8.37631
▁길	-8.37659
▁회사	-8.3802
▁프로그램	-8.38156
▁18	-8.389
▁준비	-8.39035
량	-8.39072
▁나에게	-8.39119
▁열	-8.3919
론	-8.39344
▁정말	-8.39344
▁감독	-8.39652
ed	-8.39656
▁호주	-8.3992
▁가운데	-8.40159
▁없었다	-8.40352
▁분	-8.40355
지는	-8.4049
▁중단	-8.40539
▁전에	-8.40569
▁당신은	-8.40584
▁판매	-8.40631
범	-8.4085
▁of	-8.40949
▁미국의	-8.41085
처럼	-8.41229
▁피해	-8.41344
▁사건	-8.4144
▁16	-8.41518
▁남	-8.41702
an	-8.41754
▁비난	-8.41807
들과	-8.41916
▁않다	-8.42183
▁노력	-8.42506
하도록	-8.42629
▁to	-8.43005
▁사용	-8.43155
▁여러	-8.43205
ing	-8.43239
▁됐다	-8.43615
메	-8.43632
▁포함	-8.43789
▁시위	-8.4402
▁아프간	-8.44114
▁다음	-8.44341
는데	-8.44419
I	-8.44477
▁말을	-8.44481
증	-8.44875
▁갈	-8.44878
▁번	-8.45301
5	-8.45356
▁이름	-8.45576
▁총리	-8.45576
투	-8.459
업	-8.4594
▁메	-8.46016
▁예	-8.46336
든	-8.46388
▁활동	-8.46401
▁들어	-8.46613
▁협상	-8.46668
▁차량	-8.47035
▁탈레반	-8.47323
격	-8.47382
▁곧	-8.47534
청	-8.47614
N	-8.47653
▁심	-8.47778
출	-8.47791
▁투표	-8.48201
절	-8.48257
▁것에	-8.48543
er	-8.48547
▁레	-8.4866
▁인	-8.48663
▁발견	-8.48751
▁이용	-8.48878
▁가족	-8.48904
▁C	-8.49028
쳐	-8.49032
네	-8.49033
▁정부가	-8.4905
▁맞	-8.4906
▁속	-8.49193
4	-8.49318
F	-8.4933
품	-8.49333
▁최고	-8.49585
▁어떻게	-8.49593
달	-8.49626
▁명	-8.49693
슨	-8.4973
▁교	-8.4979
▁행동	-8.49895
▁TV	-8.4991
퍼	-8.50002
▁B	-8.50013
▁들	-8.50041
▁편지	-8.50078
합니다	-8.50092
져	-8.50254
생	-8.50256
▁잠	-8.50289
▁버	-8.50302
▁P	-8.50314
b	-8.50458
▁그에게	-8.50929
▁날	-8.51364
▁필요	-8.51432
립	-8.51447
울	-8.51477
▁지지	-8.51553
매	-8.51738
▁독일	-8.51758
▁얼마	-8.51894
▁치	-8.52008
▁상태	-8.52202
▁성공	-8.52207
등	-8.52255
▁시장	-8.52426
있다	-8.52435
▁이러	-8.527
급	-8.52966
▁예정	-8.52992
%	-8.53154
▁혐의로	-8.53179
▁발생	-8.53214
▁명의	-8.53287
▁소리	-8.53389
▁여행	-8.534
각	-8.53434
▁팔	-8.53641
로부터	-8.53751
▁건강	-8.54067
천	-8.5418
강	-8.54192
▁우주	-8.54251
됐다고	-8.54388
▁추가	-8.54556
▁13	-8.54908
▁같다	-8.55112
▁W	-8.55201
▁라	-8.55279
▁벌	-8.55296
▁사이	-8.55497
▁진행	-8.55524
▁사실을	-8.55529
▁정치	-8.55738
▁관리	-8.55967
▁한다고	-8.55976
▁확인	-8.5626
▁연기	-8.564
▁온	-8.56416
날	-8.56446
록	-8.56494
▁합의	-8.56498
▁상원의원	-8.56514
▁혐의	-8.56631
▁일이	-8.56661
년간	-8.5668
측	-8.56838
E	-8.56863
▁14	-8.56912
:	-8.56922
▁생산	-8.56953
/	-8.57171
이며	-8.57249
▁막	-8.57358
▁대부분	-8.57416
▁안전	-8.57422
예	-8.57599
복	-8.57601
▁참가	-8.57652
▁사람들은	-8.5774
▁의회	-8.57762
열	-8.57919
도록	-8.58055
▁내용	-8.58133
▁만약	-8.58149
al	-8.58421
겨	-8.58546
▁베	-8.58586
친	-8.58629
▁통	-8.58648
▁소속	-8.58664
▁방송	-8.58734
▁기술	-8.58764
했고	-8.58872
▁없이	-8.5889
▁자신이	-8.58986
하면	-8.59158
▁우려	-8.59159
▁아니다	-8.59247
km	-8.59255
▁추	-8.59318
돼	-8.59336
▁당신이	-8.59493
결	-8.59609
▁사망	-8.59624
했지만	-8.59629
▁자신	-8.597
in	-8.59749
B	-8.5986
▁비행기	-8.59864
▁시작했다	-8.59873
▁은행	-8.60019
▁대선	-8.60061
개월	-8.60212
▁친구	-8.60239
▁in	-8.60262
표	-8.6038
▁밤	-8.60555
▁받은	-8.60615
▁연방	-8.60791
▁의견	-8.60829
너	-8.6101
ar	-8.61112
▁그것	-8.6132
▁25	-8.61488
▁위치한	-8.61741
역	-8.61814
처	-8.62108
▁부상	-8.6219
▁인터넷	-8.62549
른	-8.62585
▁담	-8.62641
온	-8.62646
▁오후	-8.62768
시켰다	-8.62778
0	-8.62814
▁위협	-8.62876
층	-8.62876
지를	-8.62917
▁김	-8.62934
▁매케인	-8.63524
▁것입니다	-8.63663
▁옷	-8.63783
8	-8.63998
있는	-8.64047
하기로	-8.64382
▁상황	-8.64427
▁증가	-8.64435
6	-8.64712
▁있어	-8.64881
스는	-8.65075
▁되었다	-8.65136
▁이어	-8.65489
▁참	-8.65561
▁난	-8.65651
▁평화	-8.65767
▁전화	-8.65974
습니다	-8.66049
▁조지	-8.66072
편	-8.66073
▁남부	-8.66106
▁군사	-8.662
에따라	-8.66288
h	-8.66483
▁그것은	-8.66586
▁17	-8.66851
▁100	-8.66885
▁M	-8.66947
▁요구	-8.66981
▁팔레스타인	-8.67096
언	-8.67206
▁애	-8.67315
▁있도록	-8.67332
입	-8.67458
▁석방	-8.67503
이라며	-8.67555
▁보도	-8.67583
▁작은	-8.67786
R	-8.67884
▁방법	-8.67992
추	-8.67994
▁G	-8.68073
▁T	-8.68185
▁법	-8.6819
▁처음	-8.68211
박	-8.68227
집	-8.68309
렌	-8.68348
▁앞	-8.68368
▁개발	-8.68457
▁관한	-8.68469
▁아버지	-8.68586
쳤다	-8.68681
료	-8.68742
후	-8.68767
▁어제	-8.68827
▁몸	-8.68944
▁변화	-8.6899
혀	-8.69192
▁돌	-8.6926
대로	-8.69426
테	-8.69458
▁관계자는	-8.69469
▁가지	-8.69519
G	-8.69592
명은	-8.69598
▁페	-8.69913
▁남자	-8.69976
▁50	-8.70121
▁표	-8.70358
▁사람들	-8.70424
▁건물	-8.70522
▁밀	-8.7061
이었다	-8.70617
▁없다고	-8.70675
it	-8.70745
▁폭발	-8.70854
en	-8.70949
▁금융	-8.70952
준	-8.71015
츠	-8.71027
▁친	-8.71087
▁단체	-8.71149
▁눈	-8.71269
했었다	-8.7146
w	-8.71533
자가	-8.71617
▁성명	-8.71705
▁영	-8.71711
▁지구	-8.71961
▁당국	-8.71995
▁점	-8.71996
▁보인다	-8.72003
▁F	-8.72205
▁입장	-8.72441
▁갖고	-8.72528
▁반드시	-8.72528
음	-8.72618
했으나	-8.72652
▁취	-8.72959
L	-8.73182
▁올림픽	-8.73183
▁관	-8.73246
▁생활	-8.73299
자는	-8.73394
▁해결	-8.7358
릴	-8.73605
▁정책	-8.73761
▁하지만	-8.7378
베	-8.73975
▁당국은	-8.74117
▁앞으로	-8.74192
▁살해	-8.74199
▁천	-8.74337
▁폭탄	-8.74341
▁생	-8.74366
re	-8.74375
팀	-8.74382
▁팀	-8.74391
이것은	-8.74806
▁루	-8.75187
▁현	-8.75246
O	-8.75299
합	-8.75327
▁뜻	-8.75328
▁그들의	-8.75411
▁변	-8.755
▁공개	-8.75587
▁사진	-8.75609
▁완전	-8.75632
▁지적했다	-8.75684
▁제공	-8.75715
림	-8.75788
하자	-8.75803
▁진	-8.75825
▁제작	-8.75918
▁인근	-8.75985
외	-8.76131
▁백악관	-8.76148
▁신문	-8.76337
개의	-8.76386
영	-8.76386
▁아침	-8.76581
▁생각한다	-8.76729
장을	-8.76935
으나	-8.76951
▁알고	-8.77024
▁가지고	-8.77076
▁''	-8.77187
▁지도자	-8.77211
▁선수	-8.77283
위원회	-8.77325
거나	-8.77368
▁가진	-8.77391
락	-8.77656
▁토	-8.77657
▁항상	-8.77662
▁영향	-8.77699
or	-8.77735
▁런던	-8.77745
▁유지	-8.77765
령	-8.77768
▁치료	-8.78034
이라는	-8.78449
▁드	-8.78627
▁독	-8.78752
▁2006	-8.78763
정부	-8.78837
▁왔다	-8.78953
▁오전	-8.78979
▁되	-8.78989
▁21	-8.79017
▁마을	-8.79149
K	-8.792
▁보호	-8.79612
▁정보	-8.79625
▁이슬람	-8.79666
리는	-8.79692
▁대표	-8.79706
▁내려	-8.79709
상을	-8.79731
▁요	-8.80051
▁하여금	-8.801
목	-8.80119
▁검사	-8.80156
▁인터뷰에서	-8.80157
▁누	-8.80363
▁범죄	-8.80438
▁있던	-8.8048
독	-8.80558
▁죽	-8.80668
▁언론	-8.80826
망	-8.81079
▁24	-8.81087
▁중요한	-8.8124
▁청	-8.81366
초	-8.81897
▁오는	-8.81986
▁이렇게	-8.82032
▁귀	-8.82092
▁경찰이	-8.82365
▁검찰	-8.82589
▁않는	-8.82724
말	-8.82789
▁컴퓨터	-8.83212
탄	-8.83439
ic	-8.83452
축	-8.83471
갔다	-8.83795
본	-8.8385
▁학교	-8.84234
▁병원	-8.84369
▁종	-8.84377
▁관심	-8.84442
▁따라	-8.84547
le	-8.84784
▁공화당	-8.84814
▁떨어진	-8.85019
으로부터	-8.85105
밀	-8.85171
▁발언	-8.85257
▁공급	-8.85307
▁반군	-8.85327
자들은	-8.85356
위를	-8.8538
▁출신	-8.85447
▁기자	-8.85469
▁아무	-8.85573
▁아시아	-8.85651
백	-8.85764
▁운동	-8.85825
▁27	-8.8586
▁적이	-8.85942
▁금지	-8.85985
승	-8.86206
and	-8.86525
▁지나	-8.8664
▁법원	-8.86697
▁행사	-8.86875
▁통과	-8.86933
▁나라	-8.87036
▁요청	-8.87113
▁결혼	-8.87146
▁상승	-8.87258
▁도로	-8.87306
▁지불	-8.87335
▁자금	-8.87384
▁하루	-8.87564
했	-8.87686
▁왕	-8.87788
▁된	-8.87814
클	-8.87816
▁23	-8.87977
▁공동	-8.87988
▁앞서	-8.8806
▁22	-8.88067
▁시험	-8.88096
침	-8.88101
▁CNN	-8.88304
▁음식	-8.88332
▁회장	-8.8835
▁충돌	-8.88499
▁현지	-8.88499
불	-8.88509
▁타고	-8.8868
▁거래	-8.8892
▁서로	-8.88936
▁최대	-8.88997
▁결국	-8.89035
▁여자	-8.89117
사는	-8.895
▁여전	-8.897
k	-8.89733
받	-8.89758
케	-8.89793
▁전체	-8.89947
▁국민	-8.89974
▁사회	-8.90005
▁늘	-8.90085
▁건	-8.90117
액	-8.90163
▁우승	-8.90206
▁악	-8.90245
▁평	-8.9025
▁사람은	-8.90372
▁더욱	-8.90393
▁병력	-8.90494
▁높은	-8.906
v	-8.90655
▁인쇄	-8.90818
머	-8.90825
▁판결	-8.9083
했을	-8.90865
5%	-8.90929
▁2005	-8.91059
▁도착	-8.91091
▁D	-8.91363
▁논의	-8.91501
▁거리	-8.91638
▁부인	-8.91659
▁마지막	-8.91721
▁조금	-8.91778
시킬	-8.91961
▁투자	-8.91964
▁정상	-8.92237
▁강조했다	-8.92269
▁이에	-8.92344
하려	-8.92366
▁체	-8.92515
▁있지만	-8.92626
▁정도	-8.92672
술	-8.92702
▁골	-8.93001
▁N	-8.93009
▁회의	-8.93096
▁그들이	-8.93133
▁편	-8.93142
▁위해서	-8.93367
▁빨리	-8.93408
▁폴	-8.93494
at	-8.93535
▁환경	-8.93654
다고	-8.9374
▁어머니	-8.93856
▁아들	-8.939
▁북부	-8.93907
커	-8.93969
▁출연	-8.94016
as	-8.94017
,000	-8.94067
~	-8.94067
▁이는	-8.94329
▁음악	-8.94343
▁참여	-8.94358
▁사태	-8.94428
▁키	-8.94491
▁사실	-8.94516
▁인정	-8.94747
▁미국과	-8.94811
기로	-8.94875
▁야	-8.94914
▁위험	-8.94927
▁배우	-8.94957
un	-8.95108
▁헤	-8.95155
▁빌	-8.95339
▁조직	-8.9536
족	-8.95396
▁잡	-8.95422
▁행위	-8.95504
▁받을	-8.95586
▁미얀마	-8.95634
긴	-8.95886
▁맡	-8.95892
차례	-8.95971
▁무기	-8.95998
▁걸	-8.96029
▁가능성	-8.96072
▁박사는	-8.96082
▁투	-8.96118
▁&	-8.96131
▁40	-8.96162
▁복	-8.96208
▁박	-8.9628
▁장관은	-8.96309
▁규모	-8.96407
▁발사	-8.96521
▁미국이	-8.96546
▁면	-8.96743
▁이탈리아	-8.96749
▁비난했다	-8.9676
▁지방	-8.9682
▁납치	-8.96951
▁힐러리	-8.96976
▁패	-8.97028
번째	-8.97064
▁불법	-8.97088
▁되는	-8.97161
▁나무	-8.97178
▁역사	-8.97199
환	-8.97304
갈	-8.97353
▁자유	-8.97386
올	-8.97394
▁병	-8.97438
▁빈	-8.97488
▁끝	-8.9764
▁곳	-8.97677
▁버락	-8.97685
▁부족	-8.97726
회사	-8.9785
습니까	-8.97891
▁처음으로	-8.9794
▁받아	-8.98001
▁a	-8.98069
자인	-8.98071
▁체포	-8.98172
▁언급	-8.98385
▁개인	-8.9858
▁힘	-8.98621
es	-8.98667
냈다	-8.98697
▁H	-8.98758
하던	-8.98775
▁공항	-8.988
▁운영	-8.98813
▁선택	-8.98828
▁터키	-8.99019
씨	-8.99091
▁사업	-8.99208
▁스페인	-8.99344
레이	-8.99403
▁하락	-8.99465
▁북한이	-8.99521
먼	-8.99724
▁각	-9.00014
▁최소	-9.00115
▁게	-9.00145
▁얼굴	-9.00207
▁지역에서	-9.00282
50	-9.00329
골	-9.0037
▁기간	-9.00429
▁지난달	-9.00621
▁참석	-9.00652
▁남성	-9.0085
▁29	-9.00861
▁딸	-9.00878
▁예상	-9.00951
애	-9.01116
▁문제에	-9.01249
동안	-9.01289
됐으며	-9.01369
▁아니라	-9.01375
▁만나	-9.01425
▁우리들	-9.01435
▁26	-9.01527
▁질	-9.01608
▁이전	-9.01644
▁게임	-9.01663
태	-9.01707
▁격	-9.01709
▁직접	-9.01866
▁서비스	-9.0188
한다고	-9.01934
습	-9.01955
▁국	-9.01986
성을	-9.02017
▁비행	-9.02202
포인트	-9.02345
별	-9.02347
H	-9.02391
▁아기	-9.02443
▁별	-9.02512
까	-9.02578
려고	-9.02617
설명	-9.02806
▁처리	-9.02831
▁용의자	-9.02841
▁삼	-9.02877
기가	-9.02882
책	-9.02894
▁탄	-9.03007
▁시도	-9.03148
하려고	-9.03362
사를	-9.03377
on	-9.03448
▁독해	-9.03564
▁원문	-9.03663
랜드	-9.03683
▁뉴스	-9.03706
간의	-9.03763
▁것이라는	-9.03835
▁약간	-9.03895
▁사망했다	-9.03962
▁무엇	-9.03983
▁만에	-9.0403
▁/	-9.04059
렸	-9.04094
나는	-9.04378
염	-9.04421
지역	-9.04464
▁대신	-9.04551
ro	-9.05021
엔	-9.05106
▁공식	-9.05131
ur	-9.05148
하라	-9.05173
▁해야	-9.0523
▁있고	-9.05255
단체	-9.05284
ch	-9.05606
▁학생	-9.0587
▁오래	-9.05877
▁그렇게	-9.05997
▁동물	-9.0603
▁전망	-9.06242
▁말아라	-9.06247
극	-9.0629
율	-9.0639
현	-9.06486
▁호텔	-9.06487
▁2008	-9.06507
▁어느	-9.06522
▁남편	-9.06529
▁야당	-9.0657
▁찾아	-9.0658
▁갑자기	-9.06746
▁있습니까	-9.06746
▁AP	-9.06754
▁감소	-9.0688
▁정치적	-9.0691
▁울	-9.06941
▁회복	-9.07017
마리	-9.07082
▁도움	-9.07156
▁대해서	-9.07251
▁L	-9.07352
▁불구하고	-9.075
런	-9.07511
▁주둔	-9.07546
니다	-9.07631
▁s	-9.07666
▁구조	-9.07766
▁건설	-9.07786
줄	-9.07836
▁있게	-9.08005
▁필요한	-9.08048
▁서울	-9.08179
▁이들은	-9.08276
▁허	-9.08318
ri	-9.08458
▁회	-9.08464
▁발생했다	-9.08517
▁for	-9.08576
▁안에	-9.08708
▁대단	-9.08768
▁역할	-9.08776
돌	-9.08788
▁아마	-9.08973
리아	-9.08993
▁바란다	-9.09025
JO	-9.09041
미국	-9.09106
▁28	-9.09228
▁감사	-9.09278
▁해안	-9.09375
▁교육	-9.09421
남	-9.09509
▁일은	-9.09593
▁관련된	-9.09601
▁뛰어	-9.09601
▁올라	-9.09674
우리는	-9.09759
회의	-9.09771
▁재판	-9.09815
▁소유	-9.09943
튼	-9.10037
▁테	-9.10097
▁가능성이	-9.10187
▁주문	-9.10191
▁성명에서	-9.10203
▁연설	-9.10245
▁여부	-9.10289
▁비용	-9.10417
▁것이며	-9.10452
▁넘	-9.10469
▁미사일	-9.10578
▁근	-9.10616
▁글	-9.10618
▁보였다	-9.10665
W	-9.10681
▁급	-9.10692
▁축구	-9.10698
창	-9.10773
▁맥	-9.10773
▁계약	-9.10872
곳	-9.10878
으	-9.10904
▁약속	-9.10995
▁사망자	-9.11163
악	-9.1134
▁모습을	-9.11375
▁알카에다	-9.11398
자들이	-9.11696
▁그런	-9.11874
INS	-9.11881
_	-9.11885
et	-9.11954
능	-9.11988
▁고위	-9.1201
▁너에게	-9.12115
▁기대	-9.12194
주의	-9.12467
▁사랑	-9.12477
▁동영상	-9.12675
▁책임	-9.12714
▁작품	-9.12742
▁부분	-9.12763
▁대회	-9.12803
▁자리	-9.12911
▁위기	-9.12931
▁아이들	-9.13129
▁제안	-9.13223
하겠다고	-9.13413
▁날씨	-9.13445
▁집에	-9.13802
▁환자	-9.13849
▁의원	-9.1391
글	-9.13913
됐	-9.13965
▁기업	-9.14161
▁K	-9.14179
▁장관	-9.14209
st	-9.14314
▁무슨	-9.14371
▁절	-9.14408
거리	-9.14491
▁사망한	-9.14524
CNN	-9.14526
▁실시	-9.14636
▁자살	-9.14707
▁주의	-9.14709
▁인질	-9.14712
로운	-9.14807
파운드	-9.14831
▁인용	-9.14975
▁들었다	-9.15063
▁증	-9.15073
▁일에	-9.15156
▁출전	-9.15176
랑	-9.15241
▁수상	-9.15242
▁미국은	-9.15259
델	-9.15326
▁번째	-9.15339
▁술	-9.15388
▁처	-9.15391
▁되어	-9.15453
▁측	-9.15459
th	-9.1546
▁의하면	-9.15492
▁누구	-9.15524
어서	-9.15671
▁대통령과	-9.15701
▁이제	-9.15728
▁무샤라프	-9.15847
▁사망했다고	-9.1587
▁석유	-9.15918
만달러	-9.16
▁금	-9.16021
▁c	-9.16109
▁2005.08	-9.16167
▁다리	-9.16208
▁마련	-9.16219
▁강화	-9.16226
블	-9.16231
익	-9.16537
였던	-9.16755
▁알려졌다	-9.16759
▁단지	-9.1681
항	-9.16817
겼다	-9.1689
▁워싱턴	-9.16934
▁독립	-9.17048
▁증거	-9.17085
▁보다	-9.17115
▁암	-9.17362
ra	-9.17463
▁오바마는	-9.17538
▁시간이	-9.17558
▁2004	-9.17594
▁화	-9.17624
▁창	-9.1773
것	-9.17746
맨	-9.17852
▁광	-9.1795
▁반면	-9.17972
만명	-9.18026
름	-9.18271
▁브	-9.18294
리스	-9.18432
▁있어서	-9.18441
▁수입	-9.18505
is	-9.18523
▁아프가니스탄	-9.18586
▁영어	-9.18678
article	-9.18701
▁코리아	-9.18726
▁목표	-9.1876
us	-9.18766
▁철수	-9.18881
▁위에	-9.19014
▁경쟁	-9.19019
채	-9.19041
▁자신들	-9.19068
년에	-9.19074
▁훈련	-9.19262
▁원인	-9.19322
▁바그다드	-9.19453
▁화재	-9.19584
▁갔다	-9.19698
▁보안	-9.1988
억원	-9.19892
▁태	-9.19924
쿠	-9.20004
▁폭	-9.20045
▁주택	-9.20196
▁가치	-9.20227
▁없을	-9.20229
▁벌이	-9.20233
잡	-9.20275
▁크게	-9.20297
▁기억	-9.2033
담	-9.20442
장이	-9.20548
▁좋아	-9.20568
규	-9.20592
▁핵무기	-9.20691
▁선고	-9.20776
▁수사	-9.20834
▁에너지	-9.20853
ion	-9.20869
▁파괴	-9.20989
▁나이	-9.21016
▁변호사	-9.21037
▁제시	-9.21039
누	-9.2105
▁해외	-9.21069
▁보고서	-9.21175
▁현대	-9.21237
▁출발	-9.21299
▁놓	-9.21555
▁빠르	-9.21559
▁귀사	-9.21578
▁임무	-9.21587
▁휴	-9.21731
▁주었다	-9.21748
왔다	-9.21758
▁싶다	-9.21848
▁수준	-9.21912
▁상품	-9.21931
▁희망	-9.21931
▁이동	-9.22044
▁지난주	-9.22164
▁숨	-9.22291
탈	-9.22361
▁폐쇄	-9.22433
▁소식을	-9.22449
▁설명	-9.22453
▁내년	-9.22516
▁머리	-9.22564
▁말했습니다	-9.22589
▁하마스	-9.22727
▁칼	-9.22868
’’	-9.22884
다면	-9.22903
▁이를	-9.22965
▁몰	-9.23077
▁쓰	-9.23122
진다	-9.23153
폭	-9.23213
▁베이징	-9.2322
광	-9.23268
▁저녁	-9.23314
▁작업	-9.23322
▁지역에	-9.23331
▁발견했다	-9.23385
▁같이	-9.23431
▁출	-9.23507
▁접	-9.23594
▁200	-9.23607
수가	-9.23634
▁J	-9.23718
▁행	-9.23728
▁고려	-9.23744
이번	-9.23887
▁사과	-9.23904
2005.08	-9.23931
▁상원	-9.24006
▁아래	-9.24098
“	-9.24235
▁과거	-9.24249
▁방안	-9.24361
▁직원	-9.24454
랜	-9.24557
▁b	-9.24764
▁승인	-9.249
되기	-9.2496
▁떠나	-9.25
▁않았다고	-9.25095
로서	-9.25098
▁먼저	-9.25113
▁용	-9.25161
해졌다	-9.25199
▁주변	-9.25206
▁31	-9.25281
▁이유	-9.25571
▁보냈다	-9.25592
겠다	-9.25652
▁나타났다	-9.25769
▁걱정	-9.26009
▁데이비드	-9.26009
▁규정	-9.26012
▁전투	-9.26094
▁퍼	-9.26184
버렸다	-9.26209
치는	-9.26235
들에	-9.26263
웠다	-9.26268
▁기소	-9.26347
▁국경	-9.26411
▁슬	-9.2647
향	-9.26525
▁차례	-9.26538
▁통신	-9.26539
▁요구했다	-9.26554
▁결정했다	-9.26562
▁소년	-9.26576
▁필요하다	-9.26577
▁놀	-9.26648
하다고	-9.26944
▁열리는	-9.26998
▁크	-9.27001
▁I	-9.27041
▁역시	-9.27058
▁국회	-9.27099
▁실패	-9.27232
▁E	-9.27349
▁정신	-9.27491
▁수행	-9.27513
▁스타	-9.27568
▁가득	-9.27576
표를	-9.2769
평	-9.27715
▁학	-9.27776
▁포기	-9.27782
움	-9.27786
▁부토	-9.27787
송	-9.27872
년대	-9.27896
▁교수는	-9.27921
▁들어가	-9.28044
▁캘리포니아	-9.28054
좌	-9.28145
▁국방부	-9.28236
▁만들어	-9.28302
▁한번	-9.2836
▁철	-9.28365
▁입었다	-9.28439
▁그들	-9.28452
▁확보	-9.28467
셀	-9.28467
▁라디오	-9.28474
▁순	-9.2849
▁운전	-9.28522
▁수술	-9.28549
비아	-9.28571
변	-9.28661
시키는	-9.28666
▁커	-9.28672
▁제품	-9.28722
▁나와	-9.28765
’(	-9.28784
▁만들	-9.28923
▁정보를	-9.2896
▁합니다	-9.29059
▁마음	-9.2907
▁디	-9.29098
되	-9.29192
근	-9.292
▁총리가	-9.29201
세의	-9.29201
▁기자회견에서	-9.29341
▁협력	-9.29405
▁작	-9.29507
▁제출	-9.29562
&	-9.29637
▁브라운	-9.29721
▁실험	-9.29736
사가	-9.29912
▁공장	-9.29953
허	-9.29976
▁받지	-9.29978
▁극	-9.30058
▁여름	-9.30068
▁이해	-9.30079
▁권	-9.30081
씨는	-9.30155
칠	-9.30161
▁취소	-9.30164
▁정당	-9.30227
빈	-9.30258
▁걸어	-9.30271
시키	-9.30307
년까지	-9.30309
▁판사	-9.30394
▁살고	-9.30467
▁하였다	-9.30582
▁버스	-9.30589
▁선생님	-9.30669
▁발전	-9.30716
▁밖에	-9.30838
▁않아	-9.30842
▁중심	-9.30845
▁재개	-9.30852
▁개최	-9.3087
센터	-9.3098
▁어린이	-9.30981
▁만일	-9.30983
▁항공	-9.31003
시켜	-9.31078
▁나가	-9.31151
하려는	-9.31168
▁60	-9.31255
률	-9.31277
힌	-9.31306
▁아닌	-9.31331
el	-9.31381
▁마리	-9.31389
▁산업	-9.31412
▁보았다	-9.31501
에서도	-9.31554
시에	-9.31668
안을	-9.31753
▁경고	-9.31892
어졌다	-9.31956
착	-9.3209
하거나	-9.32123
앙	-9.32147
냐	-9.32255
만원	-9.32255
▁아내	-9.32353
▁목	-9.32422
흐	-9.32591
▁환영	-9.32607
그러나	-9.32615
압	-9.32647
▁특히	-9.32707
▁돌아	-9.32769
스타	-9.32858
하겠다	-9.32977
총	-9.33099
▁Korea	-9.33122
▁있기	-9.33123
▁라이스	-9.3313
▁넘어	-9.33178
충	-9.33249
▁성장	-9.33313
▁연합	-9.33369
▁수가	-9.33372
▁인구	-9.33533
▁개선	-9.3355
▁땅	-9.33552
▁향	-9.33577
자들	-9.3358
▁명령	-9.33613
기도	-9.33696
▁전달	-9.33749
▁받았	-9.33846
▁대만	-9.33853
어야	-9.33864
▁시신	-9.33877
▁레바논	-9.339
▁전세계	-9.33938
▁우리에게	-9.33958
▁최초	-9.33972
9	-9.34011
▁제조	-9.34019
만한	-9.34097
▁내렸다	-9.34119
▁잘못	-9.34128
▁한나라당	-9.34172
링	-9.34228
▁이유로	-9.34235
▁법안	-9.34283
▁담배	-9.34286
▁일정	-9.34344
▁사건에	-9.34359
▁시스템	-9.34364
200	-9.34446
▁시설	-9.34476
ol	-9.34478
례	-9.34551
▁알리	-9.34555
필	-9.34565
▁확실히	-9.34638
틀	-9.34686
30	-9.34736
▁것과	-9.348
▁사무실	-9.3491
▁장면	-9.34913
▁형	-9.34925
톤	-9.34959
폐	-9.35094
▁잔	-9.35161
▁온라인	-9.35236
▁주말	-9.35403
▁내리	-9.35437
▁때까지	-9.35488
▁조건	-9.35492
▁과학자들	-9.35512
슬	-9.35517
▁가능한	-9.35533
월에	-9.35583
▁R	-9.35631
▁U	-9.35652
U	-9.35666
금을	-9.35703
▁의심	-9.35795
레스	-9.3582
▁토론	-9.35876
▁아프리카	-9.35905
▁심각한	-9.36294
성이	-9.36309
페	-9.36316
▁w	-9.36434
;	-9.36562
▁고통	-9.36658
▁일반	-9.36739
▁구성	-9.3679
▁없	-9.36823
▁제기	-9.3688
▁여론조사	-9.36905
▁그러	-9.36917
▁부대	-9.36926
▁분석	-9.36976
▁시위대	-9.37043
▁국민들	-9.37071
▁대선후보	-9.37239
▁폭탄테러	-9.37252
▁f	-9.37281
▁2003	-9.37282
▁기념	-9.37284
▁경기에서	-9.3744
▁선정	-9.37532
▁농	-9.37564
▁사르코지	-9.37579
경기	-9.37659
▁깨	-9.37687
▁re	-9.37749
▁설	-9.37825
플	-9.37912
▁가스	-9.38008
▁인기	-9.38045
혈	-9.38201
▁역	-9.3821
▁합	-9.38212
느	-9.38216
▁북	-9.38246
수를	-9.3836
왔	-9.38477
접	-9.3852
겠습니다	-9.38613
▁지명	-9.38684
이트	-9.38694
▁포함한	-9.38728
▁계	-9.38744
▁공연	-9.38793
▁예정이라고	-9.38821
벨	-9.38825
▁관할	-9.38951
▁어려움	-9.38955
▁이와	-9.38999
패	-9.39004
기구	-9.39048
▁전문가들은	-9.39078
▁노동	-9.39085
▁향해	-9.393
▁일어나	-9.39303
▁시기	-9.39358
▁p	-9.39397
▁나왔다	-9.39461
드리	-9.39479
▁앤	-9.39485
com	-9.39537
ir	-9.39568
슈	-9.39569
▁황	-9.39575
▁거부	-9.39582
억달러	-9.39584
럼	-9.39588
▁스미스	-9.39646
으면	-9.39716
▁콜롬비아	-9.39869
▁민간인	-9.39966
▁화요일	-9.39993
▁자기	-9.40065
▁양국	-9.40085
▁설치	-9.40105
▁부부	-9.40212
측은	-9.40221
▁섬	-9.40252
▁제재	-9.40254
▁수출	-9.40284
▁부모	-9.40331
▁좋다	-9.40343
업체	-9.40399
▁인간	-9.40428
▁주민	-9.40446
▁백	-9.40468
ation	-9.40483
▁프로	-9.4051
▁작전	-9.40576
▁멕시코	-9.40694
▁모델	-9.40746
▁노래	-9.40802
▁뇌	-9.40841
▁차지	-9.40952
▁미국인	-9.41154
▁비밀	-9.41166
▁인권	-9.41212
째	-9.41348
▁티베트	-9.41399
▁누군가	-9.414
▁반응	-9.41416
▁사이에	-9.41479
▁시민	-9.41582
갑	-9.41602
▁파리	-9.41702
손	-9.41724
▁보여주	-9.41746
▁끼	-9.41756
▁위원회	-9.41807
일간	-9.41929
▁저장	-9.41987
▁웹사이트	-9.42016
▁전국	-9.42048
▁받는	-9.42189
▁도움이	-9.42292
▁동의	-9.42296
▁불안	-9.42354
음을	-9.42413
찰	-9.42434
▁바랍니다	-9.42467
▁국무부	-9.42507
▁물건을	-9.42531
▁좋아한다	-9.42695
▁사임	-9.42703
득	-9.42724
▁외국	-9.42768
하지만	-9.42775
▁캐	-9.42883
▁즉시	-9.42908
▁매일	-9.42952
im	-9.42964
▁감시	-9.42991
취	-9.43007
▁의미	-9.4305
관계	-9.43155
▁노무현	-9.43185
▁광고	-9.43225
▁0	-9.43418
▁증시	-9.43424
▁촬영	-9.43546
펠	-9.43546
▁월요일	-9.43546
▁쉽게	-9.43547
▁타임즈	-9.43549
드는	-9.43664
▁세금	-9.437
▁식	-9.43701
▁자료	-9.43771
▁말한다	-9.43844
▁여객기	-9.43908
▁위치	-9.4391
▁입은	-9.43922
린다	-9.43928
)'	-9.43975
▁돌아가	-9.43984
▁권리	-9.43993
▁유일	-9.43995
이드	-9.44016
▁나온	-9.44216
▁탈	-9.44241
막	-9.44258
▁연료	-9.44351
▁행정부	-9.44368
▁구매	-9.44391
▁무장	-9.44427
▁넣	-9.44432
▁떠	-9.44443
▁그림	-9.4453
▁담당	-9.44547
▁심장	-9.44595
▁부통령	-9.44637
▁하기	-9.4464
▁기차	-9.44646
▁폭력	-9.44684
▁있는지	-9.44764
▁파업	-9.44926
은행	-9.44963
▁까지	-9.44979
▁인도네시아	-9.45003
▁고양이	-9.45005
▁표현	-9.45029
▁대하여	-9.45055
▁쿠	-9.45064
자회담	-9.45074
람	-9.45086
▁태국	-9.45092
▁휴가	-9.45156
▁왜	-9.45247
▁2000	-9.45314
▁정권	-9.45324
사건	-9.45346
북	-9.4535
우리	-9.45398
▁바람	-9.45416
학자	-9.4545
▁또는	-9.4546
▁국영	-9.45533
▁놀라	-9.45539
▁경선	-9.45565
▁수단	-9.45577
한다는	-9.4561
▁견	-9.45667
롭	-9.45694
▁500	-9.45743
▁대규모	-9.45758
▁비디오	-9.45763
▁외교	-9.45836
적이	-9.45998
때	-9.46206
▁고용	-9.46283
스터	-9.46376
▁가정	-9.46389
▁죽음	-9.46404
▁평가	-9.46424
ad	-9.4644
▁LA	-9.46451
▁어떠한	-9.46482
▁수감	-9.4651
▁숨졌다	-9.46517
트리	-9.46534
▁사람들을	-9.4661
▁집중	-9.46641
명과	-9.46663
▁샤	-9.46699
20	-9.4676
▁퇴	-9.46861
▁대변인	-9.46896
션	-9.46901
il	-9.46935
▁세력	-9.47018
▁목적	-9.4709
▁논쟁	-9.47235
▁언제	-9.47359
▁구속	-9.47387
▁항의	-9.47552
견	-9.47669
▁한국인	-9.47712
었으며	-9.4775
▁따	-9.47771
혔다	-9.47853
▁사라	-9.47873
화를	-9.47902
▁교통	-9.47926
칭	-9.47983
▁높이	-9.47983
▁효과	-9.47991
▁흔들	-9.47999
▁대답	-9.48038
▁곳에	-9.48073
원은	-9.48155
▁배치	-9.48233
▁홀	-9.4826
▁홍콩	-9.48362
▁추락	-9.484
ac	-9.48452
▁말한	-9.48456
센	-9.48544
세기	-9.48565
▁상황이	-9.48646
▁바다	-9.48664
ent	-9.48722
▁모른다	-9.48742
▁가자지구	-9.48744
었	-9.48761
▁동부	-9.48775
▁태양	-9.48777
▁미래	-9.48793
▁슈	-9.48824
▁US	-9.48855
▁작년	-9.48875
▁충분	-9.4896
▁다양	-9.49008
곧	-9.49015
▁콘	-9.49121
▁목소리	-9.49131
시장	-9.49186
▁문화	-9.49199
▁국가들	-9.49204
▁모르	-9.49235
▁통제	-9.49264
엘	-9.49413
▁올랐다	-9.49507
▁수치	-9.49514
▁접근	-9.49519
▁국내	-9.49599
▁있지	-9.49731
쪽	-9.49844
▁않으면	-9.49891
씩	-9.49891
▁스스로	-9.49896
지도	-9.49909
시키기	-9.50017
택	-9.50045
▁화물	-9.50148
▁긴장	-9.50202
▁아니	-9.50241
la	-9.50284
▁촉구했다	-9.50366
력이	-9.50398
▁임	-9.50409
▁파병	-9.50423
▁열차	-9.50431
▁보건	-9.50466
▁속에서	-9.50524
▁특	-9.50555
▁근거	-9.50562
낼	-9.50566
▁젊은	-9.50574
▁총격	-9.50638
몬	-9.50664
▁로버트	-9.50665
▁의원은	-9.50685
▁증명	-9.50691
▁인상	-9.5084
▁우리측	-9.5086
기에	-9.50943
빌	-9.50988
▁마이클	-9.51055
▁브라질	-9.51055
▁메시지	-9.51059
▁없습니다	-9.51074
▁가서	-9.51147
녀	-9.5118
▁인물	-9.51225
텔	-9.51416
▁붕괴	-9.51445
▁주식	-9.51451
▁최종	-9.51466
▁혼란	-9.51471
▁기계	-9.51485
▁것인지	-9.51591
▁무역	-9.51629
▁주십시오	-9.51701
▁대피	-9.51721
둥	-9.51837
▁각각	-9.51872
▁관해	-9.52009
▁주도	-9.52023
시키고	-9.52078
▁임명	-9.52083
ut	-9.52196
▁캐나다	-9.52231
▁제한	-9.52258
▁사는	-9.52369
▁가는	-9.5238
ow	-9.52381
대가	-9.52446
▁마시	-9.52479
▁준	-9.5248
▁당선	-9.52511
입니까	-9.52558
▁주지사	-9.5256
▁장소	-9.52584
▁중에	-9.5262
이란	-9.5262
▁풍	-9.52636
▁뿐	-9.52636
▁연결	-9.52709
▁승	-9.52851
간다	-9.52864
se	-9.52906
▁살아	-9.52952
▁느꼈다	-9.53023
▁빠져	-9.53025
▁시즌	-9.53036
▁사람들에게	-9.5306
쉬	-9.5307
▁있었던	-9.53074
트는	-9.53185
▁과학	-9.53187
물을	-9.53331
년부터	-9.53341
▁프리	-9.53378
컨	-9.53421
▁밝혀졌다	-9.53448
킹	-9.53483
▁만든	-9.53507
▁대사관	-9.53523
▁이전에	-9.53551
▁완	-9.5362
▁사망하고	-9.53647
▁안정	-9.5365
▁충	-9.5365
▁어린	-9.53682
▁판	-9.53717
가지	-9.53721
▁쇼	-9.53835
왕	-9.53839
▁인수	-9.53948
▁달리	-9.53987
▁클	-9.54041
릭	-9.54172
▁업무	-9.54226
귀	-9.54285
ter	-9.54399
▁풀	-9.54478
▁힘들	-9.54611
▁끌어	-9.54626
▁비롯	-9.54635
▁평균	-9.54638
▁질문	-9.54652
치를	-9.54732
▁매년	-9.54766
쟁	-9.54857
▁속에	-9.54907
▁내일	-9.55005
▁일찍	-9.55031
▁앞두고	-9.55031
▁한다는	-9.5509
리가	-9.55111
▁그룹	-9.55129
볼	-9.55139
시아	-9.5524
▁h	-9.55265
▁군대	-9.5531
킨	-9.55413
▁약어표	-9.55437
▁시아파	-9.55439
▁2002	-9.5549
▁망	-9.55561
▁콜	-9.55586
▁교회	-9.55624
▁곳에서	-9.55647
▁차이	-9.55695
▁강제	-9.55728
▁씨	-9.55784
▁기사	-9.5581
▁했다고	-9.55908
▁실수	-9.56039
합니까	-9.5605
▁교수	-9.56111
자로	-9.56118
▁자체	-9.56195
스가	-9.56245
컵	-9.56253
▁파견	-9.56297
▁특별	-9.56357
▁못한다	-9.56424
테러	-9.56533
▁정도로	-9.56586
▁업체	-9.56671
▁나쁜	-9.56715
▁미국에서	-9.56728
샤	-9.56839
문제	-9.56843
▁케	-9.56872
해왔다	-9.56882
▁경고했다	-9.56944
▁오르	-9.57063
▁밝힌	-9.5708
▁좋지	-9.5708
▁이같	-9.57099
▁바꾸	-9.57106
▁학생들	-9.57117
▁의료	-9.57173
▁m	-9.57184
▁헬기	-9.57195
▁로마	-9.5727
▁개의	-9.57294
▁밝혀	-9.57316
했는데	-9.57367
였	-9.57475
▁사우디	-9.57499
▁식량	-9.57553
▁작가	-9.57681
▁물건	-9.57834
▁2007	-9.57933
▁발표한	-9.57936
▁위반	-9.58014
만이	-9.58046
▁못한	-9.58095
▁떨어졌다	-9.58111
▁보고서는	-9.58178
하니	-9.58267
▁진압	-9.58354
봉	-9.58494
혹	-9.58572
▁무장세력	-9.58753
▁그녀에게	-9.58764
500	-9.5877
▁보수	-9.5884
▁해리	-9.58884
▁기록했다	-9.5907
▁선언	-9.59072
▁소식	-9.59108
▁지역의	-9.59167
▁관광	-9.59186
▁알게	-9.59203
▁신용	-9.59223
▁지도자들	-9.59238
▁공습	-9.59258
ce	-9.59342
▁쉬	-9.59453
숙	-9.5947
ate	-9.59508
▁최	-9.59548
폰	-9.59554
▁비가	-9.59565
뜨	-9.59566
▁기관	-9.59597
▁시카고	-9.59598
▁법률	-9.5962
▁엘	-9.59645
▁범인	-9.59701
▁받게	-9.59712
풍	-9.5982
▁가족들	-9.59865
▁입고	-9.60007
▁왕자	-9.6003
▁움직임	-9.60032
▁서부	-9.60059
▁국무장관	-9.60072
▁압력	-9.60082
▁살인	-9.60096
▁기회를	-9.60101
▁굴	-9.60101
▁사건이	-9.60202
▁중동	-9.60275
척	-9.6031
찬	-9.60325
▁폐	-9.60336
▁유명	-9.60423
▁빛	-9.60442
퍼센트	-9.60479
▁외국인	-9.60513
▁비해	-9.60524
▁이상이	-9.60536
▁예측	-9.60595
▁알려	-9.60608
셔	-9.60737
엄	-9.60748
▁짐바브웨	-9.60878
▁느끼	-9.60878
▁힐	-9.60904
▁안보	-9.60954
일까지	-9.61011
▁이라크에서	-9.61028
객	-9.61037
▁위하여	-9.61086
▁축하	-9.61127
여명	-9.61219
▁상대	-9.61226
원이	-9.61248
마일	-9.6128
▁얘기	-9.6131
▁능력	-9.61318
스카	-9.6141
되었	-9.61411
▁실제	-9.61415
▁중인	-9.61417
▁거주	-9.61446
▁하원	-9.61471
▁없어	-9.61474
한다면	-9.61614
▁벌였다	-9.61626
▁전기	-9.61638
▁상점	-9.61654
십	-9.61698
장에서	-9.61755
▁사실이	-9.61782
▁꼭	-9.61803
▁터	-9.61846
2%	-9.61934
▁감염	-9.61969
5000	-9.61985
▁위성	-9.62103
냉	-9.62177
ne	-9.62228
중인	-9.62274
인한	-9.62338
▁총선	-9.62351
▁단계	-9.62394
탁	-9.62479
▁되지	-9.62542
▁보장	-9.62561
협회	-9.6257
국가	-9.62586
▁찬	-9.62613
▁일요일	-9.62615
▁때문이다	-9.62689
원을	-9.62709
▁추진	-9.6284
▁여기	-9.62882
이자	-9.62893
▁이곳	-9.62918
▁해군	-9.62929
마다	-9.63003
▁실종	-9.63015
▁대응	-9.63084
로스	-9.63114
▁육	-9.6329
▁가까	-9.63353
▁보여	-9.63446
▁못하고	-9.63482
▁자주	-9.63509
▁개혁	-9.63514
▁민	-9.63537
▁소송	-9.63549
▁...	-9.63555
▁전시	-9.63582
▁환	-9.63765
일부터	-9.63827
스러운	-9.63894
▁푸틴	-9.63939
이라크	-9.63995
▁찬성	-9.64063
▁후보가	-9.64073
▁유명한	-9.64119
황	-9.64155
3%	-9.64173
었던	-9.64219
▁말하는	-9.64349
새	-9.64356
▁허가	-9.64403
▁아무런	-9.64405
위에	-9.64409
▁불만	-9.64475
▁보낸	-9.64517
▁분명	-9.64531
▁인사	-9.64536
▁관계자가	-9.64569
하길	-9.64571
라며	-9.64591
서는	-9.64616
었습니다	-9.64683
▁오른	-9.64691
이었던	-9.64691
▁사기	-9.64699
▁의장	-9.64713
인지	-9.64751
▁과정	-9.64813
통신	-9.6483
▁집행	-9.64846
▁야후	-9.64866
▁암살	-9.64874
▁80	-9.64974
40	-9.64985
▁나서	-9.65078
▁명이	-9.6512
▁블	-9.65167
▁대비	-9.65209
▁기회	-9.65248
개국	-9.65253
▁설립	-9.65303
턴	-9.65483
▁지지자들	-9.65527
▁90	-9.65536
▁요청했다	-9.65623
▁묻	-9.65648
▁듣고	-9.65725
▁태도	-9.65808
▁만큼	-9.65819
▁남아	-9.65854
▁혼	-9.65857
▁중앙	-9.6589
10	-9.65902
▁전문	-9.6592
기간	-9.65967
자와	-9.66032
벌	-9.66156
랄	-9.66167
▁홍수	-9.66192
럽	-9.66217
▁확신	-9.66239
▁선출	-9.66283
▁전역	-9.66346
스턴	-9.66371
▁임시	-9.66376
▁진정	-9.66406
▁플로리다	-9.66447
▁바이러스	-9.66635
놓	-9.6665
▁자녀	-9.66697
▁검	-9.66732
▁신고	-9.66746
▁생명	-9.66749
부는	-9.66754
▁de	-9.67039
▁그것이	-9.67073
▁하늘	-9.67114
ers	-9.67201
철	-9.67202
물이	-9.6727
▁주민들	-9.67306
▁항공사	-9.67321
▁동료	-9.6734
▁경찰에	-9.67355
상의	-9.67405
리를	-9.67408
▁합의했다	-9.67521
▁대의원	-9.67624
▁맺	-9.67657
▁대중	-9.67682
▁The	-9.67807
▁못할	-9.67829
지에	-9.67963
조사	-9.67985
▁센터	-9.68057
선수	-9.68158
▁존재	-9.68161
▁신속	-9.68195
▁과정에서	-9.68196
장에	-9.68215
▁법정	-9.68234
▁심리	-9.68244
▁아니라고	-9.6836
▁만족	-9.68425
om	-9.68468
ay	-9.68499
▁주재	-9.68542
id	-9.6856
▁벤	-9.68599
▁만들었다	-9.68611
되면서	-9.68681
▁변호사는	-9.68732
치고	-9.68782
ve	-9.68819
▁발견됐다	-9.68846
▁가져	-9.68887
▁발견된	-9.68897
균	-9.68921
▁그와	-9.68988
▁전력	-9.69077
헌	-9.69081
▁제거	-9.69092
▁경험	-9.69101
곡	-9.69108
lo	-9.69123
▁대화	-9.69154
▁응	-9.69161
▁있다면	-9.69188
▁입원	-9.69284
▁마약	-9.69312
▁전자	-9.69317
▁이집트	-9.69405
▁아랍	-9.69442
순	-9.6945
▁허용	-9.69489
▁마치	-9.69538
니까	-9.69553
참	-9.6957
▁트	-9.69571
걸	-9.69631
▁것처럼	-9.69782
▁부문	-9.69895
▁부정	-9.69924
▁유리	-9.70109
관은	-9.70195
▁집회	-9.70196
▁집단	-9.70245
▁사람에게	-9.70251
▁긴	-9.70282
으니	-9.70313
▁확산	-9.70318
▁낮	-9.70323
▁제임스	-9.70345
▁몇몇	-9.70351
▁교황	-9.70367
▁알려진	-9.70431
▁해서	-9.70443
▁분노	-9.70484
▁자세	-9.70506
▁소설	-9.70515
▁중국은	-9.70551
▁시행	-9.70614
▁회사는	-9.70691
▁당선인	-9.70762
▁병원에	-9.70785
▁경영	-9.70807
▁트럭	-9.70825
▁약물	-9.70829
▁케냐	-9.70829
▁웃	-9.70852
존	-9.70854
▁싸	-9.7101
‘	-9.71081
▁사원	-9.71111
▁분야	-9.71114
▁자연	-9.71116
방송	-9.71122
▁전해	-9.71132
▁집에서	-9.71225
▁이래	-9.71292
▁강한	-9.71303
▁복귀	-9.7131
▁여왕	-9.7133
▁걸쳐	-9.71339
▁대변인이	-9.71355
▁답	-9.71392
▁신청	-9.71453
알	-9.71507
▁일본의	-9.71646
j	-9.71773
▁프로젝트	-9.71773
낸	-9.71776
▁검토	-9.71807
▁거대	-9.71826
잔	-9.72037
▁팬들	-9.72053
대의	-9.72112
▁대상으로	-9.72145
▁지도	-9.72198
▁오랫동안	-9.72254
▁클럽	-9.72262
▁사퇴	-9.72322
▁완성	-9.72358
드로	-9.72361
▁순간	-9.72397
명으로	-9.72414
되었습니다	-9.72437
▁수십	-9.72507
품을	-9.7253
▁텍사스	-9.72543
▁사형	-9.72563
▁대해서는	-9.72566
하기를	-9.72598
▁강력한	-9.72705
▁비슷	-9.72737
▁결의안	-9.72757
▁헌법	-9.72761
▁O	-9.72975
해주	-9.7299
▁수영	-9.73003
ment	-9.7307
70	-9.732
▁보험	-9.7328
▁덮	-9.73418
▁되고	-9.73556
몰	-9.73568
완	-9.73601
경찰	-9.73612
빙	-9.73637
렬	-9.73699
였습니다	-9.73717
이어	-9.73788
▁많다	-9.73791
▁삶	-9.73791
▁알아	-9.73801
▁여론	-9.73817
▁얻었다	-9.73838
▁쥐	-9.73858
이지만	-9.73862
▁수요일	-9.73895
▁가졌다	-9.73917
▁여기에	-9.73935
인들이	-9.73969
▁창문	-9.73976
▁대상	-9.74015
600	-9.7405
▁붙	-9.74068
▁on	-9.74088
▁대사	-9.74185
전에	-9.74187
사의	-9.74248
▁들어갔다	-9.74252
▁최신	-9.74256
▁방향	-9.74257
▁웨	-9.74268
▁꾸	-9.7429
▁노인	-9.74344
▁저지	-9.74379
되었다고	-9.74431
▁올리	-9.74504
다른	-9.74526
▁병사	-9.74612
기관	-9.7471
ist	-9.74725
▁선수들	-9.74799
▁권력	-9.74814
▁듯	-9.74863
▁두고	-9.74866
퇴	-9.7488
▁방해	-9.74912
▁있었	-9.74927
▁정부와	-9.74967
▁아직까지	-9.74992
▁인터뷰	-9.75029
▁티	-9.75079
▁노조	-9.75094
▁당신측	-9.75137
▁잠시	-9.75173
핑	-9.75178
▁않도록	-9.75188
▁로켓	-9.75207
▁분쟁	-9.75218
련	-9.75224
▁아직도	-9.75284
▁손실	-9.75365
ID	-9.75393
▁위해서는	-9.75399
▁짐	-9.75544
제를	-9.7556
스톤	-9.75575
념	-9.75581
▁지배	-9.75593
활	-9.75635
▁심각	-9.75658
햄	-9.75685
▁나머지	-9.75688
▁떨어져	-9.75689
▁북핵	-9.75689
▁부르	-9.75737
▁질문에	-9.75752
▁부상자	-9.75801
▁사상	-9.75833
겠다고	-9.75954
▁충분한	-9.75973
부를	-9.76149
▁계획이다	-9.76151
▁문제는	-9.76168
▁따른	-9.7621
▁소녀	-9.76237
▁성적	-9.76246
▁돌려	-9.76251
했는지	-9.76259
▁절대	-9.76272
▁십	-9.76273
▁녹	-9.7639
라도	-9.76478
▁감정	-9.7654
▁사진을	-9.76583
▁목요일	-9.76688
▁수많은	-9.76689
▁최악	-9.76702
▁오랜	-9.76785
▁확인했다	-9.76815
▁익명	-9.76825
60	-9.76853
▁당신에게	-9.7687
▁관리들	-9.7689
res	-9.76899
▁존스	-9.76948
▁재산	-9.7696
▁사령관	-9.7703
소리	-9.77037
800	-9.77094
덕	-9.77185
▁내무부	-9.77194
▁겨울	-9.77195
▁행복	-9.77229
▁보이지	-9.77239
그는	-9.77271
▁정부에	-9.77362
),	-9.77369
=2	-9.77396
▁선물	-9.77571
▁도쿄	-9.77701
▁1000	-9.7772
▁있는데	-9.77732
▁마크	-9.77784
▁판단	-9.77794
▁열심	-9.7782
▁예상된다	-9.77856
▁전문가	-9.77914
▁신발	-9.77939
▁것보다	-9.78003
▁st	-9.78008
들로	-9.78051
▁기지	-9.78135
잉	-9.78161
▁기타	-9.78251
▁이것	-9.78314
세요	-9.78327
▁등을	-9.78346
▁수익	-9.78429
▁전반	-9.78436
▁타이	-9.78677
홍	-9.78698
▁소비자	-9.78761
▁예술	-9.78775
▁종교	-9.78784
▁사이트	-9.78793
ot	-9.78833
스크	-9.78851
사전	-9.78881
없이	-9.78916
▁승객	-9.79003
▁구호	-9.79098
▁보기	-9.79218
▁확대	-9.79239
▁사건은	-9.79273
▁최고의	-9.79284
▁서명	-9.79286
▁대법원	-9.79303
▁직	-9.79326
▁시리아	-9.79357
▁주지사는	-9.7941
하기도	-9.7944
▁사항	-9.79452
수록	-9.79453
▁기울	-9.79475
▁부상했다	-9.79541
▁비판	-9.79567
▁가수	-9.79578
▁진행되	-9.79658
스럽게	-9.7966
4%	-9.79678
▁가격이	-9.79723
▁밝히지	-9.79757
▁국립	-9.79807
▁그래	-9.79838
▁끝나	-9.79942
▁임기	-9.79987
▁그린	-9.80078
▁EU	-9.80117
▁수천	-9.80143
▁전부	-9.8017
▁아이들이	-9.80233
▁흥미	-9.8028
▁착륙	-9.80302
▁머물	-9.80319
▁선박	-9.80377
▁낮은	-9.80384
섬	-9.80413
▁수색	-9.80454
▁당했다	-9.80497
▁고객	-9.80499
▁속도	-9.80506
▁상대로	-9.80613
▁be	-9.80689
▁후보는	-9.80784
▁이에앞서	-9.80802
▁엄마	-9.80855
▁패배	-9.80866
▁300	-9.80908
▁싶어	-9.80908
▁이란이	-9.80935
▁연주	-9.80939
사회	-9.80944
행위	-9.80991
학교	-9.81041
▁쓸	-9.81121
으로서	-9.81273
겁	-9.81323
젤	-9.81328
인들은	-9.81346
)/	-9.81469
셨다	-9.81489
▁작업을	-9.81552
▁신원	-9.81739
옥	-9.81787
▁휘	-9.81804
같은	-9.8184
▁그렇지	-9.81857
닝	-9.81857
싼	-9.81857
▁협의	-9.81857
▁관광객	-9.81875
▁선두	-9.82013
▁필	-9.82027
▁기후	-9.82058
베이	-9.82068
▁피터	-9.82084
▁곡	-9.82172
▁내부	-9.8224
▁어디	-9.82244
안에	-9.82257
▁교전	-9.82287
▁머리를	-9.82346
▁성폭행	-9.82389
싱	-9.82389
▁카메라	-9.82389
▁후세인	-9.82393
▁이끄는	-9.82396
▁국왕	-9.82407
▁긴급	-9.82413
▁관계자들은	-9.82451
▁다음달	-9.8247
라인	-9.82528
▁화가	-9.82543
▁함	-9.82724
▁따라서	-9.8278
▁빠른	-9.82924
▁차베스	-9.82924
▁압박	-9.8294
▁무장단체	-9.82941
▁경비	-9.82946
▁투입	-9.82967
▁경매	-9.83019
▁여사	-9.8306
▁숙	-9.83065
거래	-9.83289
▁상원의원이	-9.8331
▁말하고	-9.83331
▁탑승	-9.8344
▁악화	-9.83503
▁푸	-9.83503
▁쿠바	-9.83551
▁이웃	-9.83667
The	-9.83696
얼	-9.83696
싸	-9.83719
▁들고	-9.83727
달러를	-9.83792
-1	-9.83929
켓	-9.83981
▁베네수엘라	-9.84002
▁며칠	-9.84012
▁계획은	-9.84047
시티	-9.84072
▁진출	-9.84076
▁종류	-9.84077
▁머	-9.84103
▁칸	-9.84119
▁소재	-9.84235
▁찰스	-9.84271
▁수정	-9.84272
▁공부	-9.84352
▁말해	-9.84435
▁의원들	-9.84551
▁민주주의	-9.84556
▁허락	-9.8458
▁의지	-9.84582
▁나타냈다	-9.84608
▁전략	-9.84678
헤	-9.84707
all	-9.84884
▁확실	-9.84909
▁둘	-9.85078
▁폭력사태	-9.85097
분기	-9.8512
▁벨	-9.85209
▁추정	-9.85216
▁도착했다	-9.85239
▁손상	-9.85267
▁연장	-9.85422
▁논	-9.85472
▁바라	-9.85486
▁지진	-9.85505
스키	-9.85537
겐	-9.85641
▁따뜻	-9.85642
▁엔	-9.85754
위로	-9.85762
▁상처	-9.85793
▁2001	-9.85796
▁구입	-9.85798
북한	-9.8581
▁유권자들	-9.8584
역을	-9.85887
▁해당	-9.85928
암	-9.85934
폴	-9.85941
해라	-9.85944
▁관련해	-9.86078
▁병이	-9.8611
te	-9.86134
사람	-9.86158
▁밝혔습니다	-9.86194
▁이명박	-9.86195
▁35	-9.86215
▁질병	-9.86269
▁관계자	-9.86307
▁공원	-9.8639
되며	-9.86463
▁일이다	-9.86466
니스	-9.86467
▁파티	-9.86496
운동	-9.86499
J	-9.8651
해진	-9.86609
▁남북	-9.8668
작전	-9.86687
▁항	-9.8669
▁원한다	-9.86716
▁정확한	-9.86749
▁충격	-9.8678
▁사전	-9.86838
자금	-9.86895
▁건의	-9.86898
▁시대	-9.86925
▁작성	-9.86967
est	-9.87003
▁흑인	-9.87061
롤	-9.87299
▁접촉	-9.87315
▁이것이	-9.87335
ly	-9.8736
▁직원들	-9.87385
브라	-9.87482
여명이	-9.87508
들도	-9.8757
▁써	-9.87634
▁반대하는	-9.87684
▁표시	-9.87694
▁가질	-9.87707
▁지키	-9.87717
Y	-9.87812
▁시민들	-9.8784
▁않았지만	-9.8787
▁목숨	-9.87871
ight	-9.87872
▁침대	-9.87895
ia	-9.879
▁유죄	-9.87913
▁일자리	-9.8795
▁실망	-9.87962
▁해변	-9.87973
▁언급했다	-9.87984
▁부패	-9.8799
▁탐	-9.88052
▁받아들이	-9.8813
▁같	-9.88164
▁낙	-9.88173
▁남한	-9.88229
▁즐	-9.88303
▁찾는	-9.88435
▁시상식	-9.88435
▁교도소	-9.88436
▁필요로	-9.8851
▁근무	-9.88512
▁임신	-9.88514
슨은	-9.88532
▁구제	-9.88661
▁라이	-9.88674
▁대처	-9.8868
▁조심	-9.88703
▁보좌관	-9.88894
▁거절	-9.88919
ive	-9.88931
영화	-9.88962
텐	-9.88995
▁스포츠	-9.89003
▁챔피언	-9.89003
▁휴대폰	-9.89003
▁나타나	-9.89006
스와	-9.89015
▁커피	-9.8906
▁나오	-9.89132
▁위로	-9.89141
▁연속	-9.89168
▁조각	-9.89184
▁등록	-9.89206
▁되면	-9.8929
구를	-9.89374
니는	-9.89375
▁유권자	-9.89375
▁동시	-9.89381
▁막기	-9.89393
▁연구소	-9.89486
▁불러	-9.89494
털	-9.89565
ill	-9.89578
▁낳	-9.89586
▁늘어	-9.89625
▁끝에	-9.89699
▁항공기	-9.89771
▁없었	-9.89826
▁관계자들	-9.89828
데이	-9.89855
중에	-9.89942
둔	-9.89945
킬	-9.89948
법원	-9.89966
▁공격으로	-9.90048
트로	-9.90054
▁물질	-9.90115
▁않겠다	-9.90149
▁버지니아	-9.90149
▁일어난	-9.9015
▁무대	-9.90206
▁봄	-9.90224
▁계산	-9.90224
▁난민	-9.90232
장관	-9.90256
▁아니면	-9.90283
▁조정	-9.90296
▁보통	-9.90423
▁경제적	-9.90506
▁동원	-9.90562
닥	-9.90654
▁놓고	-9.9071
▁강조	-9.90714
▁멈추	-9.90727
▁영국의	-9.90736
▁애플	-9.90757
▁이수지	-9.90766
▁해제	-9.90772
쪽으로	-9.908
▁완화	-9.90879
▁말할	-9.909
었지만	-9.90904
▁원래	-9.90906
▁음	-9.90961
▁방법이	-9.91035
▁수업	-9.91228
징	-9.91246
끼	-9.91247
힐	-9.91257
비치	-9.91283
▁허리케인	-9.91308
▁적어도	-9.91312
▁UN	-9.91346
37	-9.91392
▁레이	-9.914
쳤	-9.91427
▁진실	-9.91475
▁기본	-9.91501
▁내게	-9.91518
▁적용	-9.91605
11	-9.91738
쇼	-9.91863
▁필리핀	-9.91893
딘	-9.91893
▁마드리드	-9.91893
▁한반도	-9.91896
▁주장하고	-9.919
활동	-9.91905
▁신뢰	-9.91913
으려	-9.91951
▁어려운	-9.91959
▁연락	-9.91997
었고	-9.92039
했기	-9.92046
다니	-9.92058
▁소식통	-9.92068
▁지속	-9.92078
▁잃었다	-9.92081
7%	-9.922
▁현장	-9.92377
효	-9.92397
푸	-9.92414
▁식사	-9.92416
▁오바마가	-9.92426
럴	-9.92437
▁받았다고	-9.92461
▁죄	-9.9247
▁확정	-9.92482
▁논란	-9.92514
▁거기에	-9.92546
▁미군이	-9.92583
▁송	-9.92584
▁점점	-9.92632
들어	-9.92759
험	-9.92761
▁어렵다	-9.92793
어져	-9.92958
혼	-9.93041
훈	-9.93073
▁프라이머리	-9.93073
▁계획에	-9.93144
제도	-9.93147
▁냈다	-9.93158
▁수백	-9.93187
▁지점	-9.93224
▁여성이	-9.9327
▁말이	-9.93395
▁잡지	-9.9357
▁이혼	-9.93636
▁싶지	-9.93668
찌	-9.93668
▁넘는	-9.93679
▁빚	-9.93702
관리	-9.93717
▁연극	-9.93748
▁고문	-9.93924
틴	-9.9395
▁지출	-9.94043
▁위험한	-9.94078
백만	-9.94085
▁마르	-9.94107
▁소개	-9.94122
▁군인	-9.94142
▁증가했다	-9.94161
▁계획이	-9.94172
▁자국	-9.94187
▁지연	-9.9425
▁났다	-9.94267
▁높다	-9.94267
▁정상회담	-9.94276
▁달려	-9.94321
이라	-9.94322
▁것이라	-9.94337
낸다	-9.94369
▁물론	-9.94393
▁국방장관	-9.94403
▁보유	-9.94451
▁모양	-9.94484
▁즉	-9.94498
48	-9.94513
▁명단	-9.94573
▁신경	-9.94581
▁전통	-9.94644
▁북한에	-9.94707
도시	-9.94711
▁사용하는	-9.94731
▁뉴	-9.94732
▁증언	-9.94911
단은	-9.9497
▁경찰관	-9.95004
▁압	-9.95004
▁소비	-9.95011
점이	-9.95085
센트	-9.95092
▁크리스	-9.95146
▁중이다	-9.95167
▁생각했다	-9.95176
지역에서	-9.95222
▁이용해	-9.95347
우스	-9.95347
지지	-9.95442
▁연구진	-9.95461
▁양측	-9.95475
닐	-9.95476
▁박물관	-9.95476
▁깊이	-9.95506
9%	-9.95522
▁둘러	-9.9554
▁맞아	-9.95582
▁하며	-9.95607
짐	-9.95648
▁상자	-9.95676
▁기다리고	-9.95681
▁있기를	-9.95704
▁공정	-9.95704
월부터	-9.95709
▁목사	-9.95719
▁경계	-9.95741
▁방식	-9.95748
▁헌	-9.95862
▁앉아	-9.95946
▁몰아	-9.95956
▁주인	-9.95966
상태	-9.95998
▁총기	-9.96035
▁체니	-9.9606
▁시계	-9.96061
이었다고	-9.96084
▁있음을	-9.96086
▁잉글랜드	-9.96086
▁마무리	-9.96086
▁민병대	-9.96087
▁홍보	-9.96096
▁운행	-9.96105
▁파손	-9.96152
▁장애	-9.96175
회사인	-9.96198
▁발생할	-9.96211
▁길이	-9.96224
▁고래	-9.96249
▁주가	-9.96358
▁대형	-9.96482
하러	-9.96519
▁g	-9.96556
▁현상	-9.9664
▁이달	-9.96644
▁찾기	-9.96699
▁크리스마스	-9.96699
▁외무부	-9.967
▁비자	-9.96772
피트	-9.96774
당한	-9.96788
▁내놓	-9.96809
▁이라크에	-9.96818
궁	-9.96848
▁요구를	-9.96955
▁이행	-9.97055
▁희생자	-9.97204
up	-9.97215
▁틀	-9.97248
▁보이는	-9.97287
덴	-9.97289
젠	-9.97316
겠습니까	-9.97325
▁남자아이	-9.97326
▁장난감	-9.97329
▁분위기	-9.97335
▁의혹	-9.97421
▁직면	-9.97454
달라고	-9.97464
▁동결	-9.97482
▁시작된	-9.97519
▁실제로	-9.97552
▁하면	-9.97568
▁사용할	-9.97582
▁유로	-9.97584
▁이라크전	-9.97611
▁지하	-9.97629
세가	-9.97646
▁도전	-9.97738
▁궁	-9.97787
기업	-9.97795
▁생각하고	-9.97814
▁d	-9.97846
식을	-9.97882
▁도중	-9.97913
▁인질들	-9.97929
▁만났다	-9.97937
몽	-9.97937
뿐만아니라	-9.97937
▁나타내	-9.97939
▁숨지고	-9.97944
▁취임	-9.97957
▁2009	-9.97973
▁상징	-9.97985
op	-9.9807
자에게	-9.98075
▁플	-9.98104
▁의원이	-9.9812
▁실행	-9.98137
▁납	-9.98142
▁월드컵	-9.98157
▁목격	-9.98261
▁방문한	-9.98298
▁받	-9.98326
▁벽	-9.98367
▁후보에	-9.98389
▁결과가	-9.98446
▁수천명	-9.98487
▁그리스	-9.98506
▁훨씬	-9.98562
▁대다수	-9.98575
▁아이들을	-9.98584
▁깊은	-9.98586
▁말은	-9.98604
75	-9.98646
▁등의	-9.987
▁친구들	-9.98775
#	-9.98787
▁자격	-9.98817
▁벌금	-9.98928
▁발생해	-9.98955
정책	-9.98985
▁기다리	-9.99001
▁꺼	-9.9911
▁움직이	-9.99118
량이	-9.99156
묘	-9.99163
▁수용	-9.99175
▁시내	-9.99188
▁아파트	-9.99193
▁베컴	-9.99206
▁강도	-9.994
▁장기	-9.9946
▁왔	-9.99539
▁여당	-9.99548
▁마감	-9.99673
▁지휘	-9.99676
▁배가	-9.99766
봤	-9.99792
▁얻을	-9.99824
오는	-9.99828
▁열릴	-9.99907
스코	-9.99921
▁점차	-10.0002
con	-10.0003
정보	-10.0005
▁보석	-10.0011
▁단어	-10.0016
▁물을	-10.0019
▁수석	-10.002
중국	-10.0029
가격	-10.0031
▁좋아하는	-10.004
▁유세	-10.004
▁폭풍	-10.0043
X	-10.0046
▁쿠르드	-10.0046
▁분명히	-10.0065
▁법적	-10.0067
▁색	-10.0067
대통령	-10.0071
▁윌리엄	-10.0079
▁도와	-10.0091
▁바이	-10.0093
▁노동자	-10.0097
▁문서	-10.0108
▁있니	-10.011
팅	-10.011
▁깨끗	-10.011
▁처벌	-10.0112
▁패션	-10.0112
▁전까지	-10.0114
▁가능	-10.0121
▁청소년	-10.0123
뉴스	-10.0128
▁이틀	-10.0129
▁언론은	-10.0136
오바마	-10.0143
▁강력	-10.0144
▁주민들이	-10.0146
▁선거에서	-10.0146
▁원하는	-10.0153
▁기상	-10.017
업자	-10.0174
▁아름다	-10.0174
짝	-10.0175
롱	-10.0175
▁주인공	-10.0178
▁결론	-10.0188
6%	-10.0189
▁욕	-10.0196
▁있다며	-10.0196
▁주세요	-10.0199
▁카운티	-10.0206
▁진전	-10.0209
▁중요하다	-10.0211
▁축	-10.0218
▁재정	-10.0219
▁받기	-10.022
▁눈이	-10.0221
▁발생했다고	-10.0221
▁치안	-10.0228
▁중요	-10.0232
픈	-10.0234
▁지역을	-10.0234
▁진술	-10.0234
▁늦게	-10.024
▁다이애나	-10.024
▁흥분	-10.024
▁게이츠	-10.024
▁소장	-10.0242
▁이익	-10.0242
▁개봉	-10.0246
▁봉	-10.0251
냈	-10.0257
▁크기	-10.0258
▁대책	-10.0258
▁언	-10.0262
▁불어	-10.0263
▁조작	-10.0269
▁꽃	-10.0274
▁당신들	-10.0278
▁선포	-10.029
19	-10.0293
▁대표는	-10.0297
▁군부	-10.0297
▁홈	-10.0301
주일	-10.0302
▁못하게	-10.0304
▁떠났다	-10.0305
▁썼다	-10.0305
떼	-10.0305
렛	-10.0305
웰	-10.0305
컬	-10.0305
▁엄	-10.0314
▁인식	-10.0314
웨	-10.0315
▁출마	-10.032
▁결심	-10.0322
▁예산	-10.0324
▁70	-10.0328
▁기준	-10.0329
경제	-10.0336
▁화성	-10.034
국장은	-10.0343
장의	-10.0344
▁공군	-10.0345
특	-10.0345
▁적은	-10.0348
베르	-10.035
▁차기	-10.0351
니아	-10.0355
세트	-10.0357
▁벗	-10.0367
수는	-10.0371
▁우크라이나	-10.0371
▁플레이	-10.0378
▁무시	-10.0385
▁생각이	-10.0387
아야	-10.0394
▁회원	-10.0396
▁장군	-10.04
▁보지	-10.04
만명이	-10.04
자들의	-10.0401
희	-10.0407
▁교사	-10.0407
▁대량	-10.0407
▁이민	-10.0408
▁내에	-10.0414
▁가르	-10.0415
▁서서	-10.0415
곤	-10.0416
선거	-10.0417
였다고	-10.0429
80	-10.0431
▁박사	-10.0431
▁회담에서	-10.0432
▁동맹	-10.0435
▁보면	-10.0436
▁협정	-10.0437
▁할리우드	-10.0437
▁본부	-10.0442
▁추측	-10.045
▁소식이	-10.0457
▁민주	-10.0459
▁강연	-10.0466
▁피해자	-10.0471
욕	-10.0476
▁화학	-10.0481
년이	-10.0482
펜	-10.0482
벽	-10.0483
▁주로	-10.0489
보호	-10.049
연합	-10.0492
▁약속했다	-10.0492
▁차지했다	-10.0499
`	-10.0504
▁활용	-10.0504
라운드	-10.0504
▁비상	-10.0506
조치	-10.0507
▁이송	-10.0508
▁얼음	-10.0508
▁절반	-10.051
자들에게	-10.0513
▁일주일	-10.0516
▁절차	-10.0517
▁복용	-10.0517
▁올렸다	-10.0517
▁물이	-10.0521
객들	-10.0522
▁요구한	-10.0524
생활	-10.0527
▁총재	-10.0528
▁팬	-10.0542
었을	-10.0556
멸	-10.0571
▁왕세자	-10.0571
▁묘사	-10.0572
해서는	-10.0575
▁도망	-10.0585
▁개입	-10.0586
▁대화를	-10.0588
▁희	-10.0588
▁여성들	-10.0589
짜리	-10.059
▁뿐이다	-10.0592
▁시합	-10.0592
700	-10.0594
▁법안을	-10.0606
▁수리	-10.0608
▁유사	-10.061
웨이	-10.0613
▁공공	-10.0618
▁선적	-10.062
꺼	-10.062
TV	-10.0626
▁체포됐다	-10.0629
▁하락했다	-10.0634
아서	-10.0634
▁돈이	-10.0635
시설	-10.0645
▁통치	-10.0649
▁당선인은	-10.0652
ies	-10.0652
시킨	-10.0653
혔	-10.0662
▁지도자인	-10.0662
▁초대	-10.0666
▁않다고	-10.0667
▁성인	-10.0667
▁지켜	-10.0678
주는	-10.0682
▁즉각	-10.0689
▁헬	-10.0691
▁망명	-10.0692
세계	-10.0693
만큼	-10.0693
▁윌	-10.0696
결과	-10.0698
멘	-10.0704
]	-10.0706
▁외무장관	-10.0706
▁조종사	-10.0707
▁떨어지	-10.0707
공격	-10.0708
로써	-10.0708
▁기구	-10.0709
▁동봉	-10.0711
▁오픈	-10.0712
▁점령	-10.0713
▁일치	-10.0716
▁날아	-10.0716
▁되기	-10.0722
▁노출	-10.0724
▁숨진	-10.0726
었으나	-10.073
버그	-10.0731
▁연루	-10.0731
▁목표로	-10.0732
▁인정했다	-10.0739
▁문제로	-10.0742
▁프	-10.0742
▁연설에서	-10.0745
▁앞에	-10.0745
▁집계	-10.0746
▁등이	-10.075
▁원조	-10.0752
▁공기	-10.0767
▁소말리아	-10.0775
▁찾고	-10.0775
▁밝혀지지	-10.0776
▁이사	-10.0776
▁보낼	-10.0784
▁않기	-10.0784
▁잭슨	-10.0785
산업	-10.0797
▁괴	-10.0797
▁희생	-10.0797
▁휴전	-10.0798
▁상황에	-10.0802
▁나토	-10.0806
▁밖에서	-10.0807
▁미국인들	-10.0807
▁변호	-10.0809
▁촉구	-10.0809
▁한국은	-10.0809
▁보상	-10.0816
▁아카데미	-10.0825
▁의무	-10.0833
▁초기	-10.0834
▁솔	-10.0841
▁당선자	-10.0842
▁겪고	-10.0844
▁일으키	-10.0844
▁BBC	-10.0845
빛	-10.0845
▁싸움	-10.0845
▁지지율	-10.085
▁노벨	-10.0851
▁없다는	-10.0855
▁대기	-10.0856
▁야기	-10.0858
▁사상자	-10.0861
▁밑	-10.0863
께	-10.0866
지르	-10.0867
▁무리	-10.0871
▁집권	-10.0871
=	-10.0882
▁개정	-10.0899
둘	-10.0906
▁알지	-10.0907
▁세상	-10.0907
폭탄	-10.091
▁숫자	-10.0913
▁신화통신	-10.0913
▁쏟아	-10.0913
▁스티븐	-10.0913
▁부동산	-10.0913
um	-10.0914
▁블랙	-10.0914
▁평양	-10.0922
▁데이	-10.0924
▁기능	-10.0931
▁사람이다	-10.0931
ex	-10.0932
되면	-10.0934
겼	-10.0936
▁분리	-10.0936
▁방법으로	-10.0939
▁본사	-10.0941
장관은	-10.0946
▁우주선	-10.0946
▁혼자	-10.0954
해야만	-10.0965
즈는	-10.0969
쁘	-10.0981
▁매장	-10.0983
▁제외	-10.0985
tor	-10.0993
▁뛰	-10.1
▁영화제	-10.1002
▁대체	-10.1007
▁돌아오	-10.1015
▁모습	-10.102
월까지	-10.102
조차	-10.1023
▁장식	-10.103
최	-10.1036
주간	-10.1036
▁물었다	-10.1038
mo	-10.1039
였으며	-10.1039
▁150	-10.104
님	-10.105
▁상황에서	-10.1051
국인	-10.1052
값	-10.1052
▁이루	-10.1053
닉	-10.1054
렉	-10.1054
▁말레이시아	-10.1054
▁침체	-10.1054
▁둔	-10.1054
▁운송	-10.1054
▁앨범	-10.1055
▁형태	-10.1057
▁통화	-10.1058
▁흉	-10.1063
▁벗어나	-10.1069
검	-10.1071
▁대표팀	-10.1071
▁저는	-10.1078
▁다쳤다	-10.1087
▁장치	-10.1089
▁예방	-10.1092
▁심한	-10.1094
▁안다	-10.1094
▁지급	-10.1096
▁밥	-10.1096
▁때문	-10.1101
ho	-10.1115
▁보이	-10.1116
▁밖으로	-10.1125
▁받아들일	-10.1125
▁페일린	-10.1125
▁병원에서	-10.1125
▁의문	-10.1126
▁고속도로	-10.1126
▁국제사회	-10.1128
▁실시된	-10.1129
▁걸려	-10.113
▁힘든	-10.1131
든지	-10.1135
▁산불	-10.1136
▁트레	-10.1139
▁날이	-10.1142
▁핵심	-10.1145
시다	-10.1146
▁구체적인	-10.1148
▁말리키	-10.1149
▁아베	-10.1153
▁달성	-10.1157
▁노동자들	-10.116
▁시청	-10.116
▁기반	-10.1164
▁맛	-10.1168
▁세우	-10.1176
타임	-10.1181
▁안에서	-10.119
25	-10.1195
램	-10.1196
릿	-10.1196
▁권고	-10.1202
▁철회	-10.1206
ity	-10.1211
▁유감	-10.1212
져야	-10.1214
뉴	-10.1215
▁만난	-10.1218
▁교체	-10.122
▁일하는	-10.1227
▁거두	-10.123
▁모자	-10.1238
▁톰	-10.1245
▁포장	-10.1247
▁신호	-10.1248
자리	-10.1258
▁클라	-10.1264
V	-10.1266
뤄	-10.1267
혜	-10.1268
▁붉은	-10.1268
▁얻기	-10.1268
▁믿는다	-10.1268
▁스위스	-10.1268
▁청와대	-10.1268
겠지만	-10.1271
▁선거운동	-10.1272
▁진입	-10.1276
▁가자	-10.1277
▁끝난	-10.1277
▁가입	-10.1287
▁성격	-10.1289
▁NASA	-10.1293
▁형성	-10.1293
▁강요	-10.1295
▁체포했다	-10.1297
원의	-10.1301
▁해고	-10.1306
▁밴	-10.1306
▁주민들은	-10.1307
부분	-10.1312
▁주는	-10.1313
▁위기에	-10.1315
▁우선	-10.1319
▁소식통은	-10.1323
▁제공할	-10.1324
ess	-10.1333
라이트	-10.1334
▁소지	-10.1338
▁하나를	-10.1338
▁방어	-10.1339
▁기도	-10.1339
탑	-10.134
틸	-10.134
▁토요일	-10.1341
▁비상사태	-10.1341
▁가까이	-10.1342
▁힐튼	-10.1342
대회	-10.1342
▁혁명	-10.1343
▁가량	-10.1345
▁무사	-10.1345
▁대표단	-10.1347
됐고	-10.135
▁의자	-10.1361
▁언어	-10.1361
▁상상	-10.1363
원들이	-10.1364
▁시작됐다	-10.1365
▁보이고	-10.1367
▁폐기	-10.1369
▁마라	-10.1375
▁외교부	-10.1376
야만	-10.138
짜	-10.1384
▁알았다	-10.1392
자마자	-10.1396
▁도달	-10.1404
age	-10.1405
끄	-10.1412
흘	-10.1413
▁있으나	-10.1413
▁스티브	-10.1414
▁설득	-10.1415
▁참석한	-10.1418
▁물품	-10.142
▁장악	-10.1423
▁구글	-10.1426
39	-10.1428
▁형제	-10.1432
▁집으로	-10.1435
상에	-10.1437
항공	-10.1438
▁지적	-10.1439
▁경찰서	-10.1439
대학	-10.1443
▁와서	-10.1458
장인	-10.1462
▁신체	-10.1465
▁블로그에	-10.1467
▁호소	-10.1468
▁영상	-10.1475
▁상당	-10.148
▁의도	-10.148
▁중국이	-10.1482
흥	-10.1486
▁올메르트	-10.1487
▁하워드	-10.1487
▁거짓말	-10.1488
▁억류	-10.1488
▁공중	-10.1489
우드	-10.1492
▁Korean	-10.1494
ry	-10.1494
휴	-10.1497
▁변경	-10.1501
사인	-10.1502
▁사무	-10.1506
▁웹사이트에	-10.1506
홀	-10.1507
▁영국에서	-10.1522
▁윌리엄스	-10.1523
버리	-10.1524
▁차가	-10.1528
▁현금	-10.1531
켜	-10.1531
▁후보로	-10.1533
현지	-10.1538
▁보안관	-10.154
▁위원장	-10.154
▁재미	-10.1555
춘	-10.1558
▁넓	-10.1559
▁네덜란드	-10.1561
▁수니파	-10.1561
수로	-10.1563
함으로써	-10.1564
▁꿈	-10.157
▁감축	-10.157
▁만날	-10.1575
▁비교적	-10.1576
▁물러	-10.158
▁수반	-10.1583
▁상업	-10.1585
▁임금	-10.1591
▁대출	-10.1598
▁당한	-10.16
▁지도부	-10.1605
▁대북	-10.1605
▁통합	-10.1614
탕	-10.1617
하였	-10.162
웅	-10.1634
▁협조	-10.1636
▁South	-10.1636
▁마음을	-10.1636
▁쇼핑	-10.1637
▁줄어들	-10.1638
▁부인했다	-10.1638
▁서한	-10.1639
▁음반	-10.1639
간에	-10.165
▁민간	-10.165
po	-10.1653
▁In	-10.1654
▁세워	-10.1654
드라	-10.1655
cat	-10.1666
▁간단	-10.1666
지수	-10.1669
▁위원장은	-10.167
▁책상	-10.1671
▁북한과	-10.1671
▁결혼식	-10.1677
▁내각	-10.1677
▁후반	-10.168
▁받아야	-10.1688
▁정부군	-10.1688
▁영향력	-10.1689
▁자산	-10.1691
sp	-10.1702
딜	-10.1711
▁리버풀	-10.1711
▁찾았다	-10.1711
픽	-10.1711
▁착수	-10.1712
▁당신측의	-10.1714
▁직후	-10.1714
▁혹은	-10.1717
▁출석	-10.1718
▁각종	-10.1719
기술	-10.172
▁경찰과	-10.1721
▁알려지	-10.1722
▁성과	-10.1722
▁파악	-10.1722
kg	-10.1722
▁명예	-10.1722
▁식당	-10.1725
▁사례	-10.1727
▁부담	-10.173
▁요원	-10.1731
▁지시	-10.1732
▁부근	-10.1733
전에서	-10.1733
풀	-10.1734
▁인류	-10.1735
▁미군은	-10.1739
논	-10.174
▁사살	-10.1764
▁요구하는	-10.1766
▁포함해	-10.1767
▁주장하는	-10.1769
▁곳으로	-10.1772
hi	-10.178
▁남성이	-10.1782
▁징역	-10.1784
▁크리스토퍼	-10.1787
쯤	-10.1787
▁데리고	-10.1788
▁발굴	-10.1789
▁음모	-10.1793
▁연합군	-10.1795
▁경기에	-10.1798
▁증권	-10.1799
▁식품	-10.18
ard	-10.1802
▁이와같	-10.1803
▁상세	-10.1804
▁파도	-10.1812
▁탐사	-10.1813
▁못하는	-10.1816
▁군인들	-10.1818
주에서	-10.1831
64	-10.184
x	-10.1848
▁수백명	-10.1854
촌	-10.1862
럭	-10.1862
▁나섰다	-10.1863
▁명확	-10.1863
▁오히려	-10.1863
▁어깨	-10.1864
▁들어오	-10.1873
▁상당히	-10.1877
육	-10.1877
주의자	-10.1877
▁근처	-10.1879
▁기름	-10.1881
▁통지	-10.1881
▁얼	-10.1894
▁없게	-10.1898
ab	-10.1901
▁승무원	-10.1904
▁떨	-10.1906
▁주목	-10.1906
900	-10.1906
▁추적	-10.1908
over	-10.1909
▁유행	-10.191
▁강타	-10.1912
▁현장에	-10.1923
▁45	-10.1931
딩	-10.1938
▁정확히	-10.194
▁마이크	-10.1941
▁곤	-10.1953
▁고든	-10.1957
▁수상자	-10.1966
▁죽은	-10.1967
▁다수	-10.1967
▁죽었다	-10.1974
▁신임	-10.1974
▁나갔다	-10.1975
▁연관	-10.1977
▁파산	-10.1979
AN	-10.198
49	-10.1981
▁견해	-10.1983
▁하다	-10.1983
▁금리	-10.1998
ma	-10.2003
▁그들에게	-10.2007
▁그리	-10.2007
▁멸종	-10.2017
IAEA	-10.2017
▁캠프	-10.2017
놈	-10.2017
▁블레어	-10.2017
▁랭킹	-10.2017
▁자전거	-10.2018
joins	-10.2018
cnn	-10.2018
▁규제	-10.2019
▁폭격	-10.2023
▁한미	-10.2024
▁출판	-10.2024
▁원자로	-10.2025
됐지만	-10.2027
▁엔진	-10.2029
▁초청	-10.2034
▁400	-10.2036
▁추방	-10.2037
필드	-10.2041
어스	-10.2041
▁내린	-10.2043
ant	-10.2047
▁보조	-10.2048
▁수요	-10.2054
▁토니	-10.2058
▁서신	-10.2061
공사	-10.2063
▁보관	-10.2074
▁잇	-10.2079
▁끊임없	-10.2096
▁이밖에	-10.2096
▁있으면	-10.2096
▁녹음	-10.2102
▁맞추	-10.2105
▁예정이며	-10.2107
▁아부	-10.2107
원들은	-10.2108
▁경기장	-10.211
65	-10.2114
위원회는	-10.2117
주었다	-10.2118
▁척	-10.2118
▁말고	-10.2119
▁요리	-10.2124
▁삼성	-10.2126
죄	-10.2127
▁시절	-10.2128
▁소방	-10.2129
▁특별한	-10.2132
납	-10.2134
돈	-10.2134
▁품	-10.2136
400	-10.2137
▁뒤에	-10.2138
▁이루어	-10.2138
▁종이	-10.2142
준다	-10.2144
▁학생들이	-10.2145
으려고	-10.2146
략	-10.2148
▁희망한다	-10.2148
구역	-10.2162
이션	-10.2162
▁의장은	-10.2168
▁사무총장은	-10.2173
▁않지만	-10.2174
▁기독교	-10.2174
53	-10.2177
▁짓	-10.218
▁베이	-10.2189
▁만드는	-10.2192
▁간다	-10.2193
▁따르	-10.2195
▁사망했으며	-10.2196
▁수집	-10.2199
▁쓴	-10.2206
▁윤	-10.2207
▁강경	-10.2209
▁수백만	-10.2214
▁고대	-10.2217
▁어려	-10.2217
▁열리	-10.2218
계획	-10.2219
▁최소한	-10.2219
▁씨는	-10.2221
▁체포된	-10.2226
▁실시한	-10.223
▁스테	-10.223
없는	-10.2237
▁용기	-10.2247
▁장비	-10.2248
▁중국과	-10.225
66	-10.225
ction	-10.2253
▁아르헨티나	-10.2254
▁얻어	-10.2254
▁펜실베이니아	-10.2254
핀	-10.2254
셰	-10.2254
▁코소보	-10.2254
▁시리즈	-10.2254
▁탁신	-10.2254
▁맨유	-10.2254
▁태풍	-10.2256
▁크리스티	-10.2259
개월간	-10.2262
▁수용소	-10.2263
▁드립니다	-10.2266
▁기자회견	-10.227
▁훌륭한	-10.2272
받았다	-10.2282
▁구성된	-10.2283
▁이론	-10.2286
ha	-10.2286
▁일부는	-10.2287
▁의한	-10.2294
바르	-10.2296
▁모습이	-10.2299
주년	-10.2301
▁나갈	-10.2302
3000	-10.2306
▁무력	-10.2308
▁니콜라	-10.231
하고자	-10.2312
려는	-10.2315
▁열어	-10.2317
혁	-10.2327
▁다이아몬드	-10.2334
▁획득	-10.2334
▁샤리프	-10.2334
▁금요일	-10.2334
▁1999	-10.2337
▁에이즈	-10.2338
▁목록	-10.2339
▁달라	-10.234
▁편집	-10.234
▁치러	-10.2341
▁모르겠다	-10.2341
▁남겨	-10.2345
▁항구	-10.2353
까요	-10.2354
▁불편	-10.2356
ht	-10.2362
줬다	-10.2363
▁끝내	-10.2365
▁현장에서	-10.237
▁묵	-10.2374
러스	-10.2375
▁결승전	-10.2376
▁받는다	-10.2384
김	-10.2385
▁그중	-10.2389
▁투어	-10.2395
▁측은	-10.24
▁좋아하지	-10.2405
▁기자는	-10.2409
▁소프트웨어	-10.2414
▁스피어스	-10.2414
▁좋겠다	-10.2414
▁캠페인	-10.2414
한영사전	-10.2414
▁테이프	-10.2415
▁유치	-10.2416
▁대통령에게	-10.2417
▁탈출	-10.2419
▁있었으며	-10.2419
▁실패했다	-10.2421
▁화산	-10.2427
▁미국에	-10.2429
15	-10.2434
▁심문	-10.244
▁관여	-10.244
▁내릴	-10.2451
▁32	-10.2455
상은	-10.2457
윈	-10.2458
콜	-10.2462
맥	-10.2463
▁외교관	-10.2468
▁신중	-10.2478
▁정원	-10.2483
분간	-10.2491
▁않는다면	-10.2493
▁조사하고	-10.2493
돌리자	-10.2496
▁극장	-10.2497
▁구멍	-10.2498
▁감옥	-10.2499
▁극복	-10.2501
▁알려져	-10.2502
사태	-10.2503
▁칠	-10.2505
tp	-10.2509
▁보는	-10.2517
▁빼	-10.2518
원제	-10.2522
▁모임	-10.2528
벤	-10.2555
▁영국군	-10.2555
56	-10.2559
▁관광객들	-10.2577
▁흘러	-10.2578
▁첼시	-10.2578
▁습관	-10.2579
▁비교	-10.2579
▁순찰	-10.258
▁피곤	-10.2582
▁시점	-10.2586
▁너희들	-10.2587
▁작동	-10.2588
달하는	-10.2589
▁일리노이주	-10.2589
▁일반적으로	-10.2591
▁마음이	-10.2594
▁축제	-10.2595
▁서류	-10.2603
▁나누	-10.2612
▁이곳에서	-10.2612
▁이미지	-10.2612
52	-10.2621
▁옆	-10.2622
▁감기	-10.2624
▁입국	-10.2625
▁국방	-10.2635
뿐	-10.2636
12	-10.2636
▁생존자	-10.2639
▁올려	-10.2647
▁말라	-10.2653
흔	-10.2654
77	-10.2659
▁가구	-10.2659
Z	-10.266
2009.06	-10.266
▁엘리자베스	-10.266
://	-10.2661
▁헨리	-10.2661
7000	-10.2662
▁배럴	-10.2666
▁육군	-10.2667
▁일본은	-10.2669
되어야	-10.2674
나무	-10.2676
▁현실	-10.2681
▁영한	-10.27
▁원유	-10.2701
▁가리	-10.2706
빠	-10.2711
한국	-10.2721
▁V	-10.2721
▁호수	-10.2722
쓰	-10.2722
▁해결하기	-10.2726
작업	-10.273
▁학대	-10.2735
▁인하	-10.2739
컴	-10.2741
성에	-10.2743
랭	-10.2743
▁않게	-10.2744
▁옮겨	-10.2744
룰	-10.2744
▁세르비아	-10.2744
▁두려워	-10.2744
▁무가베	-10.2744
▁드라마	-10.2744
▁국회의원	-10.2748
▁네팔	-10.2748
47	-10.2749
▁직업	-10.2752
▁최선	-10.2758
▁구름	-10.2758
▁회사가	-10.2762
ear	-10.2763
▁귀국	-10.2767
▁버리	-10.2769
▁자신들이	-10.2775
▁들여	-10.2777
▁공포	-10.2785
개발	-10.2785
44	-10.2788
▁맥주	-10.2792
▁언급하지	-10.28
▁의식	-10.2806
▁해산	-10.2807
▁고소	-10.2808
칸	-10.2809
그룹	-10.281
▁멜	-10.2821
▁주석	-10.2826
꾼	-10.2827
튜	-10.2828
당했다	-10.2828
Total	-10.2828
code	-10.2828
▁다르다	-10.2829
▁피랍	-10.2831
들로부터	-10.2833
▁바람이	-10.2834
▁저항	-10.2836
▁낼	-10.2838
▁성향	-10.2838
▁멀	-10.2845
▁노예	-10.2847
▁넣었다	-10.2847
▁지정	-10.2855
▁소수	-10.2856
▁결승	-10.2878
▁벗어	-10.2879
ak	-10.2885
▁지지하는	-10.2886
▁주고	-10.2895
▁동물원	-10.2897
캐	-10.2897
▁조성	-10.2898
스티	-10.2898
▁전면	-10.2904
tr	-10.291
촉	-10.2911
州	-10.2912
눌	-10.2912
줘	-10.2912
▁기쁘다	-10.2912
▁아이디어	-10.2912
번째로	-10.2913
▁운항	-10.2913
▁업계	-10.2913
▁질환	-10.2917
▁폭풍우	-10.2918
▁생긴	-10.2919
▁돼	-10.2926
▁검색어	-10.2927
으로써	-10.2927
주세요	-10.2929
▁국제적	-10.293
장치	-10.2932
사항	-10.2935
시키려	-10.2941
out	-10.2947
▁즐기	-10.2949
▁요구하고	-10.2951
▁위험이	-10.2954
79	-10.2954
-3	-10.2954
느냐	-10.2957
▁수상했다	-10.2966
▁전개	-10.2966
늘	-10.2967
미터	-10.2969
▁Co	-10.2973
▁카드	-10.2979
버스	-10.2981
▁보러	-10.2993
사고	-10.2997
롬	-10.2997
▁맨체스터	-10.2998
▁모하메드	-10.2998
켄	-10.2998
▁바닥	-10.3008
▁지나갔다	-10.301
▁자택	-10.301
▁안된다	-10.3014
듯이	-10.3018
라스	-10.302
▁이란은	-10.3026
cm	-10.3031
▁학교에	-10.3033
▁10%	-10.3039
▁FBI	-10.3043
▁생각하지	-10.3045
▁요인	-10.3051
58	-10.3055
▁웹	-10.3057
▁250	-10.3062
▁제공하는	-10.3065
▁어린이들	-10.3068
농	-10.3077
헨	-10.3083
▁광장	-10.3083
▁알래스카	-10.3084
▁케네디	-10.3084
▁운반	-10.3086
▁침해	-10.3087
▁단순	-10.3089
▁귀하	-10.3092
▁생각하는	-10.3094
▁토론회	-10.3099
▁존슨	-10.3099
▁대리	-10.3106
▁보고했다	-10.3107
▁무료	-10.3108
▁Ch	-10.3109
포트	-10.3113
▁골프	-10.3113
▁샌	-10.3114
4000	-10.3115
▁등장	-10.3118
디아	-10.3119
▁조사에서	-10.3119
▁존중	-10.312
▁숲	-10.3121
▁했지만	-10.3123
▁고장	-10.3126
구나	-10.3139
▁#	-10.3141
▁가고	-10.3153
▁킹	-10.3157
짓	-10.3159
랍	-10.316
▁쓰는	-10.3163
검사	-10.3165
▁포함되어	-10.3167
▁장례식	-10.3171
▁휘발유	-10.3171
▁North	-10.3171
▁타격을	-10.3171
▁1998	-10.3173
▁철저	-10.3178
▁밀란	-10.3186
▁소환	-10.3186
연맹	-10.3189
▁지지자	-10.32
▁내용이	-10.3202
에선	-10.3204
▁있어야	-10.3224
▁클레	-10.3227
▁봐	-10.3229
▁생물	-10.3231
▁제안했다	-10.3237
z	-10.3239
답	-10.3242
인데	-10.3244
ud	-10.3245
ance	-10.3246
팔	-10.3248
▁프레	-10.3252
▁벌인	-10.3252
▁뼈	-10.3256
100	-10.3258
FARC	-10.3259
▁흡연	-10.3259
▁사드르	-10.3259
▁값	-10.3261
▁여기에서	-10.3261
▁유럽연합	-10.3262
▁주제	-10.3262
▁pro	-10.3262
▁전문가들	-10.3264
▁채택	-10.3265
▁고향	-10.3267
▁폭행	-10.3268
▁복제	-10.3268
▁영업	-10.327
▁MS	-10.328
▁인생	-10.3281
▁조합	-10.3284
▁행진	-10.3285
art	-10.3285
▁펜	-10.3287
▁남쪽	-10.329
지구	-10.3291
▁코트	-10.3295
▁살해한	-10.3296
겠	-10.3305
▁물가	-10.3308
our	-10.3309
▁치르	-10.3329
▁특사	-10.333
되자	-10.3335
▁나달	-10.3343
콩	-10.3344
▁가려	-10.3345
켈	-10.3346
▁DNA	-10.3347
▁자살폭탄테러	-10.3347
죠	-10.3347
콘	-10.3348
때문에	-10.3348
▁생일	-10.3349
▁루이스	-10.335
▁북극	-10.335
▁엄격	-10.335
놀	-10.3351
▁야생	-10.3357
▁방문할	-10.3365
▁감행	-10.3369
▁추산	-10.337
▁책임이	-10.3374
▁위원회는	-10.3389
46	-10.3393
▁총리와	-10.3393
▁잡아	-10.3394
국은	-10.3397
라드	-10.34
▁시장에서	-10.3409
▁수사관	-10.3412
▁대부분은	-10.3418
당국은	-10.3428
▁tr	-10.343
▁건축	-10.343
훔	-10.3436
▁드러났다	-10.3436
▁느낀다	-10.3436
닷컴	-10.3437
▁세계대전	-10.3437
▁아바스	-10.3437
▁날짜	-10.3439
▁1990	-10.344
▁먼	-10.3441
▁말하지	-10.3441
▁1980	-10.3442
▁교환	-10.3445
앞	-10.3447
▁졸업	-10.3448
▁체결	-10.3449
▁손에	-10.3451
▁지진으로	-10.3451
이든	-10.3454
▁테러로	-10.3457
국민	-10.3464
▁38	-10.3472
▁모여	-10.3481
▁후임	-10.3498
▁Re	-10.35
▁회담은	-10.3503
▁오하이오	-10.3504
▁사인	-10.3509
조직	-10.3511
▁기자들	-10.3514
▁어디에	-10.3519
▁싱가포르	-10.3527
▁이끌어	-10.3527
▁헤럴드	-10.3527
밍	-10.3527
콤	-10.3527
▁코미디	-10.3527
▁김정일	-10.3527
▁여지	-10.3529
연구소	-10.3534
▁금속	-10.3536
ong	-10.3536
베리	-10.3542
▁원하지	-10.3545
▁특정	-10.3545
슬리	-10.3546
▁것입니까	-10.3551
▁고발	-10.3554
82	-10.3558
▁의원들은	-10.3559
▁공개했다	-10.356
▁반발	-10.3569
▁중에는	-10.357
해질	-10.3572
들었다	-10.3577
▁키스	-10.3579
▁경험이	-10.3589
포드	-10.359
▁그때	-10.3595
▁성공했다	-10.3612
▁공화당의	-10.3614
59	-10.3616
넬	-10.3617
▁왼쪽	-10.3617
▁다니엘	-10.3617
▁노대통령	-10.3622
ain	-10.3623
▁지수는	-10.3623
▁대부분이	-10.3623
▁불참	-10.3626
▁방침	-10.3633
▁예전	-10.3634
▁내정	-10.3635
▁인민	-10.3644
된다고	-10.3648
▁영원	-10.3652
▁소식은	-10.3654
지역에	-10.3657
부시	-10.3665
▁상승했다	-10.3671
▁바라고	-10.3672
one	-10.3672
▁진행된	-10.3676
▁이후로	-10.3682
34	-10.3688
▁물에	-10.3693
▁행성	-10.3697
▁된다고	-10.3699
▁레이스	-10.3705
▁외부	-10.3705
▁사건과	-10.3705
번호	-10.3707
▁샌프란시스코	-10.3709
▁스콜세지	-10.3709
▁1997	-10.3709
▁습격	-10.3709
PA	-10.371
▁벌써	-10.371
▁장관이	-10.3711
▁관찰	-10.3714
▁철도	-10.3716
▁경선에서	-10.3718
▁놓았다	-10.3721
▁한국과	-10.3721
▁작용	-10.3724
▁파타	-10.3725
67	-10.3726
▁안개	-10.3727
▁자극	-10.373
▁테러범	-10.3731
▁지내	-10.3735
55	-10.3737
▁당연	-10.3742
시킨다	-10.3743
▁결과는	-10.3749
스토	-10.3749
▁불행	-10.3751
▁이르는	-10.3753
▁캘리포니아주	-10.3758
▁사장	-10.3763
바로	-10.3765
▁잔해	-10.3766
▁프라	-10.3768
▁방지	-10.3771
선생	-10.3775
▁지상	-10.3776
▁취할	-10.3781
24	-10.3781
닌	-10.3794
▁요르단	-10.3802
▁CEO	-10.3803
▁답변	-10.3804
▁입수	-10.3807
▁합류	-10.3809
▁마틴	-10.381
▁싸우	-10.3811
▁부서	-10.3812
▁영토	-10.3819
▁관중	-10.3823
▁반정부	-10.3824
▁체중	-10.3824
▁운명	-10.3827
▁소매	-10.3827
널	-10.3833
▁의학	-10.3837
▁세대	-10.384
▁이유는	-10.3845
머니	-10.3846
▁이하	-10.3847
▁해라	-10.3853
▁주지	-10.3864
▁총선에서	-10.3864
▁소니	-10.3867
▁스키	-10.3869
▁병사들	-10.3883
▁돼지	-10.3886
룬	-10.3887
68	-10.3892
▁유나이티드	-10.3895
▁콘서트	-10.3895
▁빠진	-10.3896
▁로봇	-10.3896
▁사용한	-10.3896
라이브	-10.3897
▁회견	-10.3898
▁과학자	-10.3899
▁소탕	-10.39
▁무죄	-10.3901
▁대사는	-10.3901
응	-10.3901
pe	-10.3902
ti	-10.3903
▁접속	-10.3904
▁세웠다	-10.3909
▁의료진	-10.3913
▁일으켰다	-10.3915
▁공식적으로	-10.3916
▁남북한	-10.3916
▁여러분	-10.3917
▁폐지	-10.3919
오늘	-10.3923
▁춤	-10.3924
▁낸	-10.3929
oll	-10.3929
▁가게	-10.393
▁美	-10.3932
ie	-10.3933
▁해도	-10.3933
▁런던에서	-10.3934
▁많아	-10.3941
▁시위자들	-10.3947
▁나오는	-10.3948
▁문장	-10.3948
ke	-10.3955
리그	-10.3972
▁맞지	-10.3973
부대	-10.3976
▁다음주	-10.3976
▁노력하고	-10.3977
▁위에서	-10.3977
▁모인	-10.3984
룩	-10.3989
▁일으킨	-10.399
▁샘플	-10.399
▁여자친구	-10.399
▁나토군	-10.3995
iv	-10.3996
▁차관	-10.4
▁맞서	-10.4
▁전투기	-10.4001
▁쏘	-10.4005
▁눈물	-10.4008
▁고기	-10.4021
▁중재	-10.4021
▁남자가	-10.4023
▁상어	-10.4033
▁서방	-10.4033
▁is	-10.4034
▁배경	-10.4037
▁불리는	-10.4042
해줄	-10.4052
▁요구에	-10.406
▁""	-10.4061
변화	-10.4063
적이고	-10.4069
▁포드	-10.4072
하세요	-10.4073
▁신분	-10.4075
▁감독이	-10.4075
41	-10.4079
▁Iraq	-10.4085
▁John	-10.4085
▁with	-10.4085
▁뉴질랜드	-10.4085
▁됩니다	-10.4085
▁모스크바	-10.4085
겸	-10.4085
▁베트남	-10.4085
▁페르베	-10.4085
IOC	-10.4085
▁피아노	-10.4085
▁벌어진	-10.4085
▁사냥	-10.4089
▁새벽	-10.4091
▁걸릴	-10.4092
▁카페	-10.4096
▁기존	-10.4098
위원장	-10.4109
▁입양	-10.4111
칼	-10.4113
삼	-10.4114
▁니콜	-10.4114
▁측정	-10.4114
▁아르	-10.4128
16	-10.414
mp	-10.4148
▁시장에	-10.415
시대	-10.4157
당국	-10.4158
76	-10.4163
▁검색	-10.417
▁예상했다	-10.4171
▁생기	-10.4172
깊	-10.4173
▁중국에서	-10.4173
▁기대하고	-10.4175
▁샀다	-10.4181
▁않았으며	-10.4181
▁텔레비전	-10.4181
셉	-10.4181
▁힉스	-10.4181
▁론스타	-10.4181
▁이메일	-10.4183
▁맞춰	-10.4183
▁민족	-10.4184
▁부족하다	-10.4184
18	-10.4185
▁나누어	-10.4187
▁결정은	-10.4187
▁상대방	-10.419
▁협회	-10.4191
▁행정	-10.4191
▁주간	-10.4193
▁폭동	-10.4193
300	-10.4194
▁건강에	-10.4195
▁우편	-10.4198
▁것인가	-10.42
함에따라	-10.4202
▁몰려	-10.4202
▁오염	-10.4204
회담	-10.4204
봐	-10.4209
ial	-10.4211
▁내전	-10.4218
EU	-10.4219
▁에이	-10.4221
듯	-10.4222
츠는	-10.4229
▁나올	-10.4239
▁방문했다	-10.4244
생물학	-10.4252
▁마지막으로	-10.4255
▁su	-10.4256
▁목격자	-10.4257
▁중이라고	-10.4268
▁쓰고	-10.4268
▁앨	-10.4269
▁주위	-10.4271
첨	-10.4275
첩	-10.4278
넷	-10.4278
▁포르투갈	-10.4278
▁핵실험	-10.4278
▁훼손	-10.4278
톱	-10.4278
▁CBS	-10.4278
▁완벽	-10.4279
▁농담	-10.4281
BA	-10.4284
됐을	-10.4284
14	-10.4286
▁압둘라	-10.4296
der	-10.4299
▁일본에서	-10.4299
▁첫번째	-10.4301
▁밀어	-10.4303
▁동반	-10.4304
▁매력	-10.4306
▁생존	-10.4307
▁소요	-10.4316
▁토지	-10.4317
려서	-10.4317
▁주에서	-10.4318
▁시작한	-10.4321
▁도착할	-10.4328
▁증가하고	-10.4328
▁예비	-10.4329
▁몸에	-10.4331
▁크다	-10.4339
▁북쪽	-10.434
▁회의에서	-10.4341
모든	-10.4347
81	-10.4347
비행	-10.4349
ta	-10.4358
▁오브	-10.4361
쾌	-10.4365
▁농장	-10.4367
▁금년	-10.4371
삭	-10.4376
▁뿌리	-10.4376
▁우라늄	-10.4376
밭	-10.4376
아메리칸	-10.4376
▁파트너	-10.4376
PPP	-10.4376
▁빠졌다	-10.4376
▁시라크	-10.4376
▁셔츠	-10.4376
▁여자아이	-10.4377
▁사이클론	-10.4377
▁테니스	-10.4378
▁타임스	-10.4379
▁봤다	-10.4381
ational	-10.4381
▁워싱턴에서	-10.4382
▁새끼	-10.4383
조원	-10.4387
▁넣어	-10.4387
▁회의에	-10.4388
90	-10.4388
▁의존	-10.4391
▁격차	-10.4398
▁대항	-10.4401
▁통계	-10.4409
Al	-10.4417
▁우유	-10.4418
AP	-10.442
▁지목	-10.4421
▁일간	-10.4424
▁산타	-10.4431
▁옆에	-10.4431
IS	-10.4438
ang	-10.4445
지수는	-10.4448
만약	-10.4449
▁사법	-10.4451
▁풀어	-10.4451
man	-10.4451
▁의회에	-10.4456
54	-10.4456
▁아동	-10.4461
▁에어	-10.4465
레나	-10.4466
타르	-10.4473
턱	-10.4475
헐	-10.4475
▁매들린	-10.4475
▁아일랜드	-10.4475
▁낭비	-10.4475
▁9.11	-10.4475
▁적극적	-10.4477
▁송환	-10.4477
▁돌아올	-10.4479
▁관람	-10.448
▁데이터	-10.448
▁없으며	-10.4484
▁장착	-10.4486
▁환호	-10.4486
▁폭우	-10.4492
▁주지사가	-10.4493
▁회원국	-10.4501
전문	-10.4505
▁발표된	-10.4506
차전	-10.4507
▁관점	-10.451
앤	-10.4521
▁상공	-10.4521
▁생각해	-10.4522
▁불과	-10.4522
▁어렵	-10.4524
▁비용이	-10.4532
상황	-10.4537
▁출시	-10.4538
▁제도	-10.4542
시켰	-10.4542
▁유력	-10.4547
▁군중	-10.4566
학생	-10.4567
▁부근에서	-10.4569
▁투자자들	-10.4569
▁페이지	-10.4572
빗	-10.4575
곰	-10.4575
뚱	-10.4575
엑	-10.4575
▁머리카락	-10.4575
▁열린우리당	-10.4575
갱	-10.4575
▁특파원	-10.4575
▁이번주	-10.4576
하였으나	-10.4577
▁이곳에	-10.4579
▁리콜	-10.4579
▁폭락	-10.4581
▁성관계	-10.4586
▁리비아	-10.4586
▁부탁	-10.4592
▁민주화	-10.4597
▁눈에	-10.4599
▁봉사	-10.4601
▁걸리	-10.4603
ts	-10.4606
▁검은	-10.4607
▁윈	-10.4612
▁보증	-10.4612
죽	-10.4615
더스	-10.4617
▁사실상	-10.4619
▁처해	-10.4622
민주당	-10.4629
▁거주하는	-10.4631
▁빅	-10.4632
▁웨스트	-10.4641
▁경보	-10.4641
▁정말로	-10.4643
스런	-10.4644
▁사실은	-10.4646
▁정리	-10.4648
▁중부	-10.4649
▁[	-10.4659
퀴	-10.4669
없	-10.4671
쇠	-10.4674
▁갖게	-10.4676
▁마찬가지	-10.4676
▁느껴	-10.4676
▁천천히	-10.4676
스테	-10.4676
▁의미한다	-10.4677
▁붙잡	-10.4678
▁개막	-10.4687
▁호텔에서	-10.4687
▁학살	-10.4687
▁50%	-10.4688
▁자랑	-10.4688
▁점심	-10.4694
▁부채	-10.4702
de	-10.4703
▁각국	-10.4704
▁성화	-10.4708
▁포경	-10.4708
85	-10.4711
시오	-10.4713
▁회장이	-10.4716
▁재건	-10.4717
▁광산	-10.472
▁돌보	-10.4721
▁해양	-10.4728
▁거행	-10.4728
▁중간	-10.4734
괴	-10.4734
▁다우	-10.474
자들과	-10.4745
▁해결할	-10.4759
▁손님	-10.4766
▁근로자	-10.477
▁먼지	-10.4775
낭	-10.4778
덜	-10.4778
UEFA	-10.4778
▁온난화	-10.4778
해리포터	-10.4778
▁엄청	-10.4782
▁측근	-10.4782
▁회담에	-10.4784
되었고	-10.4787
▁2010	-10.4787
▁무선	-10.479
▁전보	-10.4792
정도	-10.4795
▁방영	-10.4798
▁그래서	-10.4806
▁비율	-10.4809
▁좁	-10.4814
co	-10.4815
▁청년	-10.4816
▁지식	-10.4817
▁적절한	-10.482
년에는	-10.4822
▁대결	-10.4824
▁지나치	-10.4828
▁표면	-10.4834
윤	-10.4835
▁로비	-10.4836
▁신용장	-10.4839
▁담당자	-10.4842
아버지	-10.4843
▁만화	-10.4846
▁오른쪽	-10.4846
▁사장은	-10.485
▁니	-10.4864
▁한다면	-10.4865
▁다루	-10.4867
▁잡고	-10.4869
▁희생자들	-10.487
▁불리	-10.4872
브레	-10.4873
노동	-10.4878
▁고등학교	-10.4881
▁스웨덴	-10.4881
댄	-10.4881
렐	-10.4881
▁오스트리아	-10.4881
▁국제유가	-10.4882
port	-10.4882
▁억제	-10.4884
▁전통적	-10.4885
▁디자인	-10.4887
▁기업들	-10.489
▁할머니	-10.489
▁확실한	-10.4891
▁터키군	-10.4897
▁맡았다	-10.4897
▁미국측	-10.4898
▁잡았다	-10.4898
▁안보리	-10.4898
▁온도	-10.4904
▁전날	-10.4908
▁풀려	-10.4913
▁부여	-10.4913
▁AC	-10.4915
▁언제나	-10.4917
▁고무	-10.4918
▁거쳐	-10.4919
▁계속되고	-10.4923
▁적군	-10.4924
므로	-10.4938
▁사건으로	-10.494
▁중독	-10.4948
▁한국군	-10.4952
▁상호	-10.4954
▁구금	-10.4954
학과	-10.4955
▁오지	-10.4964
▁호세	-10.4965
▁취하	-10.4965
쌍	-10.4985
▁페더러	-10.4985
셋	-10.4985
▁반기문	-10.4986
▁가볍	-10.4986
▁침입	-10.4986
▁심지어	-10.4986
▁특징	-10.4987
▁용납	-10.4987
▁다섯	-10.4987
▁감사합니다	-10.4994
▁이해할	-10.5002
▁준다	-10.5002
▁취재	-10.5003
▁놓여	-10.5005
▁메이	-10.5007
▁도시에서	-10.501
▁시골	-10.5011
av	-10.5011
▁학교에서	-10.5012
▁여행객	-10.5015
▁보트	-10.5022
▁후원	-10.5025
▁리그	-10.5026
▁복구	-10.5031
▁양보	-10.5037
▁기부	-10.5037
민주	-10.5038
▁통신은	-10.5038
▁뱀	-10.5041
▁통상	-10.5042
-2	-10.5043
▁열정	-10.5051
84	-10.5055
리스트	-10.5056
가족	-10.5068
그들은	-10.5083
춰	-10.5089
껏	-10.5089
▁심슨	-10.509
▁펼쳐	-10.5091
▁헤즈볼라	-10.5091
▁CIA	-10.5091
▁다우존스	-10.5091
▁우주비행사	-10.5091
첸	-10.5091
▁삭제	-10.5091
▁배심원	-10.5091
▁봉쇄	-10.5091
▁즐겁	-10.5092
▁사무총장	-10.5093
▁도둑	-10.5093
▁주식시장	-10.5093
▁향후	-10.5096
▁추정되는	-10.5097
▁기원	-10.5104
▁가야	-10.5117
""	-10.5118
▁도입	-10.5119
▁스타일	-10.5126
45	-10.5126
▁변했다	-10.5128
▁존경	-10.5128
▁알려주	-10.5128
네스	-10.5132
▁청구	-10.5135
▁드러	-10.5137
▁지수	-10.514
위기	-10.514
▁소문	-10.5151
본부	-10.5152
▁손해	-10.5157
수사	-10.516
▁보아	-10.5163
▁공유	-10.5164
▁주소	-10.5171
▁최초로	-10.5177
▁들어간	-10.5177
▁피부	-10.5188
▁정식	-10.519
▁태평양	-10.519
섭	-10.5192
중이다	-10.5195
깔	-10.5196
▁끝났다	-10.5197
▁협박	-10.5197
렁	-10.5197
▁해병대	-10.5198
▁하원의원	-10.52
▁중대한	-10.52
▁돌아왔다	-10.52
▁음료	-10.5201
▁레알	-10.5202
배우	-10.5202
▁영변	-10.5203
▁금액	-10.5203
▁움직	-10.5207
▁분열	-10.5214
조건	-10.5215
관련	-10.5221
▁졸	-10.5223
▁단속	-10.5225
▁반복	-10.523
▁발병	-10.5238
스틴	-10.5243
안전	-10.5246
▁세포	-10.5247
▁알렸다	-10.5248
▁거절했다	-10.5253
못	-10.5274
자료	-10.5278
▁빵	-10.5278
▁목격자들	-10.528
▁만들어진	-10.5281
▁동의했다	-10.5294
▁무사콸라	-10.5305
큐	-10.5305
▁냄새	-10.5305
▁원칙	-10.5308
▁탁자	-10.5308
▁곳이	-10.531
▁올린	-10.5314
▁합동	-10.5316
▁근로자들	-10.5317
▁동생	-10.5328
▁멀리	-10.5332
▁체계	-10.5332
▁초래	-10.5333
99	-10.5335
▁바그다드에서	-10.534
▁선발	-10.534
▁일어났다	-10.5351
내내	-10.5352
대체	-10.5357
십시오	-10.5366
▁위조	-10.5366
▁피우	-10.5371
▁있었고	-10.5381
▁처음이다	-10.5382
▁답했다	-10.5399
▁그곳에	-10.54
▁책임자	-10.5401
▁공화국	-10.5407
▁현재까지	-10.5407
미군	-10.5409
ure	-10.541
▁달라이라마	-10.5413
▁블라고예비치	-10.5413
▁FTA	-10.5413
▁다르푸르	-10.5413
▁태어난	-10.5413
▁혜택	-10.5413
▁여학생	-10.5416
▁것이라며	-10.542
▁없지만	-10.5424
▁엘리	-10.5427
▁출산	-10.5428
▁불평	-10.5429
▁입증	-10.5439
▁그날	-10.5443
▁특수	-10.5443
▁경찰서장	-10.5448
▁특별히	-10.5448
▁표했다	-10.5449
▁집안	-10.5453
▁경쟁자	-10.5459
▁지진이	-10.546
▁한때	-10.5471
▁걸린	-10.5475
▁불가능	-10.5477
▁36	-10.5479
▁방식으로	-10.5483
▁자리에서	-10.5483
▁끈	-10.5495
63	-10.5503
▁경력	-10.551
▁권한	-10.5512
▁이스라엘과	-10.5515
▁난다	-10.5515
▁네트워크	-10.5523
▁느낄	-10.5523
뻔	-10.5523
섞	-10.5523
현지시각	-10.5523
▁적십자	-10.5523
▁재무장관	-10.5523
▁리차드	-10.5523
▁일환으로	-10.5523
▁손가락	-10.5523
▁호랑이	-10.5523
▁촉진	-10.5524
▁공산당	-10.5524
▁NBC	-10.5524
▁재단	-10.5529
▁건너	-10.5534
26	-10.5535
▁항소	-10.5539
▁노동당	-10.5541
▁편안	-10.5543
적이다	-10.5544
▁사막	-10.5544
▁위대	-10.5547
▁매각	-10.5547
▁본다	-10.5548
▁자세한	-10.5554
▁식물	-10.5557
▁도울	-10.5558
▁시각	-10.5566
▁말합니다	-10.5567
▁여권	-10.5569
▁향상	-10.557
78	-10.5577
▁무게	-10.5577
▁사람들과	-10.5581
제품	-10.5582
였지만	-10.5592
굴	-10.5606
따	-10.5613
워서	-10.5615
▁시위대는	-10.5623
현재	-10.5628
덩	-10.5634
▁원숭이	-10.5634
▁쿠데타	-10.5634
렘	-10.5634
▁나이지리아	-10.5634
기록	-10.5635
▁용의자들	-10.5636
▁투쟁	-10.5638
6000	-10.5638
▁곤란	-10.5639
▁면담	-10.564
▁남아공	-10.5642
축구	-10.5645
▁누리	-10.5661
▁에드	-10.5663
▁수감자	-10.5663
▁수송	-10.5664
▁마쳤다	-10.567
▁배출	-10.567
▁모색	-10.5673
▁발생하지	-10.5674
▁걸었다	-10.5677
▁빌려	-10.5682
▁발행	-10.5682
▁조류	-10.5682
▁선언했다	-10.5682
▁제조업체	-10.5685
왔으며	-10.5687
▁높아	-10.5694
▁골드	-10.5699
▁발간	-10.5699
▁가방	-10.5701
▁공간	-10.5702
▁조용	-10.5703
꾸	-10.5719
▁최저	-10.5722
▁체제	-10.5723
팬	-10.5729
ell	-10.5729
▁딕	-10.5732
유럽	-10.5741
듬	-10.5747
▁예루살렘	-10.5747
▁있겠	-10.5747
▁크라이슬러	-10.5747
넨	-10.5747
퀸	-10.5747
FRB	-10.5747
▁마카오	-10.5747
▁정거장	-10.5747
▁페인트	-10.5747
▁회답	-10.5748
▁택시	-10.5749
▁빈곤	-10.5749
▁영웅	-10.5749
▁마침내	-10.575
▁필립	-10.5751
▁쉽지	-10.5752
mm	-10.5752
▁치명적	-10.5756
▁강풍	-10.5757
21	-10.5759
▁주기	-10.5762
▁목적으로	-10.5769
▁테러리스트	-10.5774
라이프	-10.5781
▁세부	-10.5783
▁치러진	-10.5788
▁동맹국	-10.5788
슬러	-10.579
▁대학교	-10.5792
우주	-10.5792
▁재난	-10.5794
후드	-10.5799
▁승리했다	-10.5799
▁해석	-10.5806
▁물어	-10.581
▁진화	-10.5812
▁교역	-10.5815
▁대선에서	-10.5822
▁주최	-10.5832
▁상당한	-10.5842
ca	-10.5842
▁가상	-10.5851
께서	-10.5855
▁제기했다	-10.5858
▁산다	-10.5858
랙	-10.586
펴	-10.586
▁디자이너	-10.586
▁밝히고	-10.586
갤	-10.586
엉	-10.586
틱	-10.586
▁느낌	-10.586
▁빼앗	-10.5861
▁아이오와	-10.5861
▁겨우	-10.5861
▁파이프	-10.5862
스럽다	-10.5862
▁두바이	-10.5862
ood	-10.5863
▁저희	-10.5865
▁핵시설	-10.5865
▁너무나	-10.5866
ence	-10.5866
▁고려해	-10.5867
▁물고기	-10.5868
어요	-10.5868
▁시드니	-10.5869
▁들어왔다	-10.5869
▁북미	-10.5869
▁범위	-10.587
▁합병	-10.587
▁통해서	-10.5871
▁출동	-10.5875
▁낸시	-10.5879
지금	-10.5879
버린	-10.5879
▁유전	-10.588
▁할지	-10.5891
▁미소	-10.5892
▁이루어지	-10.5894
됐었다	-10.5896
워터	-10.5903
요원	-10.5904
▁못해	-10.5907
▁뉴욕에서	-10.591
▁없고	-10.5917
▁실업	-10.5918
▁날개	-10.592
▁개방	-10.592
▁폭발물	-10.5929
▁거부했다	-10.5935
17	-10.5935
▁열었다	-10.5938
전쟁	-10.5941
▁공모	-10.5945
22	-10.5957
▁확신한다	-10.5959
그리	-10.5965
▁마치고	-10.5967
▁sh	-10.5968
캔	-10.5974
▁노스캐롤라이나	-10.5975
▁먹었다	-10.5975
▁왜냐하면	-10.5975
▁펼치	-10.5975
▁햇빛	-10.5975
쌀	-10.5975
WHO	-10.5975
▁폴란드	-10.5975
▁규칙	-10.5975
▁더불어	-10.5975
▁보여줬다	-10.5976
▁진흙	-10.5976
▁우리나라	-10.5977
▁간주	-10.598
▁방송국	-10.598
▁떠날	-10.5981
▁출입	-10.5982
러시아	-10.5983
▁검거	-10.5983
▁은퇴	-10.5984
▁떠난	-10.5985
▁표준	-10.5987
▁사용자	-10.599
▁순방	-10.599
▁설계	-10.5993
69	-10.5997
▁정착	-10.5998
na	-10.5998
13	-10.5999
스케	-10.6001
되게	-10.6002
매우	-10.6003
▁물러나	-10.6005
▁베이징에서	-10.6013
▁개설	-10.6016
ian	-10.6018
▁이스라엘군	-10.6019
▁피난	-10.6021
▁직장	-10.6022
no	-10.603
▁벽에	-10.6036
▁공항에서	-10.6039
▁성실	-10.6044
▁군중들	-10.6046
▁차드	-10.6046
▁듀	-10.605
▁흑	-10.6054
▁던지	-10.6059
▁선원	-10.6063
ide	-10.607
▁구조대	-10.607
▁인원	-10.6075
▁환자들	-10.6075
▁나이트	-10.608
▁사용되	-10.6082
꼬	-10.609
▁스코틀랜드	-10.6091
▁에드워즈	-10.6091
쉴	-10.6091
▁케이블	-10.6092
▁토마스	-10.6092
▁기다려	-10.6093
▁스파이	-10.6093
▁성직자	-10.6094
붙	-10.6094
▁잭	-10.6099
▁증강	-10.6101
▁가옥	-10.6101
보험	-10.6102
▁월드	-10.6115
▁아니었다	-10.6117
▁대가로	-10.6119
져서	-10.6119
▁비평	-10.612
무역	-10.612
▁중순	-10.6123
조합	-10.6123
▁성공적	-10.6124
▁시사	-10.6129
더라도	-10.6131
▁물체	-10.6139
▁불길	-10.6146
▁발생하는	-10.6146
▁보기에	-10.6151
▁누워	-10.6156
▁가능하다	-10.6156
▁마루	-10.6161
플레	-10.617
▁소비자들	-10.6172
쁜	-10.6195
솔	-10.6206
▁평화적	-10.6207
눈	-10.6207
▁자치	-10.6208
ome	-10.6208
▁1994	-10.6209
▁칭찬	-10.6209
▁천주교	-10.6209
▁ABC	-10.6211
▁빠지	-10.6213
▁대륙	-10.6213
▁더이상	-10.6215
▁칠레	-10.6216
▁있었지만	-10.6217
▁출생	-10.6218
▁실현	-10.6224
▁복무	-10.6228
▁명성	-10.6228
명에게	-10.6229
▁말까지	-10.6232
▁참석했다	-10.6234
IC	-10.6242
▁인종	-10.6243
음에	-10.6246
▁예약	-10.6248
▁보복	-10.6248
▁기분이	-10.6251
▁회사들	-10.6301
▁노선	-10.6308
▁화해	-10.631
▁리처드	-10.6317
▁외교적	-10.6319
쉽	-10.632
일본	-10.6321
▁동성애자	-10.6322
칙	-10.6325
시기	-10.6327
Le	-10.6328
▁스리랑카	-10.6328
▁활주로	-10.6328
▁북동부	-10.6328
▁효율	-10.6328
▁이재민	-10.6328
▁베를린	-10.6329
▁공무원	-10.6329
▁보여준다	-10.6329
▁신문사	-10.6331
섹스	-10.6331
뇌	-10.6331
잘	-10.6333
▁농축	-10.6333
▁조기	-10.6334
▁사라졌다	-10.6337
▁*	-10.6339
▁받았으며	-10.6339
ical	-10.634
▁자제	-10.6344
같	-10.6353
▁풍부	-10.6354
▁신부	-10.6355
▁소집	-10.6356
해지고	-10.6359
디오	-10.636
▁감금	-10.636
62	-10.6363
▁가기	-10.6368
▁북측	-10.6368
▁실종된	-10.6369
▁예상되	-10.6384
▁보고서에서	-10.64
세력	-10.6402
▁일종	-10.6407
▁가져다	-10.6409
▁갖추고	-10.6411
▁종사	-10.6413
28	-10.6416
da	-10.6418
▁인사들	-10.6422
▁자신에게	-10.6424
▁국경지역	-10.6429
▁것이었다	-10.6429
▁의회에서	-10.6431
▁초점	-10.6433
▁위원	-10.6433
▁입구	-10.6436
▁막아	-10.6444
▁열대	-10.6447
옹	-10.6448
릇	-10.6449
▁알코올	-10.6449
▁침몰	-10.6449
▁카스트로	-10.6449
▁벌어지	-10.645
2008.12	-10.645
▁콩고	-10.6453
▁매춘	-10.6454
▁브랜드	-10.6454
▁온다	-10.6455
▁부유	-10.6455
이슬람	-10.6458
파키스탄	-10.6458
▁기금	-10.6462
▁조용히	-10.6463
▁빙하	-10.6467
▁방화	-10.6471
▁왕실	-10.6475
▁공개적으로	-10.6485
▁동쪽	-10.6486
▁요소	-10.6499
ck	-10.6501
▁높아지	-10.6503
▁야구	-10.6504
평화	-10.6504
▁버마	-10.6505
안보	-10.6511
▁일어났	-10.6518
▁생산량	-10.652
▁비서	-10.6523
▁말라고	-10.6526
▁예수	-10.6528
▁싶어한다	-10.6546
▁자문	-10.6546
거리며	-10.655
▁과일	-10.6551
마르	-10.6552
▁정확하	-10.6555
▁서울에서	-10.6563
▁마비	-10.657
▁방글라데시	-10.6571
▁애완견	-10.6571
▁챔피언스리그	-10.6571
▁카르자이	-10.6571
▁구제금융	-10.6571
▁쉽다	-10.6572
▁will	-10.6573
▁유대인	-10.6574
▁영광	-10.6578
▁(=	-10.6578
▁머무	-10.6579
멜	-10.658
했음을	-10.6587
▁경영진	-10.6591
▁후보자	-10.6594
▁외출	-10.6598
▁던져	-10.6604
▁갖추	-10.6609
왔습니다	-10.6612
▁모래	-10.6615
▁누르	-10.6635
▁실시되	-10.664
▁일생	-10.6641
▁역사적	-10.6645
▁대학생	-10.6649
▁보게	-10.6652
▁진상	-10.6653
ber	-10.6661
▁아이들에게	-10.6674
min	-10.6676
▁마감했다	-10.6682
▁쓰지	-10.6684
동물	-10.6685
위안	-10.6694
▁바르셀로나	-10.6694
▁탱크	-10.6694
▁확장	-10.6694
▁청문회	-10.6694
▁파예드	-10.6694
▁리조트	-10.6694
▁천연가스	-10.6694
▁스탠	-10.6694
▁에어버스	-10.6695
▁이뤄지	-10.6695
▁모기지	-10.6696
▁열쇠	-10.6697
▁커플	-10.6698
▁친척	-10.6699
▁응급	-10.6699
▁종종	-10.6709
디스	-10.671
영국	-10.671
▁축소	-10.671
▁무례	-10.6712
었는지	-10.6713
▁크레	-10.6713
▁충고	-10.6717
▁페루	-10.6717
▁고립	-10.672
▁진지	-10.6722
▁젊은이들	-10.6723
▁전복	-10.6728
ations	-10.6728
▁웃음	-10.6735
▁선전	-10.6737
▁소형	-10.6741
▁로한	-10.6741
▁로드	-10.6742
▁연안	-10.675
▁투르	-10.6752
▁계속되는	-10.676
▁미술	-10.6767
▁보호하기	-10.6773
▁시드	-10.6779
▁곳이다	-10.6799
▁상태이다	-10.6799
▁일리노이	-10.6802
제대로	-10.6804
▁착용	-10.6809
old	-10.6813
▁판다	-10.6817
▁추세	-10.6818
▁갖춘	-10.6819
▁라스베이거스	-10.6819
▁인디애나	-10.6819
▁펼쳤다	-10.6819
웬	-10.6819
▁거뒀다	-10.6819
▁겨냥	-10.6819
▁득점	-10.682
▁던졌다	-10.6822
▁바꿀	-10.6822
▁낮추	-10.6824
▁견본	-10.6824
▁무장대원	-10.6826
▁대략	-10.683
▁보존	-10.6832
▁나오지	-10.6832
▁산책	-10.6836
▁회동	-10.6838
핵	-10.684
▁절약	-10.684
▁조항	-10.684
▁일단	-10.6842
▁운전자	-10.6843
▁열렸다	-10.6843
▁계획이라고	-10.6844
▁화려	-10.6846
▁외투	-10.6847
▁발생했으며	-10.6857
▁거친	-10.6861
▁구출	-10.6863
비용	-10.6863
▁미칠	-10.687
▁오퍼	-10.687
▁사회적	-10.6884
▁허리	-10.6901
87	-10.6904
▁상관	-10.6912
▁전환	-10.6924
켰	-10.6926
행사	-10.6929
▁실적	-10.6937
▁놀랐다	-10.6946
붐	-10.6946
▁디즈니	-10.6946
▁재무부	-10.6946
▁쓰레기	-10.6946
▁궤도	-10.6946
▁한쪽	-10.695
▁2012	-10.6952
▁모욕	-10.6953
▁당황	-10.6955
▁하와이	-10.6955
▁서쪽	-10.6956
▁종합	-10.6956
▁과격	-10.6958
합시다	-10.6962
ail	-10.6963
▁평가했다	-10.6964
▁보도에따르면	-10.6965
▁하나이다	-10.697
넣	-10.6973
▁칼리	-10.6974
▁사담	-10.6976
천만	-10.6977
범죄	-10.6978
▁준수	-10.6978
▁시작한다	-10.6987
▁제목	-10.6992
▁표명	-10.6996
담당	-10.7002
▁승객들	-10.7008
▁자원	-10.7011
▁일제	-10.7011
▁뇌물	-10.7017
▁경호원	-10.7017
per	-10.7022
35	-10.7022
▁유발	-10.7025
▁유전자	-10.7026
▁보냈	-10.7031
▁지시했다	-10.7036
나갔다	-10.7039
▁해방	-10.7045
▁De	-10.7063
획	-10.7065
▁휩싸	-10.7074
▁덴마크	-10.7074
▁외교통상부	-10.7074
띠	-10.7074
숀	-10.7074
슐	-10.7074
▁1992	-10.7074
▁크루즈	-10.7074
▁쓰나미	-10.7074
▁나스닥	-10.7074
▁탐험	-10.7075
▁지하철	-10.7075
▁방콕	-10.7075
▁흔적	-10.7077
▁돌아갔다	-10.708
시위	-10.708
▁유쾌	-10.7082
▁1970	-10.7085
통제	-10.7086
▁관측	-10.7089
▁압수	-10.7095
▁앉아서	-10.7103
▁본선	-10.7106
끈	-10.7106
병원	-10.7108
스타인	-10.7116
잘못된	-10.7118
▁받으	-10.7124
▁영장	-10.7125
▁문제들	-10.7127
▁않아서	-10.7133
▁자동	-10.7155
▁120	-10.7162
방식	-10.7173
이라면	-10.7175
▁화제	-10.718
▁사용해	-10.7182
▁시체	-10.7187
되었던	-10.7198
즘	-10.7202
NATO	-10.7204
킬로미터	-10.7204
▁Japan	-10.7204
▁싫어한다	-10.7204
▁어젯밤	-10.7204
▁휴대전화	-10.7204
엠	-10.7204
▁콜로라도	-10.7204
▁남동부	-10.7204
▁알메이다	-10.7204
▁우연히	-10.7204
▁plan	-10.7204
▁나타난	-10.7204
덩어리	-10.7204
▁네바다	-10.7204
▁똑같	-10.7204
▁근육	-10.7206
▁화장실	-10.7208
▁부사장	-10.721
▁불쾌	-10.721
▁쿠퍼	-10.7211
▁1%	-10.7214
▁세탁	-10.7217
▁보안군	-10.722
son	-10.7225
▁매주	-10.7226
▁사용하지	-10.723
▁청소	-10.7231
▁상영	-10.7235
▁사망자수	-10.7238
▁자본	-10.7239
▁총장은	-10.7241
▁동기	-10.7242
탐	-10.7246
▁프레스	-10.7258
ary	-10.7268
▁지켜보	-10.7274
▁못하다	-10.7277
▁두번째	-10.7283
▁33	-10.7297
▁구체적	-10.73
▁한창	-10.7302
▁압둘	-10.7311
▁130	-10.7314
여행	-10.7317
▁않기로	-10.7318
▁원화	-10.7325
닭	-10.7335
뮤	-10.7335
▁받아들여	-10.7335
▁와인하우스	-10.7335
▁캄보디아	-10.7335
▁코끼리	-10.7335
▁침략	-10.7335
타운	-10.7336
▁마땅	-10.7337
▁코커스	-10.7338
▁타이틀	-10.7338
8000	-10.734
▁화이트	-10.7341
ens	-10.7341
봐야	-10.7341
▁이루어졌다	-10.7342
▁술집	-10.7344
▁소득	-10.735
▁영양	-10.7355
▁재능	-10.7356
년만에	-10.7357
▁표시했다	-10.7358
▁주연	-10.7362
▁결함	-10.7363
▁형식	-10.7364
▁PC	-10.7365
▁발전소	-10.7367
▁반영	-10.7369
▁점수	-10.737
▁연행	-10.7379
▁거라고	-10.7398
▁백인	-10.7399
▁응답자	-10.7404
▁인력	-10.7416
▁바라보	-10.7423
▁기대한다	-10.7423
▁고어	-10.7424
셨	-10.7428
▁공약	-10.7432
▁차단	-10.744
ish	-10.7449
뢰	-10.7457
차량	-10.7465
▁곤잘레스	-10.7469
▁골키퍼	-10.7469
▁뜨거운	-10.7469
▁성화봉송	-10.7469
▁패트릭	-10.7469
굽	-10.7469
꽤	-10.7469
팝	-10.7469
펄	-10.7469
▁주한미군	-10.7469
▁저항세력	-10.7469
▁탄핵	-10.747
▁난사	-10.747
▁논평	-10.7471
뜨렸다	-10.7472
▁해결책	-10.7478
▁몰래	-10.7481
▁보잉	-10.7482
▁대우	-10.7482
▁걸렸다	-10.7483
사업	-10.7484
▁철군	-10.7485
▁황금	-10.7489
▁카불	-10.7493
▁오늘날	-10.7493
▁회계	-10.7497
당신	-10.75
▁생각합니다	-10.75
▁연출	-10.7501
▁추정된다	-10.7503
▁이륙	-10.7504
▁이사회	-10.7504
▁진단	-10.7505
▁납치된	-10.7506
▁각자	-10.7509
▁총격전	-10.7511
▁증상	-10.7513
▁모아	-10.7523
▁보유하고	-10.7524
▁유출	-10.7528
▁수감자들	-10.7535
▁떨어졌	-10.754
▁안심	-10.7546
▁급속	-10.7558
mer	-10.7564
▁운전사	-10.7567
▁갈라	-10.7567
맹	-10.757
등급	-10.757
교회	-10.7581
▁동전	-10.7583
▁경주	-10.7583
▁근처에서	-10.7586
▁기분	-10.7593
▁비판했다	-10.76
컷	-10.7603
룸	-10.7604
▁1993	-10.7604
랩	-10.7604
엽	-10.7604
▁횡령	-10.7604
▁불능화	-10.7604
▁여기저기	-10.7604
▁교통사고	-10.7605
▁힘껏	-10.7605
▁빌딩	-10.7606
▁적응	-10.7609
ark	-10.761
▁블루	-10.7614
▁각료	-10.7614
▁급등	-10.7615
▁경향	-10.7615
▁급증	-10.7616
▁들어갈	-10.7617
▁테스트	-10.7617
▁관영	-10.7617
▁주머니	-10.7619
▁사우스	-10.762
▁금연	-10.7622
저널	-10.7628
▁진심	-10.763
▁원치	-10.7633
▁분류	-10.7634
▁리드	-10.7645
▁기자들에게	-10.7654
▁지질	-10.7657
▁주최측	-10.7658
▁발포	-10.7658
옷	-10.7659
▁기온	-10.7659
▁갑작스	-10.7662
▁모터	-10.7665
되었으며	-10.7671
ast	-10.7671
▁부쳐	-10.7675
▁도와주	-10.7682
▁실린	-10.7696
▁승부	-10.7697
내려	-10.7697
하더라도	-10.7705
▁군정	-10.771
카드	-10.7711
스탄	-10.7712
첼	-10.7727
▁달아	-10.7738
New	-10.7739
▁말하며	-10.774
깃	-10.7741
▁샤라포바	-10.7741
▁애리조나	-10.7741
▁피라미드	-10.7741
Q	-10.7741
▁법무장관	-10.7741
▁말씀	-10.7741
▁때때로	-10.7741
▁합법적	-10.7742
▁양성	-10.7746
▁돌아갈	-10.7746
▁받았습니다	-10.7748
▁생겼다	-10.7749
▁끝날	-10.7752
▁사육	-10.7753
▁아이폰	-10.7754
▁유효	-10.7755
▁취임식	-10.7758
▁개장	-10.776
▁이슬람교	-10.7765
▁산림	-10.7766
▁폭파	-10.7767
▁지휘관	-10.778
즉각적인	-10.7781
▁감동	-10.7782
▁화면	-10.7793
▁공판	-10.7795
업체들	-10.7797
go	-10.7806
위원	-10.7806
▁진보	-10.7807
▁과도	-10.7812
주십시오	-10.7815
▁만들기	-10.7817
감독	-10.7827
▁조약	-10.7838
생산	-10.7839
ther	-10.7862
연방	-10.7868
냥	-10.7873
▁메리	-10.7874
▁브리	-10.7878
템	-10.788
팽	-10.788
▁레스토랑	-10.788
▁캐릭터	-10.788
겹	-10.788
굿	-10.788
잎	-10.788
짙	-10.788
▁비행사	-10.788
▁북서부	-10.788
▁케리	-10.788
▁좌절	-10.788
▁석탄	-10.788
▁색깔	-10.788
▁벽돌	-10.7882
▁채널	-10.7884
▁저지른	-10.7885
▁영화배우	-10.7887
▁화상	-10.789
국제	-10.789
▁진영	-10.7894
▁바위	-10.7894
▁다음날	-10.79
▁진술했다	-10.7903
▁복역	-10.7904
▁정신적	-10.7904
iz	-10.7911
▁돌파	-10.7923
▁복잡한	-10.7923
▁기밀	-10.7925
▁당수	-10.7931
▁직위	-10.7936
꽃	-10.7946
이스라엘	-10.7947
머리	-10.7949
교육	-10.7953
연구원	-10.7964
▁들었	-10.7965
▁중심부	-10.7977
으면서	-10.7991
물질	-10.7992
▁유산	-10.7992
95	-10.7998
▁동정	-10.7998
총리	-10.8006
▁정전	-10.801
속도로	-10.8011
▁않습니다	-10.802
쿨	-10.802
▁우울증	-10.802
▁기쁘게	-10.8021
▁옹호	-10.8021
으므로	-10.8022
▁텐트	-10.8022
▁발휘	-10.8023
▁재미있는	-10.8024
▁녹색	-10.8028
▁바퀴	-10.8031
▁사생활	-10.8035
▁보스턴	-10.8036
베나	-10.8041
▁Mo	-10.8043
▁일련	-10.8044
▁전세계적으로	-10.8044
▁매달	-10.8052
▁배후	-10.8057
▁최저치	-10.8061
▁추모	-10.8062
▁화장	-10.8063
▁지지한다	-10.8073
부르크	-10.8076
레이크	-10.8077
▁해상	-10.8078
▁직전	-10.8078
▁사용될	-10.8083
▁적당한	-10.8086
자이자	-10.8088
밤	-10.8089
웃	-10.809
▁접수	-10.809
카운티	-10.8094
▁가동	-10.8096
▁선포했다	-10.8101
▁취했다	-10.8102
Con	-10.8102
규모	-10.8105
▁달린	-10.8106
투표	-10.8121
▁차지하고	-10.8123
여성	-10.8129
▁플라	-10.8143
▁대답했다	-10.8154
수술	-10.8154
▁제시했다	-10.8155
융	-10.8159
펀	-10.8163
왓	-10.8163
▁디지털	-10.8163
▁불렀다	-10.8163
▁2-0	-10.8163
▁적합한	-10.8163
▁바스라	-10.8165
▁남아프리카	-10.8165
▁것임	-10.8165
▁가죽	-10.817
▁넘겨	-10.8174
▁급격	-10.8176
▁함유	-10.8177
▁감소했다	-10.8179
▁연습	-10.8183
▁이내에	-10.8183
▁다우지수	-10.8183
▁약탈	-10.8188
▁게재	-10.8191
▁고급	-10.8193
▁창조	-10.8194
▁체코	-10.8196
▁자신감	-10.8196
▁구축	-10.8198
▁반박	-10.8203
▁남았다	-10.8203
▁촉구하	-10.8203
▁공개된	-10.8207
페이스	-10.8214
▁초안	-10.8222
▁하락세	-10.8235
▁약화	-10.8235
▁휴식	-10.8237
▁용서	-10.8243
▁감염된	-10.8247
긍정적인	-10.8248
많	-10.8255
▁사용한다	-10.8256
▁의석	-10.8257
▁신사	-10.8264
▁잡스	-10.8278
▁밀려	-10.8296
▁유용	-10.83
▁양국간	-10.8302
▁세계적으로	-10.8303
▁안내	-10.8306
▁동티모르	-10.8308
▁않았던	-10.8308
▁알렉산더	-10.8308
▁일으킬	-10.8308
넌	-10.8308
랫	-10.8308
졌습니	-10.8308
찔	-10.8308
▁일어날	-10.8308
▁바꿔	-10.8309
▁외환은행	-10.8309
▁낫다	-10.8309
뱅크	-10.831
▁고위관리	-10.8311
▁동일한	-10.8312
▁포럼	-10.832
▁1960	-10.8321
▁새롭	-10.8325
▁세계은행	-10.8329
▁로저	-10.8335
▁통행	-10.8337
▁리치	-10.834
▁본래	-10.8341
▁서명했다	-10.8345
▁써서	-10.8351
버릴	-10.8354
됐으나	-10.8378
▁국민들에게	-10.8381
시스템	-10.8395
자동차	-10.8395
▁서울시	-10.8398
ous	-10.8424
▁적절	-10.843
▁중요성	-10.8431
▁멤버	-10.8455
▁블라디미	-10.8455
▁쌍둥이	-10.8455
▁섭취	-10.8455
▁김대중	-10.8455
▁무거운	-10.8455
▁테일러	-10.8455
▁남서부	-10.8455
▁차관보는	-10.8455
▁촉발	-10.8456
▁활약	-10.8456
▁라이벌	-10.8457
▁케이트	-10.8459
▁탑승객	-10.8461
▁논문	-10.8467
▁북경	-10.847
▁감바	-10.8477
▁정찰	-10.8481
▁초반	-10.8492
신문	-10.8495
▁향하	-10.8504
▁인형	-10.8505
▁측면	-10.8508
었는데	-10.8513
▁타이어	-10.8517
▁관객	-10.8522
▁마리아	-10.8541
▁일간지	-10.8548
▁부속	-10.8552
방법	-10.8553
▁고객들	-10.8558
▁감독상	-10.8564
되거나	-10.858
▁우세	-10.8595
▁쓴다	-10.8596
▁형사	-10.8597
▁농민	-10.8599
얀	-10.86
엇	-10.86
▁President	-10.8605
▁국제공항	-10.8605
▁선거캠프	-10.8605
▁않았고	-10.8605
▁유튜브	-10.8605
▁필라델피아	-10.8605
곁	-10.8605
▁매니저	-10.8605
▁비타민	-10.8605
▁다시한번	-10.8605
▁배터리	-10.8605
▁캐롤	-10.8607
▁털어	-10.8607
▁이글스	-10.8607
▁가벼	-10.8608
푸르	-10.8609
▁가끔	-10.8609
▁밤새	-10.8611
▁부정적	-10.8611
▁검증	-10.8612
▁40%	-10.8618
▁돌입	-10.862
▁연금	-10.8621
▁만남	-10.8622
▁폭스	-10.8629
CC	-10.8634
▁적당	-10.8638
▁마침	-10.8639
▁1500	-10.8651
▁넘기	-10.8652
▁조절	-10.8656
▁개표	-10.8659
▁가난한	-10.866
▁걸음	-10.8663
▁북쪽으로	-10.8665
▁주장하며	-10.8668
▁없어서	-10.8679
▁놓아	-10.8682
▁논의하기	-10.8686
▁임대	-10.8694
맞	-10.8701
NASA	-10.8704
▁방송사	-10.8712
▁정기적	-10.8712
돼있다	-10.8717
▁대리인	-10.8725
▁우수	-10.8745
▁조명	-10.8748
멍	-10.8751
흰	-10.8756
븐	-10.8756
▁다큐멘터리	-10.8756
▁뭄바이	-10.8756
▁미시시피	-10.8756
▁쓰촨성	-10.8756
▁않았으나	-10.8756
▁HIV	-10.8756
▁식료품	-10.8756
칩	-10.8756
▁무장괴한	-10.8756
▁여긴다	-10.8756
▁스캔들	-10.8756
▁쌍방	-10.8756
▁활발	-10.8756
▁로이터	-10.8757
▁핵프로그램	-10.8758
▁상하이	-10.8758
▁암시	-10.8759
▁입법	-10.8759
▁간섭	-10.876
▁항목	-10.8761
▁his	-10.8762
▁레이건	-10.8765
재판소	-10.8768
▁붙여	-10.8773
▁추구하	-10.8773
▁표결	-10.8773
▁추천	-10.8776
▁용감	-10.8778
▁음성	-10.8789
▁음주	-10.8793
▁제외하고	-10.881
▁모금	-10.8813
▁부상당	-10.8817
▁소란	-10.8818
▁학생들에게	-10.8819
커스	-10.882
▁부품	-10.8833
▁해임	-10.8841
▁상승세	-10.8846
▁동료들	-10.8853
쥐	-10.8863
동맹	-10.8867
▁국무	-10.8899
닦	-10.8906
앗	-10.891
닷	-10.891
멈	-10.891
▁갇혀	-10.891
▁에베레스트	-10.891
▁오토바이	-10.891
딴	-10.891
▁여동생	-10.891
▁자유롭게	-10.891
▁침묵	-10.891
▁부끄러	-10.891
▁수석대표	-10.891
▁비틀즈	-10.891
▁마돈나	-10.891
▁맹렬	-10.891
▁법무부	-10.891
▁허드슨	-10.891
▁맹세	-10.891
▁도서관	-10.891
▁객실	-10.8911
09	-10.8911
▁염려	-10.8911
▁마라톤	-10.8912
▁1996	-10.8914
▁있었으나	-10.8915
▁국가안보	-10.8915
▁다룬	-10.8923
▁남극	-10.8924
▁보고서에따르면	-10.8924
▁출두	-10.8925
▁다윈	-10.8925
▁건축물	-10.8932
▁상담	-10.8934
▁계단	-10.8936
▁받으며	-10.8939
▁점거	-10.894
▁연구팀	-10.8941
▁차별	-10.8941
▁판정	-10.8944
▁막았다	-10.8946
▁모집	-10.8947
▁재료	-10.8947
▁소위	-10.8949
▁번역	-10.895
▁보급	-10.8963
▁평소	-10.8966
▁항해	-10.897
▁유명하다	-10.8971
▁부친	-10.8984
▁여기서	-10.9012
▁접시	-10.9013
day	-10.9018
떠	-10.9025
힘	-10.9026
▁없기	-10.9031
▁낮아	-10.9032
▁고정	-10.9035
쇄	-10.9058
끔	-10.9062
▁가즈프롬	-10.9066
▁마이크로소프트	-10.9066
▁사우스캐롤라이나	-10.9066
▁오사마빈라덴	-10.9066
왈	-10.9066
▁은신처	-10.9066
▁농작물	-10.9066
▁뉴저지	-10.9066
▁사찰단	-10.9066
▁치열한	-10.9066
▁조지아주	-10.9066
▁간호사	-10.9067
▁스트레스	-10.9067
▁큰소리로	-10.9067
▁여섯	-10.9067
▁언덕	-10.9068
▁자치정부	-10.9068
▁봉송	-10.9069
▁성장률	-10.9071
▁소규모	-10.9071
▁징역형	-10.9072
▁달한다	-10.9072
▁산사태	-10.9073
▁소련	-10.9079
▁남겼다	-10.9079
▁약혼	-10.908
▁리처드슨	-10.9081
▁종결	-10.9082
▁송금	-10.9084
▁유혈	-10.9094
▁뒤집	-10.9108
▁서양	-10.9114
▁투명	-10.9122
물리학	-10.913
▁카터	-10.9132
▁불가능하다	-10.9133
▁기각	-10.9137
▁대립	-10.9143
▁조직원	-10.9183
▁얻었	-10.9183
▁우즈	-10.9197
BC	-10.9197
음악	-10.9199
▁대금	-10.9199
▁경호	-10.9201
▁페트	-10.9206
▁총상	-10.9215
▁가택연금	-10.9225
▁관타나모	-10.9225
▁마이애미	-10.9225
▁먹는다	-10.9225
▁메르켈	-10.9225
▁밝혔지만	-10.9225
▁인플레이션	-10.9225
▁휩쓸	-10.9225
뷰	-10.9225
썩	-10.9225
팩	-10.9225
▁앤드류	-10.9225
슛	-10.9225
▁한바탕	-10.9225
▁중앙일보	-10.9225
▁월스트리트	-10.9225
▁균형	-10.9225
.8%	-10.9226
▁숨어	-10.9226
▁농촌	-10.9227
▁괴롭	-10.9227
▁돌아다니	-10.9228
ph	-10.9228
▁연쇄	-10.9228
▁케빈	-10.9229
▁1995	-10.923
▁없애	-10.9231
▁농업	-10.9235
▁같았다	-10.9235
▁귀환	-10.9235
▁고수	-10.9248
▁가담	-10.925
▁도왔다	-10.925
▁지속적	-10.9264
▁국적	-10.9264
▁응원	-10.9264
▁맞았다	-10.9265
▁2-1	-10.9271
▁포터	-10.9274
▁마친	-10.9281
▁예정이었다	-10.9282
▁재임	-10.9289
거렸다	-10.9291
▁종식	-10.9302
공장	-10.9304
▁표명했다	-10.9307
ton	-10.9307
돼야	-10.9309
역사적인	-10.9311
▁연계	-10.9314
▁정치인들	-10.9319
렸으며	-10.9337
For	-10.9347
US	-10.9375
▁서안	-10.9381
콧	-10.9386
▁포위	-10.9386
▁검문소	-10.9386
▁재검토	-10.9386
▁최첨단	-10.9386
▁프랭크	-10.9386
▁플라스틱	-10.9386
붓	-10.9386
푼	-10.9386
▁펠로시	-10.9386
돋	-10.9386
▁피닉스	-10.9386
▁받아들였다	-10.9386
▁어두운	-10.9386
버렸	-10.9387
▁드러냈다	-10.9388
민감한	-10.9389
▁순위	-10.9389
▁계곡	-10.939
▁행렬	-10.939
▁남학생	-10.939
▁1991	-10.939
▁토끼	-10.9391
▁라이언	-10.9392
▁월급	-10.9392
▁박탈	-10.9394
▁곳곳	-10.9394
▁부총리	-10.9395
▁급락	-10.9397
▁합격	-10.9397
American	-10.9402
▁폭설	-10.9402
▁바탕	-10.9402
▁교외	-10.9405
▁에릭	-10.9407
▁정확하게	-10.9407
▁회피	-10.9407
▁통증	-10.941
▁주시기	-10.9411
▁처방	-10.9411
▁무엇보다	-10.9416
에이커	-10.9417
▁때마다	-10.9419
ound	-10.942
▁위생	-10.942
▁아카데미상	-10.9432
▁기초	-10.9441
▁격려	-10.9447
▁놀라서	-10.9448
킨스	-10.9465
▁상무	-10.9472
해냈다	-10.9507
드립니다	-10.9523
대표팀	-10.9524
▁증세	-10.9525
아프간	-10.9525
96	-10.9534
하우스	-10.9538
즌	-10.9544
언론	-10.9547
얄	-10.955
▁from	-10.955
▁금메달	-10.955
▁나뭇가지	-10.955
▁노르웨이	-10.955
▁매사추세츠	-10.955
▁뮤지컬	-10.955
▁이산화탄소	-10.955
▁트라볼타	-10.955
▁호날두	-10.955
▁남자친구	-10.955
▁비핵화	-10.955
▁가즈니	-10.955
▁데이비스	-10.955
▁오딩가	-10.955
▁공산주의	-10.955
▁서식지	-10.9551
▁온몸	-10.9551
▁불가피	-10.9551
▁아프다	-10.9551
▁금융위기	-10.9553
▁순례	-10.9555
▁최후	-10.9557
▁벨기에	-10.9559
공급	-10.9559
▁상금	-10.9561
▁화합	-10.9561
ake	-10.9563
▁사이클	-10.9564
▁가난	-10.9565
▁광경	-10.957
▁발견되었다	-10.9571
▁당초	-10.9577
▁코너	-10.9578
▁재판관	-10.9579
▁제때	-10.9581
▁구조대원들	-10.9584
▁키우	-10.9587
▁방출	-10.9593
▁2500	-10.9599
프레드	-10.9604
▁꺼내	-10.9616
▁조사에따르면	-10.9617
▁실직	-10.9622
널리	-10.9622
▁소동	-10.9629
▁dis	-10.9634
▁제공한다	-10.9637
En	-10.9684
▁가르치	-10.9692
FC	-10.9704
OS	-10.9709
▁사용된	-10.9711
덤	-10.9712
▁결선투표	-10.9717
▁브라이언	-10.9717
▁샌디에이고	-10.9717
▁아메리카	-10.9717
▁토네이도	-10.9717
쩍	-10.9717
퀘	-10.9717
▁키바키	-10.9717
▁떨어질	-10.9717
▁아테네	-10.9717
▁이뤄졌다	-10.9717
▁리히터	-10.9717
▁어두워	-10.9717
▁다행히	-10.9717
▁막대한	-10.9718
▁터널	-10.9718
▁계좌	-10.9722
▁탄압	-10.9723
▁완료	-10.9724
▁플래	-10.9724
▁너희측	-10.9728
▁직무	-10.9731
EO	-10.9732
분만에	-10.9734
▁결합	-10.974
▁그곳에서	-10.9745
▁쓰여	-10.9747
▁군복	-10.975
▁조언	-10.9764
▁Mar	-10.9764
셔서	-10.9771
▁장난	-10.9773
▁장기간	-10.978
▁수십명	-10.9781
GA	-10.9782
▁판매량	-10.9782
▁고안	-10.9783
▁긍정적	-10.9787
▁포함됐다	-10.9799
▁기소됐다	-10.9814
ord	-10.9816
줬	-10.9823
▁찾아내	-10.9829
▁잃었	-10.9832
서비스	-10.9874
금융	-10.9876
▁nuclear	-10.9886
▁이슬라마바드	-10.9886
▁커미션	-10.9886
엎	-10.9886
▁펜실베니아	-10.9886
▁항공우주국	-10.9886
▁후진타오	-10.9886
뚝	-10.9886
▁금융제재	-10.9886
▁원주민	-10.9886
▁롤링	-10.9886
▁예를들어	-10.9886
▁홈페이지	-10.9887
▁야생동물	-10.9887
▁세인트	-10.9887
▁축출	-10.9892
▁드러내	-10.9895
폴리스	-10.9897
▁모험	-10.9898
▁희망합니다	-10.9898
하십니까	-10.99
▁아니지만	-10.9901
▁포착	-10.9901
▁단어장	-10.9905
▁장거리	-10.9909
▁단독	-10.9913
▁든다	-10.9913
▁분량	-10.992
▁피고인	-10.992
▁관계당국	-10.9932
▁늘어나	-10.9975
▁졸리	-10.9979
▁관해서	-11.0011
▁Ro	-11.0023
아프리카	-11.0049
그것은	-11.0052
착륙	-11.0052
옳	-11.0054
옵	-11.0059
▁China	-11.0059
▁있으니	-11.0059
툴	-11.0059
▁무슬림	-11.0059
▁두려움	-11.0059
▁2005.10	-11.0059
▁기다렸다	-11.0059
▁여겨지	-11.0059
▁불가리아	-11.0059
▁펀드	-11.0059
▁미디어	-11.0059
▁사냥꾼	-11.0059
▁통일부	-11.0059
▁난민촌	-11.006
▁암컷	-11.006
▁부모님	-11.0061
▁저렴	-11.0061
▁점검	-11.0063
▁Mary	-11.0065
▁라덴	-11.0066
▁거짓	-11.0068
▁동의한다	-11.0069
▁남녀	-11.0069
그녀	-11.007
▁입학	-11.0072
▁창출	-11.0072
▁시인했다	-11.0074
▁탄생	-11.0074
▁통과시켰다	-11.0074
▁계란	-11.0076
▁퇴직	-11.0077
▁건네	-11.0077
▁확인됐다	-11.0079
▁오스카	-11.0082
▁내려졌다	-11.0084
▁부활	-11.0085
▁고집	-11.0089
▁30%	-11.0095
▁쉬운	-11.0097
▁매매	-11.0097
▁경찰청	-11.0099
▁오하이오주	-11.0101
연료	-11.0147
▁양쪽	-11.0147
ick	-11.018
91	-11.0183
헤드	-11.0199
▁경관	-11.0213
▁포함돼	-11.023
▁펭귄	-11.0234
셸	-11.0234
▁퍼거슨	-11.0234
▁윈프리	-11.0234
▁선관위	-11.0234
▁무승부	-11.0234
▁착취	-11.0234
▁파나마	-11.0234
▁삭감	-11.0234
▁오렌지	-11.0235
▁데이빗	-11.0235
▁침공	-11.0235
스러워	-11.0235
▁실업률	-11.0236
▁교섭	-11.0238
89	-11.024
▁의뢰	-11.0244
▁가짜	-11.0245
▁개념	-11.0248
▁불황	-11.0252
▁마세요	-11.0253
ock	-11.0254
▁나빠	-11.0263
▁전반적인	-11.0264
▁개편	-11.0276
▁과장	-11.0276
▁아담	-11.0279
▁악화되	-11.028
▁전사들	-11.0297
▁인공	-11.0301
▁플로리다주	-11.0306
▁말했	-11.0306
▁언제든	-11.0307
사무소	-11.0323
▁비교해	-11.0346
380	-11.0346
29	-11.0348
때까지	-11.0366
▁너희	-11.0397
딱	-11.0413
▁DVD	-11.0413
▁뉴햄프셔	-11.0413
▁몰랐다	-11.0413
▁스타디움에서	-11.0413
▁프리미어리그	-11.0413
뇨	-11.0413
뭐	-11.0413
샬	-11.0413
▁국립공원	-11.0413
▁심장마비	-11.0413
▁계열사	-11.0413
▁알렉스	-11.0413
▁줄리아니	-11.0413
▁빠질	-11.0413
▁좌석	-11.0413
▁징계	-11.0413
뼈	-11.0417
프랑스	-11.0419
▁인권단체	-11.0419
▁숙박	-11.0419
▁올라갔다	-11.0423
▁종교적	-11.0423
▁지역사회	-11.0424
▁숨겨	-11.0424
▁종료	-11.0429
▁농민들	-11.0432
▁붙였다	-11.0434
▁발송	-11.0435
▁신규	-11.0442
▁치매	-11.0442
▁출국	-11.0446
▁이루어진	-11.0455
▁고속	-11.046
▁도박	-11.0461
▁발급	-11.0461
▁감바리	-11.0464
하였으며	-11.0471
▁텍사스주	-11.0485
▁불과하다	-11.049
▁죄수	-11.0494
▁재정적	-11.0504
뒀	-11.0595
툼	-11.0595
▁경기부양책	-11.0595
▁국제원자력기구	-11.0595
▁엘리베이터	-11.0595
▁오케스트라	-11.0595
▁잃어버린	-11.0595
삐	-11.0595
캄	-11.0595
펑	-11.0595
▁멈춰	-11.0595
▁서둘러	-11.0595
놨	-11.0595
▁노트북	-11.0595
▁전당대회	-11.0595
▁게릴라	-11.0595
▁비서실장	-11.0595
▁열렬한	-11.0595
NEW	-11.0595
▁윈도우	-11.0595
▁흰색	-11.0595
▁울타리	-11.0595
▁어울리	-11.0595
▁설탕	-11.0597
▁놀랄	-11.0598
▁동굴	-11.06
▁같습니다	-11.06
▁예멘	-11.06
▁무엇인지	-11.0602
공화국	-11.0606
태평양	-11.0606
▁퇴임	-11.0609
1000	-11.061
▁사탕	-11.0612
▁미첼	-11.0612
▁소방관	-11.0612
졸	-11.0612
연패	-11.062
▁돌렸다	-11.0621
▁복권	-11.0629
▁히트	-11.063
▁독감	-11.063
▁필수	-11.0631
▁개정안	-11.064
폭력	-11.0641
▁밝혀진	-11.0653
▁유감스럽	-11.0691
되었는데	-11.0754
렵	-11.0771
렴	-11.0777
▁똑똑	-11.078
▁안전보장이사회	-11.078
▁저질렀다	-11.078
▁쿠웨이트	-11.078
늙	-11.078
▁경기침체	-11.078
▁과반수	-11.078
▁혈액	-11.078
▁해수면	-11.078
CDC	-11.078
▁무너지	-11.078
2005.09	-11.0781
▁승려들	-11.0781
▁꼬리	-11.0782
▁범행	-11.0783
▁잠재적	-11.0783
▁청중들	-11.0784
휘	-11.0786
▁생방송	-11.0786
▁요새	-11.0787
▁총알	-11.0793
▁연구원들	-11.0795
▁활기	-11.0798
잠	-11.0799
▁취급	-11.08
페이지	-11.0803
▁추격	-11.0806
▁백신	-11.0807
▁심판	-11.0813
▁천연	-11.0815
▁퇴원	-11.0818
해달라	-11.0825
▁고민	-11.0825
▁회원국들	-11.0944
써	-11.0945
World	-11.0968
▁YORK	-11.0968
▁윔블던	-11.0968
▁준결승	-11.0968
▁줄기세포	-11.0968
2006.01	-11.0968
▁뉴델리	-11.0968
▁루이지애나	-11.0968
▁망원경	-11.0968
▁밝혔으며	-11.0968
▁순조롭	-11.0968
▁에콰도르	-11.0968
▁우주왕복선	-11.0968
▁토크쇼	-11.0968
긋	-11.0968
깁	-11.0968
맘	-11.0968
셜	-11.0968
▁라파엘	-11.0968
▁카트리나	-11.0968
▁힘입어	-11.0968
▁도요타	-11.0968
▁앤더슨	-11.0968
▁외무성	-11.0968
선거관리위원회	-11.0969
▁new	-11.0969
▁분석가들은	-11.0969
▁브리핑	-11.0969
▁위안부	-11.0969
▁롬니	-11.097
▁데뷔	-11.097
2007.11	-11.097
▁패널	-11.0971
▁주차장	-11.0971
▁상륙	-11.0972
▁머레이	-11.0973
▁1987	-11.0975
▁동성애	-11.0978
▁돌아온	-11.0979
▁not	-11.0979
▁다가오	-11.098
▁품질	-11.0982
▁잡혀	-11.0983
▁채취	-11.0984
▁아빠	-11.0985
▁진료	-11.099
▁거부권	-11.0991
▁들어온	-11.0994
딸	-11.0995
▁마찰	-11.0997
▁극단	-11.1
▁연말	-11.1
▁던진	-11.1015
▁물건들	-11.1019
ame	-11.1053
▁고고학	-11.1063
▁대대적	-11.1064
▁알아보	-11.1071
▁피해자들	-11.1077
way	-11.1085
▁복잡	-11.1109
▁선원들	-11.1117
▁여행객들	-11.1121
샘	-11.1161
▁Obama	-11.1161
▁광범위한	-11.1161
▁뚜렷	-11.1161
▁아닙니다	-11.1161
▁아름답	-11.1161
뚜	-11.1161
삽	-11.1161
셈	-11.1161
톨	-11.1161
툰	-11.1161
풋	-11.1161
▁자원봉사	-11.1161
킴	-11.1161
헛	-11.1161
▁되돌아	-11.1161
▁자선단체	-11.1161
▁기숙사	-11.1161
▁원자력	-11.1161
▁대서양	-11.1161
▁징후	-11.1161
▁지중해	-11.1161
▁잇따	-11.1161
▁득표율	-11.1162
▁감사드립니다	-11.1162
Center	-11.1162
▁MBC	-11.1163
▁1989	-11.1165
▁무렵	-11.1166
▁진짜	-11.1166
강전에서	-11.1167
▁예쁘	-11.1167
▁산맥	-11.1169
▁남아있다	-11.1169
예비선거	-11.1174
▁래리	-11.1175
▁집권당	-11.1176
▁암석	-11.118
▁창설	-11.118
▁유혹	-11.1189
[	-11.1194
어떤	-11.1197
검찰	-11.1198
▁동물들	-11.1198
넘	-11.12
▁전시회	-11.1205
▁모여들	-11.1206
▁복장	-11.1215
하자마자	-11.1223
▁이틀간	-11.1241
▁부검	-11.1293
되었지만	-11.1312
off	-11.1335
업자들	-11.1339
▁덧붙	-11.1354
흙	-11.1355
랬	-11.1357
▁로드리게스	-11.1357
▁불확실	-11.1357
·	-11.1357
▁government	-11.1357
▁메드베데프	-11.1357
▁있느냐	-11.1357
▁자카르타	-11.1357
▁즐거움	-11.1357
깎	-11.1357
퓨	-11.1357
▁둘러싸고	-11.1357
▁매머드	-11.1357
▁의약품	-11.1357
▁어리석	-11.1357
▁탈북자	-11.1357
▁소행성	-11.1357
▁시달리	-11.1357
▁한마디	-11.1357
▁유혈사태	-11.1357
▁이뤄진	-11.1357
▁개체수	-11.1357
▁헌법재판소	-11.1358
▁목욕	-11.136
▁품목	-11.1361
▁살아남	-11.1362
하였는데	-11.1363
▁때문입니다	-11.1364
▁혼합	-11.1364
▁커튼	-11.1364
▁탄광	-11.1365
▁화염	-11.1367
쳤으며	-11.1367
▁나아가	-11.137
▁빠뜨	-11.1374
▁풍경	-11.1374
▁재벌	-11.1375
▁생겨	-11.1379
▁영예	-11.1379
▁외환	-11.1382
▁둔화	-11.1388
보좌관	-11.1395
2000	-11.141
▁업적	-11.1412
▁경쟁력	-11.1456
▁외국인들	-11.1473
아웃	-11.1502
둑	-11.1552
톡	-11.1557
FIFA	-11.1557
▁다국적군	-11.1557
▁레드클리프	-11.1557
▁빅토리아	-11.1557
댐	-11.1557
솜	-11.1557
핍	-11.1557
▁부양책	-11.1557
▁성탄절	-11.1557
▁에드워드	-11.1557
▁테네시	-11.1557
▁말하자면	-11.1557
▁되풀이	-11.1557
▁하버드	-11.1557
▁돌고래	-11.1557
▁케이크	-11.1557
▁로딕	-11.1558
▁중동평화	-11.1558
▁공룡	-11.1559
▁낙태	-11.1561
▁하얀	-11.1563
▁남아있는	-11.1565
▁탈락	-11.1566
▁오마르	-11.1567
▁레이저	-11.1567
▁확산되고	-11.1568
▁60%	-11.157
▁역임	-11.1575
▁연례	-11.1577
98	-11.159
VS	-11.1603
탈레반	-11.1607
▁때문이라	-11.1626
▁인정받	-11.1643
▁응답	-11.1656
▁분리주의	-11.1679
▁관객들	-11.1683
▁pre	-11.1703
▁나타났	-11.1718
ix	-11.1744
똑	-11.176
흠	-11.1761
International	-11.1761
▁디트로이트	-11.1761
▁떠올랐다	-11.1761
▁애완동물	-11.1761
▁엉덩이	-11.1761
▁유죄판결	-11.1761
社	-11.1761
송완영	-11.1761
춥	-11.1761
▁친환경	-11.1761
▁마흐디	-11.1761
▁모퉁이	-11.1761
▁브래드	-11.1761
▁쇠고기	-11.1761
▁떠오르	-11.1761
▁테이블	-11.1761
▁주유소	-11.1761
▁구단주	-11.1761
▁침착	-11.1761
▁닉슨	-11.1761
▁어둠	-11.1761
▁유명인사	-11.1762
▁얼룩	-11.1762
▁흐르	-11.1763
▁켈리	-11.1764
▁데일리	-11.1764
▁아마존	-11.1766
▁가져올	-11.1767
▁무덤	-11.1767
▁70%	-11.1767
▁본격적	-11.1767
▁권총	-11.1768
▁출근	-11.1768
▁있었습니다	-11.1768
▁NK	-11.1776
▁고위급	-11.1777
▁생각하니	-11.1777
방면에	-11.1779
▁are	-11.178
▁톰슨	-11.1784
▁해적들	-11.1788
▁cont	-11.1807
하십시오	-11.1813
뒤	-11.182
하느냐	-11.1865
▁한국인들	-11.1892
▁단체들	-11.19
▁참가자들	-11.1934
▁자유무역협정	-11.1969
벅	-11.1969
텍	-11.1969
OPEC	-11.1969
▁1986	-11.1969
▁교착상태	-11.1969
▁베네딕	-11.1969
륜	-11.1969
▁성추행	-11.1969
▁허커비	-11.1969
▁실무회의	-11.1969
▁자동차업계	-11.1969
▁무너져	-11.1969
▁깃발	-11.1969
▁2008.10	-11.1969
▁예선전	-11.197
▁스크린	-11.197
다닌다	-11.1971
▁앨런	-11.1972
▁도망쳤다	-11.1975
▁긴밀	-11.1976
▁당첨	-11.1976
▁테러조직	-11.1977
▁받아왔다	-11.1978
▁삼림	-11.1983
▁압도적	-11.1989
▁정상들	-11.1993
올림픽	-11.2038
최근	-11.2041
▁운동가들	-11.2056
기위해	-11.2071
ami	-11.208
ease	-11.2092
륙	-11.2113
분께	-11.2122
십니까	-11.2168
▁없음	-11.217
벼	-11.2178
▁애니메이션	-11.2182
▁오클라호마	-11.2182
▁울포위츠	-11.2182
▁위스콘신	-11.2182
▁질렀다	-11.2182
▁티셔츠	-11.2182
▁파바로티	-11.2182
▁플루토늄	-11.2182
▁하이브리드	-11.2182
팜	-11.2182
▁비즈니스	-11.2182
▁즐거운	-11.2182
▁촛불	-11.2182
▁중남미	-11.2182
▁콜린스	-11.2182
▁닥터	-11.2182
▁침범	-11.2183
▁상관없이	-11.2183
2007.12	-11.2183
▁맥캔	-11.2184
▁아름다움	-11.2185
▁왜곡	-11.2186
▁중앙은행	-11.2186
▁잔혹	-11.2187
time	-11.2187
베르토	-11.2192
▁황급	-11.2195
▁도착했을	-11.2196
▁자발적	-11.2197
▁기차역	-11.2202
▁서식하	-11.2208
▁사회주의	-11.2239
사령관	-11.2263
▁승무원들	-11.2282
▁맞이하	-11.2321
▁테러리스트들	-11.2354
▁사용자들	-11.2354
2006.08	-11.2399
▁again	-11.2399
▁visit	-11.2399
▁고이즈미	-11.2399
▁뉴올리언스	-11.2399
▁디스커버리	-11.2399
▁루아얄	-11.2399
▁부딪혀	-11.2399
▁빨간색	-11.2399
▁스튜디오	-11.2399
▁시나리오	-11.2399
▁앞섰다	-11.2399
▁파파라치	-11.2399
▁활성화	-11.2399
둬	-11.2399
싹	-11.2399
왁	-11.2399
▁암스트롱	-11.2399
▁재활용	-11.2399
궐	-11.2399
▁최우선	-11.2399
▁옐친	-11.2399
▁포르노	-11.2399
▁우체국	-11.2399
▁하루종일	-11.2399
▁섹시	-11.2399
▁수류탄	-11.2399
▁익숙	-11.24
▁바하마	-11.24
▁보이콧	-11.24
▁마라도나	-11.24
▁브레이크	-11.2401
▁미주리	-11.2402
▁요즘	-11.2402
▁Ex	-11.2402
able	-11.2404
▁경솔	-11.2404
▁구호단체	-11.2404
▁디스크	-11.2405
▁높아졌다	-11.2405
▁닦아	-11.2406
▁환율	-11.2406
▁줄이기	-11.2417
▁전형적	-11.2467
밥	-11.2487
팔레스타인	-11.2487
큰	-11.2488
웨스트	-11.2494
▁일시적	-11.2531
▁talks	-11.2622
▁러닝메이트	-11.2622
▁않았습니다	-11.2622
▁에티오피아	-11.2622
▁호나우두	-11.2622
▁히틀러	-11.2622
벡	-11.2622
윗	-11.2622
헝	-11.2622
▁쓰러졌다	-11.2622
▁무너졌다	-11.2622
▁지지선언	-11.2622
▁적합하지	-11.2622
▁무소속	-11.2622
▁압바스	-11.2622
▁억지로	-11.2622
▁조만간	-11.2622
▁흥행	-11.2622
▁태우고	-11.2622
▁그레나다	-11.2622
▁치솟	-11.2622
▁이자율	-11.2623
▁당부했다	-11.2623
▁News	-11.2624
▁소방대원	-11.2625
▁NBA	-11.2625
▁가져왔다	-11.2626
▁핵개발	-11.2629
▁고조되	-11.263
▁출항	-11.263
카를로스	-11.263
▁솔직하	-11.2631
▁월터	-11.2634
top	-11.2636
▁부모들	-11.2654
▁러드	-11.2658
대원들	-11.2682
▁신도들	-11.2703
떨	-11.2717
빅	-11.2719
낙	-11.2719
뱀	-11.2727
보고서	-11.2729
에너지	-11.2737
브리지	-11.2842
▁뉴캐슬	-11.2849
▁메릴랜드	-11.2849
▁아마디네자드	-11.2849
놔	-11.2849
믹	-11.2849
펙	-11.2849
밴	-11.2957
겔	-11.3081
•	-11.3081
낀	-11.3081
뭉	-11.3081
챙	-11.3081
또	-11.3202
닛	-11.332
녕	-11.332
쉐	-11.332
쩌	-11.332
팡	-11.332
덮	-11.3464
궈	-11.3563
쭉	-11.3563
캘	-11.3563
됨	-11.3812
핏	-11.3813
꼈	-11.407
뜯	-11.407
뜰	-11.407
팍	-11.407
넥	-11.4333
>	-11.4333
갓	-11.4333
깐	-11.4333
쁠	-11.4333
깨	-11.4513
춤	-11.4518
냅	-11.4603
홉	-11.4603
헴	-11.4603
탬	-11.4881
前	-11.4881
늬	-11.4881
앰	-11.4881
푹	-11.4881
흑	-11.5098
앵	-11.5167
껴	-11.5167
땀	-11.5167
<	-11.5167
꼴	-11.5167
즐	-11.54
꿀	-11.5454
옐	-11.5461
돔	-11.5461
눕	-11.5461
멧	-11.5461
뿔	-11.5461
쪼	-11.5461
쿼	-11.5461
팟	-11.5461
펫	-11.5461
꼭	-11.5721
벳	-11.5763
둡	-11.5764
릉	-11.5764
윙	-11.5764
훌	-11.5764
꿈	-11.6037
콕	-11.6073
긍	-11.6076
럿	-11.6076
쯔	-11.6076
끝	-11.6371
▶	-11.6399
깜	-11.6399
룽	-11.6399
헬	-11.6715
롯	-11.6725
뉘	-11.6731
뎌	-11.6732
튠	-11.6732
옌	-11.6732
욱	-11.7067
몸	-11.707
늑	-11.7077
멕	-11.7077
폼	-11.7077
궤	-11.7433
$	-11.7434
뭘	-11.7434
쏴	-11.7434
쿵	-11.7434
캣	-11.7434
숨	-11.7442
넓	-11.7442
낮	-11.7443
봇	-11.7803
띤	-11.7805
쿤	-11.7805
땅	-11.7822
몇	-11.7823
홈	-11.7825
앨	-11.7827
횡	-11.8189
햇	-11.8189
떡	-11.8189
쥬	-11.8189
휠	-11.8189
쏠	-11.8189
츄	-11.8189
칫	-11.8189
英	-11.8589
늄	-11.8589
옴	-11.8589
콴	-11.8589
샴	-11.8589
켐	-11.8589
텅	-11.8589
딕	-11.8641
므	-11.8773
낫	-11.9003
벙	-11.9006
챌	-11.9006
덟	-11.9006
삿	-11.9006
쳇	-11.9006
츨	-11.9006
콥	-11.9006
윌	-11.9073
묻	-11.9079
룡	-11.9436
뷔	-11.9438
쑥	-11.9441
촨	-11.9441
잇	-11.9533
톰	-11.9533
뱅	-11.9889
댈	-11.9895
덱	-11.9895
뜬	-11.9895
뻑	-11.9895
챈	-11.9895
벗	-12.0005
빵	-12.0009
냄	-12.0371
뜩	-12.0371
깅	-12.0371
뷴	-12.0371
팻	-12.0371
엿	-12.0371
헥	-12.0871
륭	-12.0871
벵	-12.0871
빔	-12.0871
쭈	-12.0871
텀	-12.0871
웹	-12.1035
왜	-12.1036
섯	-12.1387
륨	-12.1398
볐	-12.1398
샨	-12.1398
씬	-12.1398
쾅	-12.1398
쿡	-12.1398
퐁	-12.1398
맸	-12.1398
잖	-12.1398
듀	-12.159
즉	-12.1591
쎄	-12.1953
짱	-12.1953
캇	-12.1953
툭	-12.1953
맛	-12.2179
쓸	-12.218
솟	-12.2539
퉁	-12.2542
낌	-12.2542
反	-12.2542
엣	-12.2542
윅	-12.2542
쥔	-12.2542
짚	-12.2542
쉘	-12.2542
市	-12.2542
첫	-12.2805
쉰	-12.3167
궂	-12.3167
꽁	-12.3167
랏	-12.3167
빕	-12.3167
샵	-12.3167
셴	-12.3167
쟈	-12.3167
줌	-12.3167
뚤	-12.3167
뜻	-12.3471
녹	-12.3471
덧	-12.3833
묵	-12.4185
뛰	-12.4185
얘	-12.4545
뭇	-12.4548
멀	-12.4954
훼	-12.5317
숲	-12.5788
끗	-12.6149
美	-12.6697
젼	-12.7059
펭	-12.7059
룻	-12.7059
맡	-12.7691
좁	-12.7696
샌	-12.7697
쓴	-12.7697
좀	-12.7698
탠	-12.8056
탤	-12.8059
섹	-12.9139
큼	-12.9152
촛	-12.917
귄	-12.917
빼	-13.0058
밑	-13.0058
둠	-13.0417
낄	-13.042
콸	-13.042
맺	-13.1487
볍	-13.1844
볕	-13.1849
잭	-13.3153
룹	-13.3462
쏘	-13.5153
삶	-13.5154
떤	-13.5496
흉	-13.7654
봄	-13.7654
꿔	-13.8008
밧	-13.8015
젯	-13.8016
*	-14.0988
옆	-14.0988
빚	-14.5992
씀	-14.6343
힉	-14.6347
튿	-15.5787
튕	-15.5788
쬐	-15.5789
옅	-15.579
뺨	-15.5791
뛸	-15.5792
걀	-15.5793
±	-15.5794
얽	-15.5795
뺏	-15.5796
뛴	-15.5797
떴	-15.5798
귓	-15.5799
눅	-15.58
넜	-15.5801
똥	-15.5802
끽	-15.5803
뀔	-15.5804
껐	-15.5805
뽐	-15.5806
뀐	-15.5807
깼	-15.5808
샐	-15.5809
빴	-15.581
댕	-15.5811
껄	-15.5812
긱	-15.5813
폈	-15.5814
씌	-15.5815
멎	-15.5816
얕	-15.5817
맷	-15.5818
맴	-15.5819
젭	-15.582
잦	-15.5821
핫	-15.5822
캡	-15.5823
얹	-15.5824
썹	-15.5825
숍	-15.5826
쨌	-15.5827
썰	-15.5828
뭔	-15.5829
넉	-15.583
꾀	-15.5831
팰	-15.5832
킷	-15.5833
맵	-15.5834
덥	-15.5835
꿰	-15.5836
꿨	-15.5837
줍	-15.5838
쐈	-15.5839
웍	-15.584
긁	-15.5841
횟	-15.5842
컸	-15.5843
쌌	-15.5844
슭	-15.5845
뮬	-15.5846
꼼	-15.5847
팠	-15.5848
췌	-15.5849
쏜	-15.585
빽	-15.5851
깡	-15.5852
캥	-15.5853
쑤	-15.5854
싣	-15.5855
돛	-15.5856
훑	-15.5857
잤	-15.5858
몫	-15.5859
́	-15.586
뤼	-15.5861
얇	-15.5862
쁩	-15.5863
뮌	-15.5864
겉	-15.5865
뱃	-15.5866
뤘	-15.5867
댔	-15.5868
뿜	-15.5869
댓	-15.587
깥	-15.5871
뻤	-15.5872
껍	-15.5873
눠	-15.5874
껑	-15.5875
몹	-15.5876
넹	-15.5877
굶	-15.5878
꼽	-15.5879
탓	-15.588
밸	-15.5881
낚	-15.5882
봅	-15.5883
닮	-15.5884
꽂	-15.5885
렷	-15.5886
닙	-15.5887
펌	-15.5888
맑	-15.5889
윔	-15.589
눴	-15.5891
끓	-15.5892
릅	-15.5893
낯	-15.5894
짖	-15.5895
띄	-15.5896
괄	-15.5897
찼	-15.5898
갚	-15.5899
쁨	-15.59
킥	-15.5901
닿	-15.5902
굉	-15.5903
씻	-15.5904
곱	-15.5905
틈	-15.5906
찢	-15.5907
낡	-15.5908
핸	-15.5909
튀	-15.591
꽉	-15.5911
멤	-15.5912
녔	-15.5913
굳	-15.5914
흩	-15.5915
픔	-15.5916
맙	-15.5917
젖	-15.5918
쩔	-15.5919
뻐	-15.592
밟	-15.5921
뻗	-15.5922
갇	-15.5923
탔	-15.5924
뭄	-15.5925
췄	-15.5926
깝	-15.5927
괜	-15.5928
뀌	-15.5929
콰	-15.593
뚫	-15.5931
듭	-15.5932
탱	-15.5933
샀	-15.5934
옛	-15.5935
뒷	-15.5936
왼	-15.5937
곽	-15.5938
꺾	-15.5939
짧	-15.594
휩	-15.5941
릎	-15.5942
묶	-15.5943
숫	-15.5944
훨	-15.5945
슴	-15.5946
앓	-15.5947
찮	-15.5948
쏟	-15.5949
숭	-15.595
뽑	-15.5951
뿌	-15.5952
걷	-15.5953
붉	-15.5954
쌓	-15.5955
닫	-15.5956
딪	-15.5957
멋	-15.5958
쫓	-15.5959
쿄	-15.596
슷	-15.5961
썼	-15.5962
싫	-15.5963
젝	-15.5964
q	-15.5965
됩	-15.5966
잊	-15.5967
돕	-15.5968
옮	-15.5969
촬	-15.597
챔	-15.5971
흡	-15.5972
읽	-15.5973
걱	-15.5974
겪	-15.5975
펼	-15.5976
녁	-15.5977
̋	-15.5978
섰	-15.5979
끊	-15.598
젊	-15.5981
붕	-15.5982
늦	-15.5983
캠	-15.5984
앉	-15.5985
렀	-15.5986
듣	-15.5987
찍	-15.5988
웠	-15.5989
잃	-15.599
믿	-15.5991
빨	-15.5992
떻	-15.5993
랐	-15.5994
끌	-15.5995
밖	-15.5996
싶	-15.5997
먹	-15.5998
얻	-15.5999
갖	-15.6
렇	-15.6001
높	-15.6002
혐	-15.6003
찾	-15.6004
갔	-15.6005
났	-15.6006
좋	-15.6007
협	-15.6008
확	-15.6009
졌	-15.601
았	-15.6011
밝	-15.6012
않	-15.6013
낳	-15.6014
있	-15.6014
